{
  "version": "1.0",
  "truncation": null,
  "padding": null,
  "added_tokens": [
    {
      "id": 0,
      "content": "<PAD>",
      "single_word": false,
      "lstrip": false,
      "rstrip": false,
      "normalized": false,
      "special": true
    },
    {
      "id": 1,
      "content": "<UNK>",
      "single_word": false,
      "lstrip": false,
      "rstrip": false,
      "normalized": false,
      "special": true
    },
    {
      "id": 2,
      "content": "<BOS>",
      "single_word": false,
      "lstrip": false,
      "rstrip": false,
      "normalized": false,
      "special": true
    },
    {
      "id": 3,
      "content": "<EOS>",
      "single_word": false,
      "lstrip": false,
      "rstrip": false,
      "normalized": false,
      "special": true
    }
  ],
  "normalizer": {
    "type": "Sequence",
    "normalizers": [
      {
        "type": "NFKC"
      }
    ]
  },
  "pre_tokenizer": {
    "type": "Sequence",
    "pretokenizers": [
      {
        "type": "Whitespace"
      },
      {
        "type": "Punctuation",
        "behavior": "Isolated"
      },
      {
        "type": "Split",
        "pattern": {
          "String": "(\\d)"
        },
        "behavior": "Isolated",
        "invert": false
      },
      {
        "type": "Split",
        "pattern": {
          "String": "(.{3,}?)\\1{1,}"
        },
        "behavior": "Isolated",
        "invert": false
      }
    ]
  },
  "post_processor": null,
  "decoder": {
    "type": "ByteLevel",
    "add_prefix_space": true,
    "trim_offsets": true,
    "use_regex": true
  },
  "model": {
    "type": "BPE",
    "dropout": null,
    "unk_token": "<UNK>",
    "continuing_subword_prefix": "##",
    "end_of_word_suffix": null,
    "fuse_unk": false,
    "byte_fallback": false,
    "ignore_merges": false,
    "vocab": {
      "<PAD>": 0,
      "<UNK>": 1,
      "<BOS>": 2,
      "<EOS>": 3,
      "!": 4,
      "\"": 5,
      "#": 6,
      "$": 7,
      "%": 8,
      "&": 9,
      "'": 10,
      "(": 11,
      ")": 12,
      "*": 13,
      "+": 14,
      ",": 15,
      "-": 16,
      ".": 17,
      "/": 18,
      "0": 19,
      "1": 20,
      "2": 21,
      "3": 22,
      "4": 23,
      "5": 24,
      "6": 25,
      "7": 26,
      "8": 27,
      "9": 28,
      ":": 29,
      ";": 30,
      "<": 31,
      "=": 32,
      ">": 33,
      "?": 34,
      "@": 35,
      "A": 36,
      "B": 37,
      "C": 38,
      "D": 39,
      "E": 40,
      "F": 41,
      "G": 42,
      "H": 43,
      "I": 44,
      "J": 45,
      "K": 46,
      "L": 47,
      "M": 48,
      "N": 49,
      "O": 50,
      "P": 51,
      "Q": 52,
      "R": 53,
      "S": 54,
      "T": 55,
      "U": 56,
      "V": 57,
      "W": 58,
      "X": 59,
      "Y": 60,
      "Z": 61,
      "[": 62,
      "\\": 63,
      "]": 64,
      "^": 65,
      "_": 66,
      "`": 67,
      "a": 68,
      "b": 69,
      "c": 70,
      "d": 71,
      "e": 72,
      "f": 73,
      "g": 74,
      "h": 75,
      "i": 76,
      "j": 77,
      "k": 78,
      "l": 79,
      "m": 80,
      "n": 81,
      "o": 82,
      "p": 83,
      "q": 84,
      "r": 85,
      "s": 86,
      "t": 87,
      "u": 88,
      "v": 89,
      "w": 90,
      "x": 91,
      "y": 92,
      "z": 93,
      "{": 94,
      "|": 95,
      "}": 96,
      "~": 97,
      "£": 98,
      "«": 99,
      "¬": 100,
      "®": 101,
      "°": 102,
      "±": 103,
      "·": 104,
      "»": 105,
      "×": 106,
      "à": 107,
      "á": 108,
      "â": 109,
      "ã": 110,
      "ä": 111,
      "å": 112,
      "æ": 113,
      "ç": 114,
      "è": 115,
      "é": 116,
      "í": 117,
      "î": 118,
      "ï": 119,
      "ñ": 120,
      "ò": 121,
      "ó": 122,
      "ô": 123,
      "ö": 124,
      "÷": 125,
      "ø": 126,
      "ú": 127,
      "û": 128,
      "ü": 129,
      "þ": 130,
      "ă": 131,
      "ą": 132,
      "ć": 133,
      "č": 134,
      "ħ": 135,
      "ń": 136,
      "ő": 137,
      "š": 138,
      "ū": 139,
      "ű": 140,
      "ž": 141,
      "ȳ": 142,
      "ʙ": 143,
      "ˆ": 144,
      "̂": 145,
      "̄": 146,
      "̅": 147,
      "ά": 148,
      "ί": 149,
      "α": 150,
      "β": 151,
      "γ": 152,
      "δ": 153,
      "ε": 154,
      "ζ": 155,
      "η": 156,
      "θ": 157,
      "ι": 158,
      "κ": 159,
      "λ": 160,
      "μ": 161,
      "ν": 162,
      "ξ": 163,
      "ο": 164,
      "π": 165,
      "ρ": 166,
      "ς": 167,
      "σ": 168,
      "τ": 169,
      "υ": 170,
      "φ": 171,
      "χ": 172,
      "ψ": 173,
      "ω": 174,
      "а": 175,
      "б": 176,
      "в": 177,
      "г": 178,
      "д": 179,
      "е": 180,
      "ж": 181,
      "з": 182,
      "и": 183,
      "й": 184,
      "к": 185,
      "л": 186,
      "м": 187,
      "н": 188,
      "о": 189,
      "п": 190,
      "р": 191,
      "с": 192,
      "т": 193,
      "у": 194,
      "ф": 195,
      "х": 196,
      "ц": 197,
      "ч": 198,
      "ш": 199,
      "щ": 200,
      "ъ": 201,
      "ы": 202,
      "ь": 203,
      "э": 204,
      "ю": 205,
      "я": 206,
      "ё": 207,
      "і": 208,
      "ᴄ": 209,
      "–": 210,
      "—": 211,
      "‘": 212,
      "’": 213,
      "“": 214,
      "”": 215,
      "†": 216,
      "•": 217,
      "′": 218,
      "※": 219,
      "⁄": 220,
      "⃣": 221,
      "←": 222,
      "↑": 223,
      "→": 224,
      "↓": 225,
      "↔": 226,
      "⇌": 227,
      "⇒": 228,
      "⇔": 229,
      "∀": 230,
      "∂": 231,
      "∃": 232,
      "∅": 233,
      "∆": 234,
      "∇": 235,
      "∈": 236,
      "∉": 237,
      "∏": 238,
      "∑": 239,
      "−": 240,
      "∓": 241,
      "∗": 242,
      "∘": 243,
      "∙": 244,
      "√": 245,
      "∛": 246,
      "∝": 247,
      "∞": 248,
      "∠": 249,
      "∣": 250,
      "∤": 251,
      "∥": 252,
      "∧": 253,
      "∨": 254,
      "∩": 255,
      "∪": 256,
      "∫": 257,
      "∮": 258,
      "∼": 259,
      "≅": 260,
      "≈": 261,
      "≠": 262,
      "≡": 263,
      "≤": 264,
      "≥": 265,
      "≦": 266,
      "≯": 267,
      "≰": 268,
      "≳": 269,
      "≺": 270,
      "≻": 271,
      "⊃": 272,
      "⊆": 273,
      "⊇": 274,
      "⊕": 275,
      "⊗": 276,
      "⊙": 277,
      "⊥": 278,
      "⋅": 279,
      "⋯": 280,
      "⌈": 281,
      "⌉": 282,
      "⌊": 283,
      "⌋": 284,
      "─": 285,
      "│": 286,
      "┌": 287,
      "┐": 288,
      "└": 289,
      "├": 290,
      "┴": 291,
      "□": 292,
      "△": 293,
      "○": 294,
      "◦": 295,
      "♠": 296,
      "♡": 297,
      "♣": 298,
      "♥": 299,
      "♦": 300,
      "✅": 301,
      "✓": 302,
      "✔": 303,
      "✖": 304,
      "✗": 305,
      "❌": 306,
      "⟨": 307,
      "⟩": 308,
      "、": 309,
      "。": 310,
      "一": 311,
      "七": 312,
      "万": 313,
      "三": 314,
      "上": 315,
      "下": 316,
      "不": 317,
      "与": 318,
      "且": 319,
      "世": 320,
      "业": 321,
      "东": 322,
      "两": 323,
      "严": 324,
      "个": 325,
      "中": 326,
      "丰": 327,
      "串": 328,
      "为": 329,
      "主": 330,
      "举": 331,
      "么": 332,
      "义": 333,
      "之": 334,
      "乌": 335,
      "乎": 336,
      "乐": 337,
      "乘": 338,
      "九": 339,
      "也": 340,
      "习": 341,
      "书": 342,
      "乱": 343,
      "了": 344,
      "事": 345,
      "二": 346,
      "于": 347,
      "云": 348,
      "互": 349,
      "五": 350,
      "些": 351,
      "交": 352,
      "产": 353,
      "享": 354,
      "人": 355,
      "什": 356,
      "仅": 357,
      "介": 358,
      "仍": 359,
      "从": 360,
      "仔": 361,
      "他": 362,
      "付": 363,
      "代": 364,
      "令": 365,
      "以": 366,
      "仪": 367,
      "们": 368,
      "仲": 369,
      "件": 370,
      "价": 371,
      "任": 372,
      "仿": 373,
      "休": 374,
      "众": 375,
      "优": 376,
      "伙": 377,
      "会": 378,
      "传": 379,
      "伦": 380,
      "伪": 381,
      "伯": 382,
      "估": 383,
      "伴": 384,
      "伸": 385,
      "似": 386,
      "伽": 387,
      "但": 388,
      "位": 389,
      "低": 390,
      "住": 391,
      "体": 392,
      "何": 393,
      "余": 394,
      "作": 395,
      "佳": 396,
      "使": 397,
      "來": 398,
      "例": 399,
      "供": 400,
      "依": 401,
      "侧": 402,
      "便": 403,
      "促": 404,
      "俗": 405,
      "保": 406,
      "信": 407,
      "修": 408,
      "個": 409,
      "倍": 410,
      "們": 411,
      "倒": 412,
      "候": 413,
      "债": 414,
      "值": 415,
      "假": 416,
      "偏": 417,
      "做": 418,
      "健": 419,
      "偶": 420,
      "傅": 421,
      "储": 422,
      "像": 423,
      "允": 424,
      "元": 425,
      "充": 426,
      "先": 427,
      "光": 428,
      "免": 429,
      "入": 430,
      "全": 431,
      "兩": 432,
      "八": 433,
      "公": 434,
      "六": 435,
      "共": 436,
      "关": 437,
      "其": 438,
      "具": 439,
      "典": 440,
      "养": 441,
      "兼": 442,
      "兽": 443,
      "内": 444,
      "再": 445,
      "冒": 446,
      "写": 447,
      "农": 448,
      "冲": 449,
      "决": 450,
      "况": 451,
      "净": 452,
      "准": 453,
      "减": 454,
      "几": 455,
      "凸": 456,
      "凹": 457,
      "出": 458,
      "击": 459,
      "函": 460,
      "分": 461,
      "切": 462,
      "刑": 463,
      "划": 464,
      "列": 465,
      "则": 466,
      "刚": 467,
      "创": 468,
      "初": 469,
      "删": 470,
      "判": 471,
      "別": 472,
      "利": 473,
      "别": 474,
      "到": 475,
      "制": 476,
      "刻": 477,
      "剂": 478,
      "前": 479,
      "剩": 480,
      "割": 481,
      "力": 482,
      "办": 483,
      "功": 484,
      "加": 485,
      "务": 486,
      "动": 487,
      "助": 488,
      "励": 489,
      "劳": 490,
      "势": 491,
      "勒": 492,
      "包": 493,
      "化": 494,
      "匹": 495,
      "区": 496,
      "医": 497,
      "十": 498,
      "升": 499,
      "半": 500,
      "协": 501,
      "单": 502,
      "卖": 503,
      "博": 504,
      "占": 505,
      "卡": 506,
      "印": 507,
      "即": 508,
      "历": 509,
      "压": 510,
      "厚": 511,
      "原": 512,
      "去": 513,
      "参": 514,
      "又": 515,
      "叉": 516,
      "及": 517,
      "友": 518,
      "双": 519,
      "反": 520,
      "发": 521,
      "取": 522,
      "受": 523,
      "变": 524,
      "叠": 525,
      "口": 526,
      "句": 527,
      "另": 528,
      "只": 529,
      "叫": 530,
      "召": 531,
      "可": 532,
      "台": 533,
      "史": 534,
      "右": 535,
      "叶": 536,
      "号": 537,
      "司": 538,
      "各": 539,
      "合": 540,
      "同": 541,
      "名": 542,
      "后": 543,
      "向": 544,
      "吗": 545,
      "否": 546,
      "吧": 547,
      "含": 548,
      "听": 549,
      "启": 550,
      "告": 551,
      "员": 552,
      "呢": 553,
      "周": 554,
      "味": 555,
      "呼": 556,
      "命": 557,
      "和": 558,
      "品": 559,
      "哇": 560,
      "哈": 561,
      "响": 562,
      "哥": 563,
      "哦": 564,
      "哪": 565,
      "哲": 566,
      "售": 567,
      "唯": 568,
      "商": 569,
      "啊": 570,
      "問": 571,
      "善": 572,
      "喜": 573,
      "嗯": 574,
      "器": 575,
      "噪": 576,
      "四": 577,
      "回": 578,
      "因": 579,
      "团": 580,
      "园": 581,
      "困": 582,
      "围": 583,
      "固": 584,
      "国": 585,
      "图": 586,
      "圆": 587,
      "圈": 588,
      "土": 589,
      "在": 590,
      "地": 591,
      "场": 592,
      "均": 593,
      "坍": 594,
      "坏": 595,
      "坐": 596,
      "块": 597,
      "垂": 598,
      "型": 599,
      "城": 600,
      "域": 601,
      "基": 602,
      "堆": 603,
      "塔": 604,
      "填": 605,
      "境": 606,
      "增": 607,
      "声": 608,
      "处": 609,
      "备": 610,
      "复": 611,
      "外": 612,
      "多": 613,
      "够": 614,
      "大": 615,
      "天": 616,
      "太": 617,
      "夫": 618,
      "央": 619,
      "失": 620,
      "头": 621,
      "夹": 622,
      "奇": 623,
      "奖": 624,
      "她": 625,
      "好": 626,
      "如": 627,
      "妆": 628,
      "妙": 629,
      "妨": 630,
      "始": 631,
      "媒": 632,
      "子": 633,
      "字": 634,
      "存": 635,
      "孤": 636,
      "学": 637,
      "孩": 638,
      "它": 639,
      "宇": 640,
      "安": 641,
      "完": 642,
      "宗": 643,
      "宙": 644,
      "定": 645,
      "宜": 646,
      "实": 647,
      "审": 648,
      "客": 649,
      "宣": 650,
      "室": 651,
      "宪": 652,
      "害": 653,
      "家": 654,
      "容": 655,
      "宽": 656,
      "密": 657,
      "富": 658,
      "察": 659,
      "寸": 660,
      "对": 661,
      "寻": 662,
      "导": 663,
      "封": 664,
      "射": 665,
      "将": 666,
      "小": 667,
      "少": 668,
      "尔": 669,
      "尚": 670,
      "尝": 671,
      "尤": 672,
      "就": 673,
      "尺": 674,
      "尽": 675,
      "尾": 676,
      "局": 677,
      "层": 678,
      "居": 679,
      "展": 680,
      "属": 681,
      "岗": 682,
      "岛": 683,
      "崩": 684,
      "工": 685,
      "左": 686,
      "巧": 687,
      "差": 688,
      "己": 689,
      "已": 690,
      "巴": 691,
      "币": 692,
      "市": 693,
      "布": 694,
      "师": 695,
      "希": 696,
      "带": 697,
      "帧": 698,
      "帮": 699,
      "常": 700,
      "幂": 701,
      "幅": 702,
      "干": 703,
      "平": 704,
      "并": 705,
      "幸": 706,
      "幻": 707,
      "广": 708,
      "庄": 709,
      "序": 710,
      "库": 711,
      "应": 712,
      "底": 713,
      "废": 714,
      "度": 715,
      "庭": 716,
      "康": 717,
      "廓": 718,
      "延": 719,
      "建": 720,
      "开": 721,
      "异": 722,
      "弃": 723,
      "弈": 724,
      "式": 725,
      "引": 726,
      "张": 727,
      "弦": 728,
      "弧": 729,
      "弯": 730,
      "弹": 731,
      "强": 732,
      "彈": 733,
      "归": 734,
      "当": 735,
      "录": 736,
      "形": 737,
      "影": 738,
      "彻": 739,
      "往": 740,
      "征": 741,
      "径": 742,
      "待": 743,
      "很": 744,
      "律": 745,
      "得": 746,
      "循": 747,
      "微": 748,
      "德": 749,
      "心": 750,
      "必": 751,
      "忆": 752,
      "志": 753,
      "快": 754,
      "念": 755,
      "忽": 756,
      "怀": 757,
      "态": 758,
      "怎": 759,
      "思": 760,
      "急": 761,
      "性": 762,
      "怪": 763,
      "总": 764,
      "恒": 765,
      "恢": 766,
      "息": 767,
      "恰": 768,
      "悉": 769,
      "情": 770,
      "惑": 771,
      "想": 772,
      "意": 773,
      "感": 774,
      "慢": 775,
      "憾": 776,
      "應": 777,
      "戏": 778,
      "成": 779,
      "我": 780,
      "或": 781,
      "战": 782,
      "截": 783,
      "户": 784,
      "房": 785,
      "所": 786,
      "手": 787,
      "才": 788,
      "扑": 789,
      "打": 790,
      "托": 791,
      "扣": 792,
      "执": 793,
      "扩": 794,
      "扫": 795,
      "批": 796,
      "找": 797,
      "承": 798,
      "技": 799,
      "把": 800,
      "投": 801,
      "抗": 802,
      "折": 803,
      "护": 804,
      "报": 805,
      "抵": 806,
      "抽": 807,
      "担": 808,
      "拉": 809,
      "拍": 810,
      "拓": 811,
      "拟": 812,
      "拢": 813,
      "择": 814,
      "括": 815,
      "拿": 816,
      "持": 817,
      "指": 818,
      "按": 819,
      "挑": 820,
      "挖": 821,
      "振": 822,
      "挺": 823,
      "捕": 824,
      "损": 825,
      "换": 826,
      "据": 827,
      "捷": 828,
      "掉": 829,
      "掌": 830,
      "排": 831,
      "掘": 832,
      "探": 833,
      "接": 834,
      "控": 835,
      "推": 836,
      "掩": 837,
      "描": 838,
      "提": 839,
      "插": 840,
      "握": 841,
      "搜": 842,
      "搞": 843,
      "摄": 844,
      "摘": 845,
      "摩": 846,
      "播": 847,
      "操": 848,
      "擎": 849,
      "支": 850,
      "收": 851,
      "改": 852,
      "攻": 853,
      "放": 854,
      "政": 855,
      "故": 856,
      "效": 857,
      "敏": 858,
      "教": 859,
      "敛": 860,
      "散": 861,
      "数": 862,
      "整": 863,
      "數": 864,
      "文": 865,
      "斗": 866,
      "料": 867,
      "斜": 868,
      "断": 869,
      "斯": 870,
      "新": 871,
      "方": 872,
      "於": 873,
      "施": 874,
      "旁": 875,
      "旅": 876,
      "旋": 877,
      "无": 878,
      "既": 879,
      "日": 880,
      "旦": 881,
      "早": 882,
      "时": 883,
      "明": 884,
      "易": 885,
      "星": 886,
      "映": 887,
      "是": 888,
      "显": 889,
      "時": 890,
      "普": 891,
      "景": 892,
      "晰": 893,
      "晶": 894,
      "智": 895,
      "暂": 896,
      "暗": 897,
      "曲": 898,
      "更": 899,
      "曼": 900,
      "替": 901,
      "最": 902,
      "會": 903,
      "有": 904,
      "朋": 905,
      "服": 906,
      "朗": 907,
      "望": 908,
      "朝": 909,
      "期": 910,
      "木": 911,
      "未": 912,
      "末": 913,
      "本": 914,
      "术": 915,
      "机": 916,
      "杂": 917,
      "权": 918,
      "杆": 919,
      "材": 920,
      "村": 921,
      "束": 922,
      "条": 923,
      "来": 924,
      "松": 925,
      "板": 926,
      "极": 927,
      "构": 928,
      "析": 929,
      "林": 930,
      "枚": 931,
      "果": 932,
      "架": 933,
      "某": 934,
      "查": 935,
      "柯": 936,
      "标": 937,
      "栈": 938,
      "树": 939,
      "校": 940,
      "样": 941,
      "核": 942,
      "根": 943,
      "格": 944,
      "框": 945,
      "案": 946,
      "档": 947,
      "桥": 948,
      "梁": 949,
      "梯": 950,
      "械": 951,
      "检": 952,
      "森": 953,
      "棱": 954,
      "棵": 955,
      "椭": 956,
      "楚": 957,
      "概": 958,
      "槽": 959,
      "模": 960,
      "樣": 961,
      "次": 962,
      "欢": 963,
      "欧": 964,
      "止": 965,
      "正": 966,
      "此": 967,
      "步": 968,
      "殊": 969,
      "段": 970,
      "母": 971,
      "每": 972,
      "比": 973,
      "毕": 974,
      "民": 975,
      "气": 976,
      "水": 977,
      "求": 978,
      "汇": 979,
      "汽": 980,
      "沉": 981,
      "沒": 982,
      "没": 983,
      "治": 984,
      "沿": 985,
      "法": 986,
      "泛": 987,
      "泡": 988,
      "波": 989,
      "注": 990,
      "洁": 991,
      "洋": 992,
      "活": 993,
      "流": 994,
      "测": 995,
      "济": 996,
      "浏": 997,
      "浮": 998,
      "海": 999,
      "浸": 1000,
      "消": 1001,
      "涉": 1002,
      "润": 1003,
      "涵": 1004,
      "淆": 1005,
      "深": 1006,
      "混": 1007,
      "添": 1008,
      "清": 1009,
      "渐": 1010,
      "温": 1011,
      "游": 1012,
      "溃": 1013,
      "源": 1014,
      "滑": 1015,
      "满": 1016,
      "滤": 1017,
      "滿": 1018,
      "漂": 1019,
      "漏": 1020,
      "演": 1021,
      "潜": 1022,
      "激": 1023,
      "灾": 1024,
      "炸": 1025,
      "点": 1026,
      "為": 1027,
      "烦": 1028,
      "热": 1029,
      "無": 1030,
      "然": 1031,
      "照": 1032,
      "熟": 1033,
      "熵": 1034,
      "父": 1035,
      "片": 1036,
      "版": 1037,
      "物": 1038,
      "牵": 1039,
      "特": 1040,
      "犯": 1041,
      "状": 1042,
      "独": 1043,
      "猜": 1044,
      "献": 1045,
      "率": 1046,
      "王": 1047,
      "环": 1048,
      "现": 1049,
      "珠": 1050,
      "球": 1051,
      "理": 1052,
      "琐": 1053,
      "瓦": 1054,
      "生": 1055,
      "用": 1056,
      "由": 1057,
      "电": 1058,
      "画": 1059,
      "界": 1060,
      "留": 1061,
      "略": 1062,
      "畴": 1063,
      "當": 1064,
      "疑": 1065,
      "疗": 1066,
      "疫": 1067,
      "百": 1068,
      "的": 1069,
      "益": 1070,
      "盒": 1071,
      "盖": 1072,
      "目": 1073,
      "直": 1074,
      "相": 1075,
      "盾": 1076,
      "省": 1077,
      "看": 1078,
      "真": 1079,
      "着": 1080,
      "矛": 1081,
      "矢": 1082,
      "知": 1083,
      "矩": 1084,
      "短": 1085,
      "矮": 1086,
      "码": 1087,
      "研": 1088,
      "破": 1089,
      "确": 1090,
      "碍": 1091,
      "碰": 1092,
      "碳": 1093,
      "確": 1094,
      "磅": 1095,
      "示": 1096,
      "社": 1097,
      "神": 1098,
      "票": 1099,
      "离": 1100,
      "私": 1101,
      "种": 1102,
      "科": 1103,
      "秒": 1104,
      "秘": 1105,
      "租": 1106,
      "秩": 1107,
      "积": 1108,
      "称": 1109,
      "移": 1110,
      "程": 1111,
      "稍": 1112,
      "税": 1113,
      "稳": 1114,
      "究": 1115,
      "穷": 1116,
      "空": 1117,
      "穿": 1118,
      "突": 1119,
      "窗": 1120,
      "立": 1121,
      "站": 1122,
      "竞": 1123,
      "章": 1124,
      "端": 1125,
      "笔": 1126,
      "符": 1127,
      "第": 1128,
      "等": 1129,
      "答": 1130,
      "策": 1131,
      "筛": 1132,
      "签": 1133,
      "简": 1134,
      "算": 1135,
      "管": 1136,
      "簇": 1137,
      "米": 1138,
      "类": 1139,
      "粒": 1140,
      "粗": 1141,
      "精": 1142,
      "糊": 1143,
      "糙": 1144,
      "系": 1145,
      "素": 1146,
      "索": 1147,
      "紧": 1148,
      "累": 1149,
      "結": 1150,
      "總": 1151,
      "繁": 1152,
      "纠": 1153,
      "红": 1154,
      "约": 1155,
      "级": 1156,
      "纯": 1157,
      "纳": 1158,
      "纸": 1159,
      "纺": 1160,
      "线": 1161,
      "练": 1162,
      "组": 1163,
      "细": 1164,
      "织": 1165,
      "终": 1166,
      "经": 1167,
      "结": 1168,
      "绕": 1169,
      "绘": 1170,
      "给": 1171,
      "络": 1172,
      "绝": 1173,
      "统": 1174,
      "继": 1175,
      "绩": 1176,
      "续": 1177,
      "维": 1178,
      "综": 1179,
      "绿": 1180,
      "缀": 1181,
      "缓": 1182,
      "编": 1183,
      "缘": 1184,
      "缩": 1185,
      "缺": 1186,
      "网": 1187,
      "罗": 1188,
      "置": 1189,
      "美": 1190,
      "群": 1191,
      "翻": 1192,
      "老": 1193,
      "考": 1194,
      "者": 1195,
      "而": 1196,
      "耗": 1197,
      "职": 1198,
      "联": 1199,
      "聪": 1200,
      "肯": 1201,
      "育": 1202,
      "背": 1203,
      "能": 1204,
      "脉": 1205,
      "腰": 1206,
      "膜": 1207,
      "自": 1208,
      "至": 1209,
      "致": 1210,
      "舍": 1211,
      "航": 1212,
      "般": 1213,
      "色": 1214,
      "艺": 1215,
      "节": 1216,
      "芯": 1217,
      "花": 1218,
      "若": 1219,
      "英": 1220,
      "范": 1221,
      "茨": 1222,
      "草": 1223,
      "荐": 1224,
      "药": 1225,
      "荷": 1226,
      "获": 1227,
      "营": 1228,
      "落": 1229,
      "著": 1230,
      "蓝": 1231,
      "虑": 1232,
      "虚": 1233,
      "虽": 1234,
      "蚁": 1235,
      "蚂": 1236,
      "蛇": 1237,
      "蛛": 1238,
      "蜘": 1239,
      "融": 1240,
      "行": 1241,
      "衍": 1242,
      "街": 1243,
      "衡": 1244,
      "补": 1245,
      "表": 1246,
      "袋": 1247,
      "被": 1248,
      "裁": 1249,
      "裂": 1250,
      "装": 1251,
      "裝": 1252,
      "裡": 1253,
      "西": 1254,
      "要": 1255,
      "覆": 1256,
      "见": 1257,
      "观": 1258,
      "规": 1259,
      "视": 1260,
      "览": 1261,
      "觉": 1262,
      "角": 1263,
      "解": 1264,
      "言": 1265,
      "該": 1266,
      "說": 1267,
      "論": 1268,
      "计": 1269,
      "认": 1270,
      "讨": 1271,
      "让": 1272,
      "训": 1273,
      "议": 1274,
      "记": 1275,
      "许": 1276,
      "论": 1277,
      "讼": 1278,
      "设": 1279,
      "访": 1280,
      "证": 1281,
      "评": 1282,
      "识": 1283,
      "诉": 1284,
      "词": 1285,
      "译": 1286,
      "试": 1287,
      "话": 1288,
      "询": 1289,
      "该": 1290,
      "详": 1291,
      "语": 1292,
      "误": 1293,
      "诱": 1294,
      "说": 1295,
      "请": 1296,
      "读": 1297,
      "课": 1298,
      "调": 1299,
      "谱": 1300,
      "象": 1301,
      "贝": 1302,
      "负": 1303,
      "贡": 1304,
      "财": 1305,
      "责": 1306,
      "败": 1307,
      "货": 1308,
      "质": 1309,
      "贪": 1310,
      "贸": 1311,
      "费": 1312,
      "资": 1313,
      "赋": 1314,
      "赖": 1315,
      "赞": 1316,
      "赫": 1317,
      "走": 1318,
      "起": 1319,
      "超": 1320,
      "越": 1321,
      "趋": 1322,
      "趣": 1323,
      "足": 1324,
      "跃": 1325,
      "跑": 1326,
      "距": 1327,
      "跟": 1328,
      "跨": 1329,
      "路": 1330,
      "跳": 1331,
      "践": 1332,
      "踪": 1333,
      "身": 1334,
      "车": 1335,
      "转": 1336,
      "轮": 1337,
      "软": 1338,
      "轴": 1339,
      "较": 1340,
      "辑": 1341,
      "输": 1342,
      "边": 1343,
      "达": 1344,
      "迁": 1345,
      "迅": 1346,
      "过": 1347,
      "运": 1348,
      "近": 1349,
      "返": 1350,
      "还": 1351,
      "这": 1352,
      "进": 1353,
      "远": 1354,
      "违": 1355,
      "连": 1356,
      "迟": 1357,
      "迭": 1358,
      "述": 1359,
      "追": 1360,
      "退": 1361,
      "送": 1362,
      "适": 1363,
      "逆": 1364,
      "选": 1365,
      "透": 1366,
      "逐": 1367,
      "递": 1368,
      "途": 1369,
      "逗": 1370,
      "這": 1371,
      "通": 1372,
      "逝": 1373,
      "速": 1374,
      "造": 1375,
      "逻": 1376,
      "遇": 1377,
      "遍": 1378,
      "道": 1379,
      "遗": 1380,
      "避": 1381,
      "那": 1382,
      "邦": 1383,
      "邻": 1384,
      "部": 1385,
      "都": 1386,
      "配": 1387,
      "酶": 1388,
      "采": 1389,
      "释": 1390,
      "里": 1391,
      "重": 1392,
      "野": 1393,
      "量": 1394,
      "金": 1395,
      "鉴": 1396,
      "针": 1397,
      "钟": 1398,
      "钥": 1399,
      "钱": 1400,
      "链": 1401,
      "销": 1402,
      "锁": 1403,
      "错": 1404,
      "锥": 1405,
      "键": 1406,
      "镜": 1407,
      "长": 1408,
      "门": 1409,
      "闭": 1410,
      "问": 1411,
      "闲": 1412,
      "间": 1413,
      "阈": 1414,
      "队": 1415,
      "阱": 1416,
      "阴": 1417,
      "阵": 1418,
      "阶": 1419,
      "附": 1420,
      "际": 1421,
      "陈": 1422,
      "降": 1423,
      "限": 1424,
      "除": 1425,
      "险": 1426,
      "陷": 1427,
      "随": 1428,
      "隐": 1429,
      "隔": 1430,
      "障": 1431,
      "隧": 1432,
      "隶": 1433,
      "难": 1434,
      "集": 1435,
      "離": 1436,
      "零": 1437,
      "需": 1438,
      "静": 1439,
      "非": 1440,
      "靠": 1441,
      "面": 1442,
      "音": 1443,
      "題": 1444,
      "页": 1445,
      "顶": 1446,
      "项": 1447,
      "顺": 1448,
      "须": 1449,
      "顾": 1450,
      "顿": 1451,
      "预": 1452,
      "频": 1453,
      "题": 1454,
      "颜": 1455,
      "额": 1456,
      "风": 1457,
      "食": 1458,
      "餘": 1459,
      "饭": 1460,
      "馈": 1461,
      "首": 1462,
      "马": 1463,
      "驱": 1464,
      "驶": 1465,
      "驾": 1466,
      "验": 1467,
      "骑": 1468,
      "骤": 1469,
      "骰": 1470,
      "高": 1471,
      "魔": 1472,
      "麻": 1473,
      "麼": 1474,
      "黄": 1475,
      "齐": 1476,
      "경": 1477,
      "년": 1478,
      "자": 1479,
      "️": 1480,
      "�": 1481,
      "##f": 1482,
      "##1": 1483,
      "##0": 1484,
      "##5": 1485,
      "##r": 1486,
      "##6": 1487,
      "##8": 1488,
      "##u": 1489,
      "##n": 1490,
      "##o": 1491,
      "##a": 1492,
      "##t": 1493,
      "##e": 1494,
      "##l": 1495,
      "##y": 1496,
      "##2": 1497,
      "##3": 1498,
      "##i": 1499,
      "##p": 1500,
      "##4": 1501,
      "##9": 1502,
      "##m": 1503,
      "##c": 1504,
      "##k": 1505,
      "##s": 1506,
      "##h": 1507,
      "##g": 1508,
      "##d": 1509,
      "##v": 1510,
      "##x": 1511,
      "##b": 1512,
      "##7": 1513,
      "##с": 1514,
      "##т": 1515,
      "##ь": 1516,
      "##出": 1517,
      "##它": 1518,
      "##们": 1519,
      "##的": 1520,
      "##公": 1521,
      "##因": 1522,
      "##式": 1523,
      "##w": 1524,
      "##б": 1525,
      "##о": 1526,
      "##з": 1527,
      "##н": 1528,
      "##а": 1529,
      "##ч": 1530,
      "##е": 1531,
      "##但": 1532,
      "##这": 1533,
      "##听": 1534,
      "##起": 1535,
      "##来": 1536,
      "##很": 1537,
      "##复": 1538,
      "##杂": 1539,
      "##为": 1540,
      "##不": 1541,
      "##需": 1542,
      "##要": 1543,
      "##连": 1544,
      "##接": 1545,
      "##任": 1546,
      "##何": 1547,
      "##边": 1548,
      "##τ": 1549,
      "##ά": 1550,
      "##ν": 1551,
      "##z": 1552,
      "##必": 1553,
      "##须": 1554,
      "##被": 1555,
      "##整": 1556,
      "##除": 1557,
      "##仅": 1558,
      "##涉": 1559,
      "##及": 1560,
      "##叶": 1561,
      "##节": 1562,
      "##点": 1563,
      "##j": 1564,
      "##у": 1565,
      "##д": 1566,
      "##р": 1567,
      "##в": 1568,
      "##м": 1569,
      "##δ": 1570,
      "##种": 1571,
      "##方": 1572,
      "##法": 1573,
      "##可": 1574,
      "##能": 1575,
      "##比": 1576,
      "##较": 1577,
      "##q": 1578,
      "##在": 1579,
      "##时": 1580,
      "##间": 1581,
      "##以": 1582,
      "##搜": 1583,
      "##索": 1584,
      "##都": 1585,
      "##应": 1586,
      "##该": 1587,
      "##成": 1588,
      "##功": 1589,
      "##于": 1590,
      "##直": 1591,
      "##线": 1592,
      "##部": 1593,
      "##分": 1594,
      "##平": 1595,
      "##面": 1596,
      "##范": 1597,
      "##围": 1598,
      "##内": 1599,
      "##尝": 1600,
      "##试": 1601,
      "##同": 1602,
      "##些": 1603,
      "##偏": 1604,
      "##离": 1605,
      "##了": 1606,
      "##问": 1607,
      "##题": 1608,
      "##核": 1609,
      "##心": 1610,
      "##过": 1611,
      "##程": 1612,
      "##中": 1613,
      "##前": 1614,
      "##系": 1615,
      "##统": 1616,
      "##测": 1617,
      "##百": 1618,
      "##是": 1619,
      "##多": 1620,
      "##少": 1621,
      "##я": 1622,
      "##相": 1623,
      "##互": 1624,
      "##影": 1625,
      "##响": 1626,
      "##情": 1627,
      "##况": 1628,
      "##虑": 1629,
      "##使": 1630,
      "##用": 1631,
      "##向": 1632,
      "##量": 1633,
      "##诉": 1634,
      "##讼": 1635,
      "##序": 1636,
      "##性": 1637,
      "##质": 1638,
      "##设": 1639,
      "##置": 1640,
      "##组": 1641,
      "##合": 1642,
      "##果": 1643,
      "##其": 1644,
      "##值": 1645,
      "##当": 1646,
      "##之": 1647,
      "##入": 1648,
      "##模": 1649,
      "##块": 1650,
      "##代": 1651,
      "##数": 1652,
      "##几": 1653,
      "##每": 1654,
      "##次": 1655,
      "##剩": 1656,
      "##下": 1657,
      "##個": 1658,
      "##彈": 1659,
      "##珠": 1660,
      "##注": 1661,
      "##意": 1662,
      "##算": 1663,
      "##错": 1664,
      "##联": 1665,
      "##布": 1666,
      "##保": 1667,
      "##满": 1668,
      "##足": 1669,
      "##求": 1670,
      "##进": 1671,
      "##开": 1672,
      "##始": 1673,
      "##解": 1674,
      "##决": 1675,
      "##案": 1676,
      "##后": 1677,
      "##通": 1678,
      "##地": 1679,
      "##球": 1680,
      "##科": 1681,
      "##学": 1682,
      "##技": 1683,
      "##术": 1684,
      "##估": 1685,
      "##计": 1686,
      "##假": 1687,
      "##左": 1688,
      "##子": 1689,
      "##树": 1690,
      "##所": 1691,
      "##有": 1692,
      "##小": 1693,
      "##根": 1694,
      "##и": 1695,
      "##据": 1696,
      "##获": 1697,
      "##取": 1698,
      "##一": 1699,
      "##列": 1700,
      "##ö": 1701,
      "##ú": 1702,
      "##样": 1703,
      "##三": 1704,
      "##元": 1705,
      "##检": 1706,
      "##查": 1707,
      "##印": 1708,
      "##个": 1709,
      "##司": 1710,
      "##机": 1711,
      "##没": 1712,
      "##明": 1713,
      "##显": 1714,
      "##倍": 1715,
      "##关": 1716,
      "##条": 1717,
      "##件": 1718,
      "##绿": 1719,
      "##色": 1720,
      "##等": 1721,
      "##败": 1722,
      "##选": 1723,
      "##择": 1724,
      "##颜": 1725,
      "##管": 1726,
      "##自": 1727,
      "##己": 1728,
      "##我": 1729,
      "##修": 1730,
      "##改": 1731,
      "##定": 1732,
      "##义": 1733,
      "##否": 1734,
      "##他": 1735,
      "##人": 1736,
      "##跑": 1737,
      "##圈": 1738,
      "##距": 1739,
      "##щ": 1740,
      "##四": 1741,
      "##加": 1742,
      "##找": 1743,
      "##到": 1744,
      "##共": 1745,
      "##驱": 1746,
      "##正": 1747,
      "##确": 1748,
      "##骑": 1749,
      "##手": 1750,
      "##枚": 1751,
      "##举": 1752,
      "##适": 1753,
      "##许": 1754,
      "##将": 1755,
      "##和": 1756,
      "##表": 1757,
      "##示": 1758,
      "##某": 1759,
      "##力": 1760,
      "##期": 1761,
      "##望": 1762,
      "##ã": 1763,
      "##么": 1764,
      "##存": 1765,
      "##字": 1766,
      "##本": 1767,
      "##身": 1768,
      "##无": 1769,
      "##限": 1770,
      "##健": 1771,
      "##康": 1772,
      "##如": 1773,
      "##素": 1774,
      "##由": 1775,
      "##让": 1776,
      "##考": 1777,
      "##切": 1778,
      "##换": 1779,
      "##就": 1780,
      "##像": 1781,
      "##做": 1782,
      "##那": 1783,
      "##者": 1784,
      "##ñ": 1785,
      "##想": 1786,
      "##认": 1787,
      "##符": 1788,
      "##号": 1789,
      "##对": 1790,
      "##非": 1791,
      "##般": 1792,
      "##化": 1793,
      "##л": 1794,
      "##й": 1795,
      "##步": 1796,
      "##递": 1797,
      "##增": 1798,
      "##函": 1799,
      "##行": 1800,
      "##排": 1801,
      "##完": 1802,
      "##软": 1803,
      "##发": 1804,
      "##项": 1805,
      "##目": 1806,
      "##码": 1807,
      "##五": 1808,
      "##角": 1809,
      "##星": 1810,
      "##格": 1811,
      "##割": 1812,
      "##草": 1813,
      "##形": 1814,
      "##额": 1815,
      "##外": 1816,
      "##炸": 1817,
      "##弹": 1818,
      "##添": 1819,
      "##活": 1820,
      "##跃": 1821,
      "##队": 1822,
      "##п": 1823,
      "##ы": 1824,
      "##к": 1825,
      "##更": 1826,
      "##精": 1827,
      "##第": 1828,
      "##秒": 1829,
      "##重": 1830,
      "##集": 1831,
      "##论": 1832,
      "##哪": 1833,
      "##度": 1834,
      "##具": 1835,
      "##体": 1836,
      "##析": 1837,
      "##ш": 1838,
      "##看": 1839,
      "##好": 1840,
      "##π": 1841,
      "##配": 1842,
      "##大": 1843,
      "##底": 1844,
      "##顶": 1845,
      "##与": 1846,
      "##棱": 1847,
      "##镜": 1848,
      "##也": 1849,
      "##参": 1850,
      "##例": 1851,
      "##致": 1852,
      "##á": 1853,
      "##从": 1854,
      "##循": 1855,
      "##环": 1856,
      "##得": 1857,
      "##轴": 1858,
      "##上": 1859,
      "##极": 1860,
      "##端": 1861,
      "##单": 1862,
      "##位": 1863,
      "##区": 1864,
      "##界": 1865,
      "##处": 1866,
      "##理": 1867,
      "##别": 1868,
      "##着": 1869,
      "##编": 1870,
      "##写": 1871,
      "##标": 1872,
      "##准": 1873,
      "##输": 1874,
      "##读": 1875,
      "##混": 1876,
      "##现": 1877,
      "##实": 1878,
      "##调": 1879,
      "##趣": 1880,
      "##х": 1881,
      "##è": 1882,
      "##ж": 1883,
      "##优": 1884,
      "##坐": 1885,
      "##最": 1886,
      "##叠": 1887,
      "##预": 1888,
      "##先": 1889,
      "##而": 1890,
      "##维": 1891,
      "##敏": 1892,
      "##捷": 1893,
      "##电": 1894,
      "##路": 1895,
      "##或": 1896,
      "##械": 1897,
      "##越": 1898,
      "##受": 1899,
      "##近": 1900,
      "##似": 1901,
      "##证": 1902,
      "##两": 1903,
      "##垂": 1904,
      "##α": 1905,
      "##σ": 1906,
      "##ι": 1907,
      "##λ": 1908,
      "##ς": 1909,
      "##秩": 1910,
      "##历": 1911,
      "##未": 1912,
      "##移": 1913,
      "##工": 1914,
      "##智": 1915,
      "##特": 1916,
      "##殊": 1917,
      "##拍": 1918,
      "##卖": 1919,
      "##竞": 1920,
      "##述": 1921,
      "##凸": 1922,
      "##包": 1923,
      "##差": 1924,
      "##异": 1925,
      "##凹": 1926,
      "##μ": 1927,
      "##矩": 1928,
      "##阵": 1929,
      "##征": 1930,
      "##í": 1931,
      "##声": 1932,
      "##г": 1933,
      "##提": 1934,
      "##供": 1935,
      "##转": 1936,
      "##负": 1937,
      "##严": 1938,
      "##收": 1939,
      "##产": 1940,
      "##业": 1941,
      "##织": 1942,
      "##ю": 1943,
      "##划": 1944,
      "##类": 1945,
      "##骤": 1946,
      "##扫": 1947,
      "##描": 1948,
      "##推": 1949,
      "##断": 1950,
      "##效": 1951,
      "##积": 1952,
      "##续": 1953,
      "##乘": 1954,
      "##导": 1955,
      "##坍": 1956,
      "##缩": 1957,
      "##构": 1958,
      "##造": 1959,
      "##传": 1960,
      "##继": 1961,
      "##动": 1962,
      "##展": 1963,
      "##父": 1964,
      "##只": 1965,
      "##红": 1966,
      "##拉": 1967,
      "##朗": 1968,
      "##日": 1969,
      "##恒": 1970,
      "##叉": 1971,
      "##新": 1972,
      "##困": 1973,
      "##难": 1974,
      "##摘": 1975,
      "##变": 1976,
      "##ő": 1977,
      "##é": 1978,
      "##φ": 1979,
      "##原": 1980,
      "##再": 1981,
      "##金": 1982,
      "##融": 1983,
      "##器": 1984,
      "##操": 1985,
      "##作": 1986,
      "##然": 1987,
      "##简": 1988,
      "##翻": 1989,
      "##ё": 1990,
      "##盒": 1991,
      "##词": 1992,
      "##逗": 1993,
      "##串": 1994,
      "##远": 1995,
      "##护": 1996,
      "##车": 1997,
      "##驶": 1998,
      "##生": 1999,
      "##交": 2000,
      "##会": 2001,
      "##给": 2002,
      "##约": 2003,
      "##束": 2004,
      "##送": 2005,
      "##带": 2006,
      "##另": 2007,
      "##引": 2008,
      "##持": 2009,
      "##顺": 2010,
      "##含": 2011,
      "##率": 2012,
      "##覆": 2013,
      "##盖": 2014,
      "##怪": 2015,
      "##兽": 2016,
      "##ω": 2017,
      "##广": 2018,
      "##告": 2019,
      "##终": 2020,
      "##径": 2021,
      "##空": 2022,
      "##去": 2023,
      "##资": 2024,
      "##源": 2025,
      "##沿": 2026,
      "##缘": 2027,
      "##阴": 2028,
      "##超": 2029,
      "##律": 2030,
      "##奇": 2031,
      "##蜘": 2032,
      "##蛛": 2033,
      "##均": 2034,
      "##投": 2035,
      "##费": 2036,
      "##马": 2037,
      "##艺": 2038,
      "##答": 2039,
      "##蓝": 2040,
      "##信": 2041,
      "##息": 2042,
      "##召": 2043,
      "##回": 2044,
      "##境": 2045,
      "##宣": 2046,
      "##β": 2047,
      "##贡": 2048,
      "##献": 2049,
      "##累": 2050,
      "##括": 2051,
      "##右": 2052,
      "##孩": 2053,
      "##帧": 2054,
      "##冲": 2055,
      "##突": 2056,
      "##反": 2057,
      "##射": 2058,
      "##衡": 2059,
      "##误": 2060,
      "##称": 2061,
      "##各": 2062,
      "##长": 2063,
      "##ü": 2064,
      "##塔": 2065,
      "##基": 2066,
      "##周": 2067,
      "##总": 2068,
      "##逐": 2069,
      "##建": 2070,
      "##已": 2071,
      "##经": 2072,
      "##制": 2073,
      "##并": 2074,
      "##太": 2075,
      "##二": 2076,
      "##询": 2077,
      "##结": 2078,
      "##独": 2079,
      "##立": 2080,
      "##伦": 2081,
      "##够": 2082,
      "##ο": 2083,
      "##υ": 2084,
      "##κ": 2085,
      "##觉": 2086,
      "##水": 2087,
      "##达": 2088,
      "##低": 2089,
      "##欧": 2090,
      "##高": 2091,
      "##细": 2092,
      "##仍": 2093,
      "##障": 2094,
      "##碍": 2095,
      "##物": 2096,
      "##偶": 2097,
      "##匹": 2098,
      "##英": 2099,
      "##尺": 2100,
      "##验": 2101,
      "##邻": 2102,
      "##按": 2103,
      "##零": 2104,
      "##矛": 2105,
      "##盾": 2106,
      "##级": 2107,
      "##段": 2108,
      "##至": 2109,
      "##χ": 2110,
      "##句": 2111,
      "##话": 2112,
      "##说": 2113,
      "##闲": 2114,
      "##陷": 2115,
      "##街": 2116,
      "##道": 2117,
      "##济": 2118,
      "##还": 2119,
      "##纳": 2120,
      "##米": 2121,
      "##且": 2122,
      "##志": 2123,
      "##指": 2124,
      "##容": 2125,
      "##易": 2126,
      "##放": 2127,
      "##毕": 2128,
      "##哥": 2129,
      "##斯": 2130,
      "##紧": 2131,
      "##名": 2132,
      "##典": 2133,
      "##照": 2134,
      "##桥": 2135,
      "##梁": 2136,
      "##散": 2137,
      "##ζ": 2138,
      "##朋": 2139,
      "##友": 2140,
      "##喜": 2141,
      "##欢": 2142,
      "##品": 2143,
      "##短": 2144,
      "##版": 2145,
      "##型": 2146,
      "##群": 2147,
      "##逻": 2148,
      "##辑": 2149,
      "##规": 2150,
      "##运": 2151,
      "##光": 2152,
      "##追": 2153,
      "##踪": 2154,
      "##站": 2155,
      "##初": 2156,
      "##思": 2157,
      "##才": 2158,
      "##允": 2159,
      "##务": 2160,
      "##快": 2161,
      "##速": 2162,
      "##∫": 2163,
      "##储": 2164,
      "##博": 2165,
      "##弈": 2166,
      "##支": 2167,
      "##付": 2168,
      "##材": 2169,
      "##料": 2170,
      "##教": 2171,
      "##常": 2172,
      "##余": 2173,
      "##弦": 2174,
      "##强": 2175,
      "##习": 2176,
      "##奖": 2177,
      "##励": 2178,
      "##策": 2179,
      "##帮": 2180,
      "##助": 2181,
      "##仔": 2182,
      "##花": 2183,
      "##依": 2184,
      "##此": 2185,
      "##宽": 2186,
      "##滤": 2187,
      "##波": 2188,
      "##ц": 2189,
      "##归": 2190,
      "##來": 2191,
      "##沒": 2192,
      "##旁": 2193,
      "##识": 2194,
      "##票": 2195,
      "##聪": 2196,
      "##双": 2197,
      "##针": 2198,
      "##唯": 2199,
      "##逆": 2200,
      "##图": 2201,
      "##事": 2202,
      "##̂": 2203,
      "##跟": 2204,
      "##遍": 2205,
      "##乎": 2206,
      "##靠": 2207,
      "##落": 2208,
      "##八": 2209,
      "##遗": 2210,
      "##憾": 2211,
      "##全": 2212,
      "##首": 2213,
      "##态": 2214,
      "##减": 2215,
      "##阶": 2216,
      "##寻": 2217,
      "##尚": 2218,
      "##居": 2219,
      "##民": 2220,
      "##免": 2221,
      "##疫": 2222,
      "##抗": 2223,
      "##挑": 2224,
      "##战": 2225,
      "##驾": 2226,
      "##框": 2227,
      "##架": 2228,
      "##语": 2229,
      "##言": 2230,
      "##汇": 2231,
      "##若": 2232,
      "##干": 2233,
      "##微": 2234,
      "##见": 2235,
      "##麻": 2236,
      "##烦": 2237,
      "##θ": 2238,
      "##栈": 2239,
      "##航": 2240,
      "##天": 2241,
      "##ф": 2242,
      "##即": 2243,
      "##云": 2244,
      "##议": 2245,
      "##审": 2246,
      "##视": 2247,
      "##陈": 2248,
      "##─": 2249,
      "##延": 2250,
      "##迟": 2251,
      "##虚": 2252,
      "##拟": 2253,
      "##城": 2254,
      "##市": 2255,
      "##野": 2256,
      "##味": 2257,
      "##打": 2258,
      "##控": 2259,
      "##记": 2260,
      "##录": 2261,
      "##γ": 2262,
      "##洁": 2263,
      "##层": 2264,
      "##荐": 2265,
      "##户": 2266,
      "##击": 2267,
      "##抽": 2268,
      "##象": 2269,
      "##附": 2270,
      "##消": 2271,
      "##耗": 2272,
      "##纠": 2273,
      "##文": 2274,
      "##九": 2275,
      "##圆": 2276,
      "##商": 2277,
      "##台": 2278,
      "##销": 2279,
      "##磅": 2280,
      "##际": 2281,
      "##ʙ": 2282,
      "##退": 2283,
      "##普": 2284,
      "##劳": 2285,
      "##里": 2286,
      "##惑": 2287,
      "##税": 2288,
      "##场": 2289,
      "##万": 2290,
      "##担": 2291,
      "##失": 2292,
      "##真": 2293,
      "##隐": 2294,
      "##私": 2295,
      "##噪": 2296,
      "##音": 2297,
      "##乐": 2298,
      "##宪": 2299,
      "##裂": 2300,
      "##э": 2301,
      "##知": 2302,
      "##轮": 2303,
      "##廓": 2304,
      "##贪": 2305,
      "##ä": 2306,
      "##主": 2307,
      "##哲": 2308,
      "##状": 2309,
      "##̅": 2310,
      "##史": 2311,
      "##研": 2312,
      "##究": 2313,
      "##概": 2314,
      "##們": 2315,
      "##把": 2316,
      "##裝": 2317,
      "##袋": 2318,
      "##局": 2319,
      "##权": 2320,
      "##门": 2321,
      "##掉": 2322,
      "##创": 2323,
      "##填": 2324,
      "##充": 2325,
      "##美": 2326,
      "##肯": 2327,
      "##游": 2328,
      "##戏": 2329,
      "##深": 2330,
      "##景": 2331,
      "##伸": 2332,
      "##神": 2333,
      "##网": 2334,
      "##络": 2335,
      "##备": 2336,
      "##育": 2337,
      "##ε": 2338,
      "##密": 2339,
      "##哈": 2340,
      "##希": 2341,
      "##棵": 2342,
      "##拓": 2343,
      "##扑": 2344,
      "##潜": 2345,
      "##感": 2346,
      "##妨": 2347,
      "##候": 2348,
      "##访": 2349,
      "##什": 2350,
      "##办": 2351,
      "##气": 2352,
      "##封": 2353,
      "##装": 2354,
      "##略": 2355,
      "##风": 2356,
      "##险": 2357,
      "##途": 2358,
      "##社": 2359,
      "##媒": 2360,
      "##趋": 2361,
      "##势": 2362,
      "##签": 2363,
      "##饭": 2364,
      "##阱": 2365,
      "##巧": 2366,
      "##稳": 2367,
      "##客": 2368,
      "##幻": 2369,
      "##¬": 2370,
      "##员": 2371,
      "##绩": 2372,
      "##评": 2373,
      "##ψ": 2374,
      "##母": 2375,
      "##安": 2376,
      "##幂": 2377,
      "##避": 2378,
      "##阈": 2379,
      "##跨": 2380,
      "##摩": 2381,
      "##尔": 2382,
      "##张": 2383,
      "##便": 2384,
      "##价": 2385,
      "##房": 2386,
      "##ø": 2387,
      "##频": 2388,
      "##利": 2389,
      "##执": 2390,
      "##滑": 2391,
      "##窗": 2392,
      "##口": 2393,
      "##脉": 2394,
      "##租": 2395,
      "##请": 2396,
      "##替": 2397,
      "##急": 2398,
      "##宇": 2399,
      "##宙": 2400,
      "##链": 2401,
      "##浏": 2402,
      "##览": 2403,
      "##淆": 2404,
      "##刻": 2405,
      "##违": 2406,
      "##背": 2407,
      "##判": 2408,
      "##园": 2409,
      "##巴": 2410,
      "##拿": 2411,
      "##赫": 2412,
      "##浮": 2413,
      "##掩": 2414,
      "##衍": 2415,
      "##松": 2416,
      "##医": 2417,
      "##穷": 2418,
      "##吗": 2419,
      "##挖": 2420,
      "##掘": 2421,
      "##┴": 2422,
      "##┐": 2423,
      "##穿": 2424,
      "##侧": 2425,
      "##讨": 2426,
      "##糊": 2427,
      "##则": 2428,
      "##流": 2429,
      "##服": 2430,
      "##热": 2431,
      "##岗": 2432,
      "##摄": 2433,
      "##责": 2434,
      "##ó": 2435,
      "##黄": 2436,
      "##幸": 2437,
      "##扩": 2438,
      "##迭": 2439,
      "##释": 2440,
      "##怀": 2441,
      "##疑": 2442,
      "##呢": 2443,
      "##王": 2444,
      "##傅": 2445,
      "##迅": 2446,
      "##蚂": 2447,
      "##蚁": 2448,
      "##鉴": 2449,
      "##跳": 2450,
      "##尽": 2451,
      "##闭": 2452,
      "##半": 2453,
      "##促": 2454,
      "##ô": 2455,
      "##药": 2456,
      "##剂": 2457,
      "##ȳ": 2458,
      "##删": 2459,
      "##ᴄ": 2460,
      "##犯": 2461,
      "##国": 2462,
      "##問": 2463,
      "##題": 2464,
      "##启": 2465,
      "##å": 2466,
      "##走": 2467,
      "##往": 2468,
      "##键": 2469,
      "##伪": 2470,
      "##哇": 2471,
      "##赋": 2472,
      "##隧": 2473,
      "##拢": 2474,
      "##介": 2475,
      "##译": 2476,
      "##柯": 2477,
      "##西": 2478,
      "##曼": 2479,
      "##顿": 2480,
      "##骰": 2481,
      "##ξ": 2482,
      "##货": 2483,
      "##币": 2484,
      "##秘": 2485,
      "##仪": 2486,
      "##자": 2487,
      "##년": 2488,
      "##观": 2489,
      "##待": 2490,
      "##š": 2491,
      "##妙": 2492,
      "##森": 2493,
      "##林": 2494,
      "##漏": 2495,
      "##域": 2496,
      "##头": 2497,
      "##↓": 2498,
      "##旋": 2499,
      "##政": 2500,
      "##固": 2501,
      "##缺": 2502,
      "##念": 2503,
      "##ˆ": 2504,
      "##粗": 2505,
      "##糙": 2506,
      "##ъ": 2507,
      "##√": 2508,
      "##践": 2509,
      "##海": 2510,
      "##洋": 2511,
      "##降": 2512,
      "##ħ": 2513,
      "##ń": 2514,
      "##宗": 2515,
      "##既": 2516,
      "##畴": 2517,
      "##汽": 2518,
      "##承": 2519,
      "##享": 2520,
      "##训": 2521,
      "##练": 2522,
      "##û": 2523,
      "##ò": 2524,
      "##邦": 2525,
      "##酶": 2526,
      "##̄": 2527,
      "##繁": 2528,
      "##琐": 2529,
      "##慢": 2530,
      "##随": 2531,
      "##室": 2532,
      "##仿": 2533,
      "##沉": 2534,
      "##浸": 2535,
      "##属": 2536,
      "##缀": 2537,
      "##冒": 2538,
      "##泡": 2539,
      "##為": 2540,
      "##麼": 2541,
      "##會": 2542,
      "##這": 2543,
      "##樣": 2544,
      "##休": 2545,
      "##赖": 2546,
      "##察": 2547,
      "##佳": 2548,
      "##绕": 2549,
      "##怎": 2550,
      "##梯": 2551,
      "##敛": 2552,
      "##书": 2553,
      "##ű": 2554,
      "##报": 2555,
      "##插": 2556,
      "##抵": 2557,
      "##吧": 2558,
      "##叫": 2559,
      "##又": 2560,
      "##∞": 2561,
      "##幅": 2562,
      "##乱": 2563,
      "##餘": 2564,
      "##數": 2565,
      "##總": 2566,
      "##於": 2567,
      "##ρ": 2568,
      "##批": 2569,
      "##岛": 2570,
      "##攻": 2571,
      "##透": 2572,
      "##î": 2573,
      "##缓": 2574,
      "##∑": 2575,
      "##à": 2576,
      "##演": 2577,
      "##谱": 2578,
      "##她": 2579,
      "##详": 2580,
      "##采": 2581,
      "##離": 2582,
      "##堆": 2583,
      "##家": 2584,
      "##碰": 2585,
      "##ć": 2586,
      "##熟": 2587,
      "##悉": 2588,
      "##虽": 2589,
      "##ą": 2590,
      "##库": 2591,
      "##档": 2592,
      "##纺": 2593,
      "##η": 2594,
      "##恰": 2595,
      "##夫": 2596,
      "##旦": 2597,
      "##別": 2598,
      "##孤": 2599,
      "##画": 2600,
      "##截": 2601,
      "##命": 2602,
      "##倒": 2603,
      "##折": 2604,
      "##扣": 2605,
      "##诱": 2606,
      "##善": 2607,
      "##钥": 2608,
      "##熵": 2609,
      "##振": 2610,
      "##應": 2611,
      "##該": 2612,
      "##仲": 2613,
      "##裁": 2614,
      "##牵": 2615,
      "##簇": 2616,
      "##激": 2617,
      "##营": 2618,
      "##养": 2619,
      "##妆": 2620,
      "##恢": 2621,
      "##七": 2622,
      "##清": 2623,
      "##楚": 2624,
      "##兼": 2625,
      "##废": 2626,
      "##忆": 2627,
      "##返": 2628,
      "##补": 2629,
      "##泛": 2630,
      "##土": 2631,
      "##世": 2632,
      "##综": 2633,
      "##隔": 2634,
      "##T": 2635,
      "##M": 2636,
      "##矢": 2637,
      "##压": 2638,
      "##碳": 2639,
      "##损": 2640,
      "##财": 2641,
      "##笔": 2642,
      "##映": 2643,
      "##绘": 2644,
      "##农": 2645,
      "##涵": 2646,
      "##木": 2647,
      "##兩": 2648,
      "##腰": 2649,
      "##挺": 2650,
      "##杆": 2651,
      "##ç": 2652,
      "##温": 2653,
      "##馈": 2654,
      "##芯": 2655,
      "##片": 2656,
      "##晶": 2657,
      "##崩": 2658,
      "##溃": 2659,
      "##č": 2660,
      "##早": 2661,
      "##結": 2662,
      "##膜": 2663,
      "##赞": 2664,
      "##齐": 2665,
      "##曲": 2666,
      "##伯": 2667,
      "##ž": 2668,
      "##宜": 2669,
      "##占": 2670,
      "##庭": 2671,
      "##搞": 2672,
      "##众": 2673,
      "##猜": 2674,
      "##魔": 2675,
      "##润": 2676,
      "##播": 2677,
      "##嗯": 2678,
      "##锥": 2679,
      "##荷": 2680,
      "##静": 2681,
      "##裡": 2682,
      "##說": 2683,
      "##伴": 2684,
      "##瓦": 2685,
      "##茨": 2686,
      "##ί": 2687,
      "##刚": 2688,
      "##协": 2689,
      "##無": 2690,
      "##論": 2691,
      "##暗": 2692,
      "##椭": 2693,
      "##弃": 2694,
      "##厚": 2695,
      "##升": 2696,
      "##章": 2697,
      "##住": 2698,
      "##↑": 2699,
      "##乌": 2700,
      "##托": 2701,
      "##售": 2702,
      "##斗": 2703,
      "##掌": 2704,
      "##握": 2705,
      "##筛": 2706,
      "##灾": 2707,
      "##害": 2708,
      "##留": 2709,
      "##彻": 2710,
      "##村": 2711,
      "##庄": 2712,
      "##丰": 2713,
      "##富": 2714,
      "##央": 2715,
      "##板": 2716,
      "##時": 2717,
      "##逝": 2718,
      "##暂": 2719,
      "##页": 2720,
      "##槽": 2721,
      "##哦": 2722,
      "##蛇": 2723,
      "##â": 2724,
      "##顾": 2725,
      "##钟": 2726,
      "##绝": 2727,
      "##遇": 2728,
      "##治": 2729,
      "##疗": 2730,
      "##矮": 2731,
      "##纯": 2732,
      "##令": 2733,
      "##旅": 2734,
      "##故": 2735,
      "##ū": 2736,
      "##俗": 2737,
      "##朝": 2738,
      "##ï": 2739,
      "##益": 2740,
      "##勒": 2741,
      "##ă": 2742,
      "##团": 2743,
      "##锁": 2744,
      "##尾": 2745,
      "##德": 2746,
      "##课": 2747,
      "##纸": 2748,
      "##钱": 2749,
      "##东": 2750,
      "##擎": 2751,
      "##著": 2752,
      "##六": 2753,
      "##啊": 2754,
      "##探": 2755,
      "##末": 2756,
      "##舍": 2757,
      "##渐": 2758,
      "##破": 2759,
      "##坏": 2760,
      "##捕": 2761,
      "##刑": 2762,
      "##迁": 2763,
      "##伽": 2764,
      "##罗": 2765,
      "##止": 2766,
      "##伙": 2767,
      "##职": 2768,
      "##弧": 2769,
      "##弯": 2770,
      "##省": 2771,
      "##晰": 2772,
      "##滿": 2773,
      "##≈": 2774,
      "##贸": 2775,
      "##隶": 2776,
      "##卡": 2777,
      "##老": 2778,
      "##师": 2779,
      "##夹": 2780,
      "##校": 2781,
      "##確": 2782,
      "##粒": 2783,
      "##寸": 2784,
      "##净": 2785,
      "##食": 2786,
      "##呼": 2787,
      "##C": 2788,
      "th": 2789,
      "the": 2790,
      "##in": 2791,
      "##er": 2792,
      "##on": 2793,
      "##at": 2794,
      "##es": 2795,
      "##or": 2796,
      "##en": 2797,
      "an": 2798,
      "##ion": 2799,
      "to": 2800,
      "##al": 2801,
      "##le": 2802,
      "##re": 2803,
      "in": 2804,
      "##ing": 2805,
      "##an": 2806,
      "##it": 2807,
      "of": 2808,
      "##ut": 2809,
      "##ed": 2810,
      "##ac": 2811,
      "and": 2812,
      "##ro": 2813,
      "##is": 2814,
      "is": 2815,
      "##ar": 2816,
      "##ou": 2817,
      "##ic": 2818,
      "##um": 2819,
      "##ct": 2820,
      "##th": 2821,
      "##ent": 2822,
      "re": 2823,
      "be": 2824,
      "that": 2825,
      "##ol": 2826,
      "##se": 2827,
      "##ve": 2828,
      "for": 2829,
      "con": 2830,
      "##ly": 2831,
      "##st": 2832,
      "##gh": 2833,
      "##id": 2834,
      "se": 2835,
      "##im": 2836,
      "ne": 2837,
      "st": 2838,
      "##ter": 2839,
      "##ow": 2840,
      "##om": 2841,
      "wh": 2842,
      "##qu": 2843,
      "##ir": 2844,
      "##ot": 2845,
      "##ions": 2846,
      "##ght": 2847,
      "##rac": 2848,
      "can": 2849,
      "po": 2850,
      "##ay": 2851,
      "are": 2852,
      "on": 2853,
      "##as": 2854,
      "pro": 2855,
      "##ce": 2856,
      "##ith": 2857,
      "##ach": 2858,
      "ns": 2859,
      "ex": 2860,
      "as": 2861,
      "##ll": 2862,
      "di": 2863,
      "##et": 2864,
      "frac": 2865,
      "it": 2866,
      "with": 2867,
      "need": 2868,
      "##ap": 2869,
      "sol": 2870,
      "##ble": 2871,
      "##rom": 2872,
      "##ul": 2873,
      "nth": 2874,
      "##em": 2875,
      "this": 2876,
      "fin": 2877,
      "##ess": 2878,
      "num": 2879,
      "##ber": 2880,
      "su": 2881,
      "##ive": 2882,
      "##am": 2883,
      "from": 2884,
      "##ld": 2885,
      "number": 2886,
      "##ain": 2887,
      "per": 2888,
      "##ation": 2889,
      "10": 2890,
      "tr": 2891,
      "if": 2892,
      "##ts": 2893,
      "solut": 2894,
      "sum": 2895,
      "##ould": 2896,
      "me": 2897,
      "cons": 2898,
      "##ad": 2899,
      "##ight": 2900,
      "each": 2901,
      "at": 2902,
      "##ere": 2903,
      "pos": 2904,
      "sh": 2905,
      "or": 2906,
      "##pl": 2907,
      "nw": 2908,
      "de": 2909,
      "##il": 2910,
      "##put": 2911,
      "##ur": 2912,
      "##ang": 2913,
      "ch": 2914,
      "le": 2915,
      "##ate": 2916,
      "nso": 2917,
      "##ich": 2918,
      "##ist": 2919,
      "##ider": 2920,
      "##ch": 2921,
      "en": 2922,
      "consider": 2923,
      "solution": 2924,
      "so": 2925,
      "nb": 2926,
      "which": 2927,
      "##if": 2928,
      "com": 2929,
      "##est": 2930,
      "##let": 2931,
      "##ver": 2932,
      "##for": 2933,
      "##ait": 2934,
      "co": 2935,
      "int": 2936,
      "##ction": 2937,
      "but": 2938,
      "##aps": 2939,
      "nlet": 2940,
      "##ep": 2941,
      "nbut": 2942,
      "not": 2943,
      "##ple": 2944,
      "find": 2945,
      "##ff": 2946,
      "nwait": 2947,
      "all": 2948,
      "by": 2949,
      "equ": 2950,
      "thou": 2951,
      "##iv": 2952,
      "##de": 2953,
      "ma": 2954,
      "ab": 2955,
      "thought": 2956,
      "##haps": 2957,
      "we": 2958,
      "##pp": 2959,
      "##ec": 2960,
      "##ations": 2961,
      "##iz": 2962,
      "perhaps": 2963,
      "sin": 2964,
      "##ment": 2965,
      "no": 2966,
      "step": 2967,
      "there": 2968,
      "should": 2969,
      "form": 2970,
      "##be": 2971,
      "##ative": 2972,
      "val": 2973,
      "poin": 2974,
      "##si": 2975,
      "qu": 2976,
      "tim": 2977,
      "tw": 2978,
      "##00": 2979,
      "##ect": 2980,
      "ac": 2981,
      "al": 2982,
      "##ther": 2983,
      "##tern": 2984,
      "##ave": 2985,
      "##ue": 2986,
      "##ke": 2987,
      "mo": 2988,
      "##ink": 2989,
      "nal": 2990,
      "two": 2991,
      "##rt": 2992,
      "##ase": 2993,
      "one": 2994,
      "nn": 2995,
      "##us": 2996,
      "pr": 2997,
      "##qrt": 2998,
      "##irst": 2999,
      "##ine": 3000,
      "think": 3001,
      "sqrt": 3002,
      "##oun": 3003,
      "posit": 3004,
      "##aybe": 3005,
      "##ies": 3006,
      "##cl": 3007,
      "have": 3008,
      "min": 3009,
      "##gin": 3010,
      "##ant": 3011,
      "pre": 3012,
      "app": 3013,
      "then": 3014,
      "##rou": 3015,
      "##oo": 3016,
      "##cess": 3017,
      "sp": 3018,
      "##ger": 3019,
      "##ag": 3020,
      "##pr": 3021,
      "##pt": 3022,
      "##our": 3023,
      "where": 3024,
      "##ex": 3025,
      "end": 3026,
      "un": 3027,
      "##all": 3028,
      "us": 3029,
      "##and": 3030,
      "bo": 3031,
      "##rect": 3032,
      "##blem": 3033,
      "##ternative": 3034,
      "sy": 3035,
      "##lo": 3036,
      "problem": 3037,
      "##per": 3038,
      "ni": 3039,
      "nalternative": 3040,
      "##ence": 3041,
      "nalternatively": 3042,
      "pl": 3043,
      "##iven": 3044,
      "str": 3045,
      "##ide": 3046,
      "right": 3047,
      "##fore": 3048,
      "diff": 3049,
      "any": 3050,
      "tri": 3051,
      "bet": 3052,
      "##sible": 3053,
      "maybe": 3054,
      "##art": 3055,
      "max": 3056,
      "let": 3057,
      "inte": 3058,
      "##ally": 3059,
      "since": 3060,
      "##ity": 3061,
      "##ft": 3062,
      "##act": 3063,
      "acc": 3064,
      "12": 3065,
      "##ample": 3066,
      "cor": 3067,
      "out": 3068,
      "ad": 3069,
      "##ome": 3070,
      "differ": 3071,
      "##cle": 3072,
      "##un": 3073,
      "abo": 3074,
      "mat": 3075,
      "integer": 3076,
      "such": 3077,
      "begin": 3078,
      "##der": 3079,
      "cir": 3080,
      "appro": 3081,
      "ang": 3082,
      "##ems": 3083,
      "he": 3084,
      "dist": 3085,
      "##ated": 3086,
      "##ds": 3087,
      "ver": 3088,
      "##ors": 3089,
      "##tal": 3090,
      "div": 3091,
      "sub": 3092,
      "way": 3093,
      "left": 3094,
      "nnow": 3095,
      "some": 3096,
      "##ise": 3097,
      "##low": 3098,
      "first": 3099,
      "times": 3100,
      "triang": 3101,
      "possible": 3102,
      "##ame": 3103,
      "up": 3104,
      "##ext": 3105,
      "has": 3106,
      "final": 3107,
      "nf": 3108,
      "try": 3109,
      "##ust": 3110,
      "rem": 3111,
      "col": 3112,
      "ro": 3113,
      "n1": 3114,
      "im": 3115,
      "##ult": 3116,
      "##ree": 3117,
      "##rough": 3118,
      "total": 3119,
      "through": 3120,
      "value": 3121,
      "##les": 3122,
      "nin": 3123,
      "##ure": 3124,
      "process": 3125,
      "seems": 3126,
      "##erm": 3127,
      "len": 3128,
      "ar": 3129,
      "ref": 3130,
      "res": 3131,
      "term": 3132,
      "##ack": 3133,
      "syst": 3134,
      "steps": 3135,
      "expl": 3136,
      "points": 3137,
      "input": 3138,
      "equal": 3139,
      "system": 3140,
      "##are": 3141,
      "##os": 3142,
      "##ial": 3143,
      "these": 3144,
      "sim": 3145,
      "quest": 3146,
      "set": 3147,
      "##pon": 3148,
      "##ord": 3149,
      "##ted": 3150,
      "do": 3151,
      "##uct": 3152,
      "inter": 3153,
      "##press": 3154,
      "text": 3155,
      "approach": 3156,
      "##gth": 3157,
      "cd": 3158,
      "##cul": 3159,
      "than": 3160,
      "express": 3161,
      "##ix": 3162,
      "case": 3163,
      "##ous": 3164,
      "det": 3165,
      "##ize": 3166,
      "##we": 3167,
      "##urr": 3168,
      "##ast": 3169,
      "other": 3170,
      "n2": 3171,
      "into": 3172,
      "format": 3173,
      "##imum": 3174,
      "##cise": 3175,
      "your": 3176,
      "ass": 3177,
      "##ween": 3178,
      "section": 3179,
      "correct": 3180,
      "length": 3181,
      "##ge": 3182,
      "fol": 3183,
      "nthen": 3184,
      "##ore": 3185,
      "##eck": 3186,
      "nthis": 3187,
      "between": 3188,
      "deta": 3189,
      "fun": 3190,
      "spec": 3191,
      "##air": 3192,
      "point": 3193,
      "##git": 3194,
      "explor": 3195,
      "##og": 3196,
      "##ip": 3197,
      "##ill": 3198,
      "20": 3199,
      "gr": 3200,
      "##end": 3201,
      "both": 3202,
      "coun": 3203,
      "digit": 3204,
      "line": 3205,
      "follow": 3206,
      "sm": 3207,
      "different": 3208,
      "squ": 3209,
      "only": 3210,
      "##con": 3211,
      "##alcul": 3212,
      "triangle": 3213,
      "##ong": 3214,
      "##ilar": 3215,
      "##urrent": 3216,
      "nt": 3217,
      "numbers": 3218,
      "##gn": 3219,
      "##ctions": 3220,
      "using": 3221,
      "about": 3222,
      "use": 3223,
      "check": 3224,
      "##ary": 3225,
      "would": 3226,
      "cont": 3227,
      "over": 3228,
      "##ition": 3229,
      "##atic": 3230,
      "##ents": 3231,
      "##ab": 3232,
      "terms": 3233,
      "cdot": 3234,
      "##int": 3235,
      "angle": 3236,
      "given": 3237,
      "nthere": 3238,
      "11": 3239,
      "current": 3240,
      "##ious": 3241,
      "##ass": 3242,
      "pair": 3243,
      "##ance": 3244,
      "nfor": 3245,
      "##ify": 3246,
      "li": 3247,
      "calcul": 3248,
      "time": 3249,
      "##ffic": 3250,
      "##ines": 3251,
      "small": 3252,
      "remain": 3253,
      "##ides": 3254,
      "ntherefore": 3255,
      "cy": 3256,
      "output": 3257,
      "cos": 3258,
      "bec": 3259,
      "area": 3260,
      "##ical": 3261,
      "##ffici": 3262,
      "their": 3263,
      "ng": 3264,
      "sequ": 3265,
      "bas": 3266,
      "specif": 3267,
      "nm": 3268,
      "function": 3269,
      "rel": 3270,
      "##ates": 3271,
      "##ves": 3272,
      "ev": 3273,
      "equation": 3274,
      "16": 3275,
      "mod": 3276,
      "##ments": 3277,
      "##ite": 3278,
      "##able": 3279,
      "comput": 3280,
      "inv": 3281,
      "##ange": 3282,
      "##enc": 3283,
      "ed": 3284,
      "nif": 3285,
      "refle": 3286,
      "must": 3287,
      "log": 3288,
      "##ans": 3289,
      "##str": 3290,
      "100": 3291,
      "##ook": 3292,
      "vert": 3293,
      "pi": 3294,
      "pat": 3295,
      "ele": 3296,
      "lar": 3297,
      "comp": 3298,
      "##ens": 3299,
      "##ays": 3300,
      "##ings": 3301,
      "same": 3302,
      "mult": 3303,
      "##au": 3304,
      "solve": 3305,
      "summ": 3306,
      "gen": 3307,
      "par": 3308,
      "anal": 3309,
      "n3": 3310,
      "how": 3311,
      "nthe": 3312,
      "##clu": 3313,
      "does": 3314,
      "##ues": 3315,
      "15": 3316,
      "make": 3317,
      "might": 3318,
      "based": 3319,
      "they": 3320,
      "##ort": 3321,
      "##izing": 3322,
      "example": 3323,
      "25": 3324,
      "##so": 3325,
      "position": 3326,
      "##cre": 3327,
      "##cond": 3328,
      "opt": 3329,
      "count": 3330,
      "##other": 3331,
      "##ater": 3332,
      "new": 3333,
      "them": 3334,
      "arr": 3335,
      "##ard": 3336,
      "more": 3337,
      "precise": 3338,
      "##ers": 3339,
      "##esent": 3340,
      "like": 3341,
      "##urate": 3342,
      "accurate": 3343,
      "##ime": 3344,
      "read": 3345,
      "divis": 3346,
      "##li": 3347,
      "square": 3348,
      "fact": 3349,
      "main": 3350,
      "nfirst": 3351,
      "iter": 3352,
      "cond": 3353,
      "add": 3354,
      "##ause": 3355,
      "its": 3356,
      "ngiven": 3357,
      "non": 3358,
      "back": 3359,
      "##istant": 3360,
      "gener": 3361,
      "summar": 3362,
      "start": 3363,
      "detail": 3364,
      "see": 3365,
      "ce": 3366,
      "questions": 3367,
      "systematic": 3368,
      "##ices": 3369,
      "thinking": 3370,
      "sure": 3371,
      "##ose": 3372,
      "requ": 3373,
      "match": 3374,
      "sequence": 3375,
      "summarizing": 3376,
      "formatted": 3377,
      "assistant": 3378,
      "maximum": 3379,
      "get": 3380,
      "compute": 3381,
      "##fficient": 3382,
      "nsim": 3383,
      "three": 3384,
      "var": 3385,
      "##ace": 3386,
      "nh": 3387,
      "##wer": 3388,
      "values": 3389,
      "invol": 3390,
      "nc": 3391,
      "distance": 3392,
      "13": 3393,
      "second": 3394,
      "##ges": 3395,
      "choo": 3396,
      "##fter": 3397,
      "order": 3398,
      "##ri": 3399,
      "positions": 3400,
      "integers": 3401,
      "##ilarly": 3402,
      "##imal": 3403,
      "expression": 3404,
      "wor": 3405,
      "row": 3406,
      "you": 3407,
      "inclu": 3408,
      "##ile": 3409,
      "circle": 3410,
      "part": 3411,
      "##aph": 3412,
      "even": 3413,
      "##vers": 3414,
      "##trac": 3415,
      "multi": 3416,
      "because": 3417,
      "##ating": 3418,
      "list": 3419,
      "sides": 3420,
      "positive": 3421,
      "##ied": 3422,
      "ans": 3423,
      "18": 3424,
      "side": 3425,
      "cycle": 3426,
      "too": 3427,
      "##ks": 3428,
      "prev": 3429,
      "what": 3430,
      "least": 3431,
      "def": 3432,
      "interse": 3433,
      "##ots": 3434,
      "reach": 3435,
      "##ters": 3436,
      "print": 3437,
      "when": 3438,
      "##ph": 3439,
      "ta": 3440,
      "deg": 3441,
      "man": 3442,
      "cent": 3443,
      "look": 3444,
      "sat": 3445,
      "sample": 3446,
      "##etr": 3447,
      "answer": 3448,
      "##igh": 3449,
      "##ire": 3450,
      "na": 3451,
      "formul": 3452,
      "##isf": 3453,
      "##par": 3454,
      "##ular": 3455,
      "zer": 3456,
      "prod": 3457,
      "path": 3458,
      "before": 3459,
      "14": 3460,
      "doesn": 3461,
      "ear": 3462,
      "n4": 3463,
      "satisf": 3464,
      "##ting": 3465,
      "constr": 3466,
      "##clus": 3467,
      "oper": 3468,
      "rec": 3469,
      "conn": 3470,
      "ag": 3471,
      "quad": 3472,
      "ge": 3473,
      "solutions": 3474,
      "graph": 3475,
      "after": 3476,
      "pol": 3477,
      "nsimilarly": 3478,
      "##ound": 3479,
      "now": 3480,
      "##age": 3481,
      "##loor": 3482,
      "##ving": 3483,
      "nto": 3484,
      "##sign": 3485,
      "formula": 3486,
      "dp": 3487,
      "##plic": 3488,
      "##ice": 3489,
      "necess": 3490,
      "circ": 3491,
      "connect": 3492,
      "direct": 3493,
      "long": 3494,
      "separ": 3495,
      "od": 3496,
      "here": 3497,
      "proper": 3498,
      "previous": 3499,
      "needed": 3500,
      "##ible": 3501,
      "##ough": 3502,
      "##ta": 3503,
      "also": 3504,
      "prov": 3505,
      "##lier": 3506,
      "##ases": 3507,
      "##lop": 3508,
      "##isit": 3509,
      "pairs": 3510,
      "##ys": 3511,
      "##urn": 3512,
      "subse": 3513,
      "choose": 3514,
      "##clusion": 3515,
      "above": 3516,
      "hand": 3517,
      "leq": 3518,
      "struct": 3519,
      "assign": 3520,
      "efficient": 3521,
      "##ming": 3522,
      "odd": 3523,
      "earlier": 3524,
      "##ordin": 3525,
      "np": 3526,
      "plan": 3527,
      "##ute": 3528,
      "digits": 3529,
      "kn": 3530,
      "cell": 3531,
      "br": 3532,
      "following": 3533,
      "19": 3534,
      "char": 3535,
      "again": 3536,
      "math": 3537,
      "##iding": 3538,
      "py": 3539,
      "coordin": 3540,
      "##gr": 3541,
      "box": 3542,
      "24": 3543,
      "ens": 3544,
      "gre": 3545,
      "##ps": 3546,
      "contain": 3547,
      "inde": 3548,
      "edges": 3549,
      "structure": 3550,
      "angles": 3551,
      "under": 3552,
      "att": 3553,
      "poly": 3554,
      "gu": 3555,
      "nd": 3556,
      "prime": 3557,
      "range": 3558,
      "den": 3559,
      "##rr": 3560,
      "ide": 3561,
      "question": 3562,
      "ori": 3563,
      "##term": 3564,
      "zero": 3565,
      "specific": 3566,
      "propert": 3567,
      "verify": 3568,
      "pm": 3569,
      "lines": 3570,
      "calculate": 3571,
      "product": 3572,
      "##od": 3573,
      "exact": 3574,
      "include": 3575,
      "elements": 3576,
      "##bf": 3577,
      "seg": 3578,
      "determ": 3579,
      "will": 3580,
      "##rees": 3581,
      "##cd": 3582,
      "##ying": 3583,
      "constrain": 3584,
      "condition": 3585,
      "##plement": 3586,
      "##its": 3587,
      "cle": 3588,
      "##ig": 3589,
      "less": 3590,
      "##pect": 3591,
      "id": 3592,
      "200": 3593,
      "grou": 3594,
      "adj": 3595,
      "color": 3596,
      "##cles": 3597,
      "##adi": 3598,
      "well": 3599,
      "##ator": 3600,
      "smallest": 3601,
      "ke": 3602,
      "##ility": 3603,
      "my": 3604,
      "nmaybe": 3605,
      "origin": 3606,
      "bin": 3607,
      "##ining": 3608,
      "##tain": 3609,
      "nex": 3610,
      "pyth": 3611,
      "considered": 3612,
      "know": 3613,
      "incre": 3614,
      "conf": 3615,
      "##ually": 3616,
      "##form": 3617,
      "imp": 3618,
      "clear": 3619,
      "could": 3620,
      "follows": 3621,
      "necessary": 3622,
      "##ires": 3623,
      "alph": 3624,
      "multiple": 3625,
      "##que": 3626,
      "ind": 3627,
      "go": 3628,
      "bc": 3629,
      "##ie": 3630,
      "another": 3631,
      "err": 3632,
      "present": 3633,
      "##ences": 3634,
      "##itial": 3635,
      "four": 3636,
      "nsu": 3637,
      "conclusion": 3638,
      "string": 3639,
      "##ick": 3640,
      "code": 3641,
      "reflection": 3642,
      "##ason": 3643,
      "theta": 3644,
      "30": 3645,
      "involves": 3646,
      "36": 3647,
      "##ording": 3648,
      "win": 3649,
      "neg": 3650,
      "requires": 3651,
      "2x": 3652,
      "sc": 3653,
      "act": 3654,
      "repr": 3655,
      "reason": 3656,
      "separated": 3657,
      "python": 3658,
      "exactly": 3659,
      "##umn": 3660,
      "don": 3661,
      "alpha": 3662,
      "better": 3663,
      "##thing": 3664,
      "##ower": 3665,
      "minimum": 3666,
      "##ives": 3667,
      "rele": 3668,
      "##out": 3669,
      "charac": 3670,
      "##imize": 3671,
      "##inct": 3672,
      "##als": 3673,
      "specified": 3674,
      "##pend": 3675,
      "am": 3676,
      "##ysis": 3677,
      "##velop": 3678,
      "minimal": 3679,
      "vertices": 3680,
      "##mm": 3681,
      "many": 3682,
      "attem": 3683,
      "high": 3684,
      "analysis": 3685,
      "##vant": 3686,
      "distinct": 3687,
      "##king": 3688,
      "##lect": 3689,
      "implement": 3690,
      "##ists": 3691,
      "el": 3692,
      "matches": 3693,
      "rev": 3694,
      "constraints": 3695,
      "reflections": 3696,
      "eng": 3697,
      "thor": 3698,
      "thorough": 3699,
      "simpl": 3700,
      "50": 3701,
      "column": 3702,
      "cost": 3703,
      "various": 3704,
      "##oc": 3705,
      "##bab": 3706,
      "role": 3707,
      "##pts": 3708,
      "degrees": 3709,
      "directly": 3710,
      "develop": 3711,
      "##pe": 3712,
      "relevant": 3713,
      "backtrac": 3714,
      "comb": 3715,
      "hel": 3716,
      "reasoning": 3717,
      "##aging": 3718,
      "##ensive": 3719,
      "nan": 3720,
      "according": 3721,
      "tang": 3722,
      "iteration": 3723,
      "quadr": 3724,
      "properties": 3725,
      "respon": 3726,
      "##mpt": 3727,
      "user": 3728,
      "##lines": 3729,
      "equiv": 3730,
      "##stand": 3731,
      "probab": 3732,
      "without": 3733,
      "##rib": 3734,
      "errors": 3735,
      "nper": 3736,
      "sections": 3737,
      "convers": 3738,
      "red": 3739,
      "show": 3740,
      "##ces": 3741,
      "##agon": 3742,
      "cu": 3743,
      "17": 3744,
      "bl": 3745,
      "##iled": 3746,
      "divisible": 3747,
      "##ppose": 3748,
      "nwh": 3749,
      "n5": 3750,
      "ple": 3751,
      "##ild": 3752,
      "##res": 3753,
      "brain": 3754,
      "attempts": 3755,
      "##isiting": 3756,
      "remo": 3757,
      "response": 3758,
      "providing": 3759,
      "reg": 3760,
      "21": 3761,
      "ins": 3762,
      "fe": 3763,
      "similar": 3764,
      "##read": 3765,
      "##cept": 3766,
      "height": 3767,
      "##reh": 3768,
      "compreh": 3769,
      "##ples": 3770,
      "assum": 3771,
      "detailed": 3772,
      "lead": 3773,
      "considerations": 3774,
      "logical": 3775,
      "pref": 3776,
      "exploring": 3777,
      "verifying": 3778,
      "##racy": 3779,
      "guide": 3780,
      "accu": 3781,
      "accuracy": 3782,
      "means": 3783,
      "revisiting": 3784,
      "##yle": 3785,
      "systematically": 3786,
      "##ict": 3787,
      "comprehensive": 3788,
      "please": 3789,
      "ideas": 3790,
      "factor": 3791,
      "concise": 3792,
      "findings": 3793,
      "comm": 3794,
      "exploration": 3795,
      "##stor": 3796,
      "conversations": 3797,
      "style": 3798,
      "move": 3799,
      "dis": 3800,
      "thoroughly": 3801,
      "reass": 3802,
      "guidelines": 3803,
      "##essment": 3804,
      "refining": 3805,
      "brainstor": 3806,
      "negative": 3807,
      "engaging": 3808,
      "deem": 3809,
      "explorations": 3810,
      "brainstorming": 3811,
      "reassessment": 3812,
      "##isying": 3813,
      "analisying": 3814,
      "backtracing": 3815,
      "##itions": 3816,
      "understand": 3817,
      "##ud": 3818,
      "nsin": 3819,
      "##aw": 3820,
      "##io": 3821,
      "coordinates": 3822,
      "original": 3823,
      "##ithm": 3824,
      "play": 3825,
      "##kes": 3826,
      "##ding": 3827,
      "##ear": 3828,
      "edge": 3829,
      "large": 3830,
      "nthi": 3831,
      "radi": 3832,
      "nsince": 3833,
      "real": 3834,
      "abc": 3835,
      "trans": 3836,
      "boxed": 3837,
      "1000": 3838,
      "difference": 3839,
      "initial": 3840,
      "uni": 3841,
      "center": 3842,
      "base": 3843,
      "##ency": 3844,
      "triangles": 3845,
      "bu": 3846,
      "car": 3847,
      "hol": 3848,
      "##ved": 3849,
      "valid": 3850,
      "##ities": 3851,
      "##app": 3852,
      "nanother": 3853,
      "bit": 3854,
      "##row": 3855,
      "ax": 3856,
      "ensure": 3857,
      "nperhaps": 3858,
      "60": 3859,
      "represent": 3860,
      "prefix": 3861,
      "wr": 3862,
      "next": 3863,
      "take": 3864,
      "##icular": 3865,
      "remaining": 3866,
      "mid": 3867,
      "cases": 3868,
      "##respon": 3869,
      "geq": 3870,
      "##ign": 3871,
      "##turn": 3872,
      "40": 3873,
      "test": 3874,
      "complic": 3875,
      "correspon": 3876,
      "thi": 3877,
      "gives": 3878,
      "overl": 3879,
      "rat": 3880,
      "array": 3881,
      "fre": 3882,
      "##rix": 3883,
      "##loc": 3884,
      "result": 3885,
      "considering": 3886,
      "##ron": 3887,
      "sort": 3888,
      "##rack": 3889,
      "vect": 3890,
      "##ful": 3891,
      "operations": 3892,
      "floor": 3893,
      "roots": 3894,
      "starting": 3895,
      "determine": 3896,
      "##ined": 3897,
      "handle": 3898,
      "inf": 3899,
      "mean": 3900,
      "##ata": 3901,
      "index": 3902,
      "within": 3903,
      "group": 3904,
      "something": 3905,
      "grid": 3906,
      "keep": 3907,
      "ve": 3908,
      "##omial": 3909,
      "##ided": 3910,
      "ty": 3911,
      "##plies": 3912,
      "99": 3913,
      "last": 3914,
      "##ote": 3915,
      "201": 3916,
      "ine": 3917,
      "vertex": 3918,
      "gcd": 3919,
      "general": 3920,
      "complicated": 3921,
      "still": 3922,
      "##ares": 3923,
      "circum": 3924,
      "greater": 3925,
      "data": 3926,
      "des": 3927,
      "##asing": 3928,
      "intersection": 3929,
      "spl": 3930,
      "ap": 3931,
      "##gest": 3932,
      "plane": 3933,
      "day": 3934,
      "satisfy": 3935,
      "000": 3936,
      "##alle": 3937,
      "theor": 3938,
      "nthus": 3939,
      "nse": 3940,
      "rect": 3941,
      "connected": 3942,
      "ny": 3943,
      "unique": 3944,
      "##very": 3945,
      "te": 3946,
      "ident": 3947,
      "##des": 3948,
      "##ement": 3949,
      "##ss": 3950,
      "yes": 3951,
      "ph": 3952,
      "32": 3953,
      "##ready": 3954,
      "##right": 3955,
      "##omin": 3956,
      "##ilater": 3957,
      "recall": 3958,
      "approx": 3959,
      "common": 3960,
      "rectang": 3961,
      "already": 3962,
      "cover": 3963,
      "textbf": 3964,
      "modul": 3965,
      "allow": 3966,
      "require": 3967,
      "sums": 3968,
      "nfrom": 3969,
      "sw": 3970,
      "##ertain": 3971,
      "##qual": 3972,
      "implies": 3973,
      "nsuppose": 3974,
      "root": 3975,
      "##omes": 3976,
      "select": 3977,
      "##orted": 3978,
      "##quad": 3979,
      "certain": 3980,
      "size": 3981,
      "##aces": 3982,
      "nand": 3983,
      "intersect": 3984,
      "##ffect": 3985,
      "squares": 3986,
      "pass": 3987,
      "qquad": 3988,
      "every": 3989,
      "##av": 3990,
      "inequal": 3991,
      "node": 3992,
      "being": 3993,
      "option": 3994,
      "respect": 3995,
      "##ither": 3996,
      "27": 3997,
      "work": 3998,
      "std": 3999,
      "return": 4000,
      "dr": 4001,
      "actually": 4002,
      "track": 4003,
      "##ird": 4004,
      "##ometr": 4005,
      "contains": 4006,
      "perm": 4007,
      "top": 4008,
      "just": 4009,
      "help": 4010,
      "stdin": 4011,
      "##ls": 4012,
      "##po": 4013,
      "modulo": 4014,
      "else": 4015,
      "const": 4016,
      "cells": 4017,
      "options": 4018,
      "##ug": 4019,
      "sing": 4020,
      "##own": 4021,
      "adjac": 4022,
      "##pendicular": 4023,
      "tangent": 4024,
      "tree": 4025,
      "perpendicular": 4026,
      "mis": 4027,
      "dec": 4028,
      "nl": 4029,
      "circles": 4030,
      "iterate": 4031,
      "smaller": 4032,
      "split": 4033,
      "##ption": 4034,
      "##hip": 4035,
      "differently": 4036,
      "90": 4037,
      "probability": 4038,
      "coe": 4039,
      "equations": 4040,
      "getting": 4041,
      "combin": 4042,
      "cl": 4043,
      "##ood": 4044,
      "wait": 4045,
      "##nomial": 4046,
      "##def": 4047,
      "av": 4048,
      "polynomial": 4049,
      "conditions": 4050,
      "efficiently": 4051,
      "##hed": 4052,
      "larger": 4053,
      "interv": 4054,
      "true": 4055,
      "##wise": 4056,
      "##cent": 4057,
      "2n": 4058,
      "ob": 4059,
      "stud": 4060,
      "##ceed": 4061,
      "moves": 4062,
      "##ilateral": 4063,
      "single": 4064,
      "##sing": 4065,
      "sys": 4066,
      "##ponent": 4067,
      "relations": 4068,
      "##ail": 4069,
      "says": 4070,
      "permut": 4071,
      "nwe": 4072,
      "used": 4073,
      "largest": 4074,
      "power": 4075,
      "ll": 4076,
      "ent": 4077,
      "##ately": 4078,
      "lengths": 4079,
      "radius": 4080,
      "most": 4081,
      "ways": 4082,
      "nx": 4083,
      "sorted": 4084,
      "say": 4085,
      "segments": 4086,
      "pattern": 4087,
      "22": 4088,
      "she": 4089,
      "arrang": 4090,
      "##gy": 4091,
      "##ational": 4092,
      "exists": 4093,
      "##ever": 4094,
      "element": 4095,
      "##ances": 4096,
      "constant": 4097,
      "##etic": 4098,
      "##floor": 4099,
      "nalso": 4100,
      "##ross": 4101,
      "down": 4102,
      "##ways": 4103,
      "paralle": 4104,
      "bound": 4105,
      "stand": 4106,
      "##ponents": 4107,
      "fix": 4108,
      "related": 4109,
      "##anges": 4110,
      "a1": 4111,
      "23": 4112,
      "place": 4113,
      "segment": 4114,
      "##arr": 4115,
      "tan": 4116,
      "##plex": 4117,
      "ratio": 4118,
      "##ind": 4119,
      "decre": 4120,
      "either": 4121,
      "units": 4122,
      "relationship": 4123,
      "45": 4124,
      "a2": 4125,
      "##uc": 4126,
      "complex": 4127,
      "##ma": 4128,
      "##ossible": 4129,
      "empt": 4130,
      "becomes": 4131,
      "ndef": 4132,
      "##gor": 4133,
      "inequality": 4134,
      "empty": 4135,
      "64": 4136,
      "rot": 4137,
      "always": 4138,
      "fl": 4139,
      "arc": 4140,
      "divides": 4141,
      "##stit": 4142,
      "denote": 4143,
      "third": 4144,
      "##ake": 4145,
      "n6": 4146,
      "##ak": 4147,
      "adjacent": 4148,
      "mon": 4149,
      "##cut": 4150,
      "nout": 4151,
      "vari": 4152,
      "those": 4153,
      "conse": 4154,
      "28": 4155,
      "bloc": 4156,
      "frequ": 4157,
      "denomin": 4158,
      "sign": 4159,
      "##isect": 4160,
      "noutput": 4161,
      "nodes": 4162,
      "binary": 4163,
      "characters": 4164,
      "##tract": 4165,
      "##imes": 4166,
      "##nd": 4167,
      "progr": 4168,
      "finding": 4169,
      "minute": 4170,
      "##otal": 4171,
      "##ially": 4172,
      "ntotal": 4173,
      "##edi": 4174,
      "ninput": 4175,
      "##ounds": 4176,
      "##cutive": 4177,
      "consecutive": 4178,
      "factors": 4179,
      "geometr": 4180,
      "##me": 4181,
      "none": 4182,
      "vec": 4183,
      "letters": 4184,
      "stra": 4185,
      "straight": 4186,
      "clo": 4187,
      "##iply": 4188,
      "subset": 4189,
      "##ircle": 4190,
      "dou": 4191,
      "axis": 4192,
      "##ively": 4193,
      "black": 4194,
      "##not": 4195,
      "bisect": 4196,
      "##verse": 4197,
      "while": 4198,
      "mode": 4199,
      "nst": 4200,
      "##fect": 4201,
      "degree": 4202,
      "##ants": 4203,
      "pmod": 4204,
      "ext": 4205,
      "##gon": 4206,
      "##ures": 4207,
      "character": 4208,
      "##ject": 4209,
      "divide": 4210,
      "nalright": 4211,
      "lam": 4212,
      "once": 4213,
      "nhence": 4214,
      "map": 4215,
      "gam": 4216,
      "##ari": 4217,
      "got": 4218,
      "rectangle": 4219,
      "change": 4220,
      "cannot": 4221,
      "standard": 4222,
      "required": 4223,
      "diagon": 4224,
      "##omput": 4225,
      "vol": 4226,
      "distances": 4227,
      "divided": 4228,
      "##ual": 4229,
      "##ward": 4230,
      "##ighb": 4231,
      "2a": 4232,
      "leve": 4233,
      "sequences": 4234,
      "parallel": 4235,
      "##ume": 4236,
      "##ches": 4237,
      "infin": 4238,
      "perform": 4239,
      "##imiz": 4240,
      "maximize": 4241,
      "##mmetr": 4242,
      "pe": 4243,
      "fract": 4244,
      "##lf": 4245,
      "##line": 4246,
      "weight": 4247,
      "3x": 4248,
      "relate": 4249,
      "mathbf": 4250,
      "##gorithm": 4251,
      "##ry": 4252,
      "26": 4253,
      "off": 4254,
      "sen": 4255,
      "cre": 4256,
      "generate": 4257,
      "##utes": 4258,
      "##eed": 4259,
      "exam": 4260,
      "180": 4261,
      "neighb": 4262,
      "entire": 4263,
      "hal": 4264,
      "star": 4265,
      "days": 4266,
      "append": 4267,
      "substr": 4268,
      "cho": 4269,
      "33": 4270,
      "49": 4271,
      "algorithm": 4272,
      "##rection": 4273,
      "double": 4274,
      "vector": 4275,
      "##ount": 4276,
      "state": 4277,
      "symmetr": 4278,
      "meaning": 4279,
      "sph": 4280,
      "perfect": 4281,
      "consist": 4282,
      "31": 4283,
      "##ib": 4284,
      "found": 4285,
      "operation": 4286,
      "x2": 4287,
      "##ga": 4288,
      "##round": 4289,
      "care": 4290,
      "direction": 4291,
      "##bd": 4292,
      "calculation": 4293,
      "inc": 4294,
      "##osite": 4295,
      "words": 4296,
      "satisfies": 4297,
      "write": 4298,
      "define": 4299,
      "2k": 4300,
      "00": 4301,
      "subsequ": 4302,
      "##apping": 4303,
      "rows": 4304,
      "##uring": 4305,
      "ome": 4306,
      "sug": 4307,
      "oc": 4308,
      "omega": 4309,
      "type": 4310,
      "##ott": 4311,
      "##get": 4312,
      "colors": 4313,
      "linear": 4314,
      "areas": 4315,
      "correctly": 4316,
      "hor": 4317,
      "turn": 4318,
      "theorem": 4319,
      "##port": 4320,
      "was": 4321,
      "who": 4322,
      "accept": 4323,
      "simplify": 4324,
      "states": 4325,
      "sense": 4326,
      "##20": 4327,
      "build": 4328,
      "opp": 4329,
      "quadratic": 4330,
      "##ield": 4331,
      "divisors": 4332,
      "##fficients": 4333,
      "##25": 4334,
      "child": 4335,
      "parts": 4336,
      "mar": 4337,
      "ener": 4338,
      "##ner": 4339,
      "higher": 4340,
      "coefficients": 4341,
      "df": 4342,
      "assume": 4343,
      "##ific": 4344,
      "call": 4345,
      "remove": 4346,
      "midpo": 4347,
      "sets": 4348,
      "##son": 4349,
      "nwhich": 4350,
      "player": 4351,
      "##ior": 4352,
      "denominator": 4353,
      "plac": 4354,
      "among": 4355,
      "inside": 4356,
      "appear": 4357,
      "makes": 4358,
      "120": 4359,
      "indeed": 4360,
      "48": 4361,
      "addition": 4362,
      "half": 4363,
      "##bda": 4364,
      "desc": 4365,
      "leading": 4366,
      "careful": 4367,
      "changes": 4368,
      "lambda": 4369,
      "##ish": 4370,
      "good": 4371,
      "model": 4372,
      "nre": 4373,
      "##10": 4374,
      "prec": 4375,
      "bott": 4376,
      "prove": 4377,
      "binom": 4378,
      "holds": 4379,
      "nor": 4380,
      "remainder": 4381,
      "quer": 4382,
      "beta": 4383,
      "bre": 4384,
      "nat": 4385,
      "along": 4386,
      "##ution": 4387,
      "volume": 4388,
      "draw": 4389,
      "##ends": 4390,
      "cand": 4391,
      "repe": 4392,
      "hour": 4393,
      "around": 4394,
      "matrix": 4395,
      "exp": 4396,
      "defin": 4397,
      "affect": 4398,
      "therefore": 4399,
      "impossible": 4400,
      "adjust": 4401,
      "stat": 4402,
      "##atrix": 4403,
      "##izon": 4404,
      "##kay": 4405,
      "coin": 4406,
      "sur": 4407,
      "team": 4408,
      "##urs": 4409,
      "needs": 4410,
      "mess": 4411,
      "energy": 4412,
      "lim": 4413,
      "horizon": 4414,
      "ser": 4415,
      "primes": 4416,
      "cards": 4417,
      "minimize": 4418,
      "##uch": 4419,
      "nhow": 4420,
      "functions": 4421,
      "lower": 4422,
      "cube": 4423,
      "##hedron": 4424,
      "29": 4425,
      "wind": 4426,
      "##ompute": 4427,
      "##ging": 4428,
      "75": 4429,
      "paths": 4430,
      "35": 4431,
      "xor": 4432,
      "frequency": 4433,
      "name": 4434,
      "##ailable": 4435,
      "nyes": 4436,
      "ach": 4437,
      "ln": 4438,
      "##arget": 4439,
      "abs": 4440,
      "fig": 4441,
      "faces": 4442,
      "circumc": 4443,
      "cub": 4444,
      "cm": 4445,
      "columns": 4446,
      "substit": 4447,
      "confir": 4448,
      "nsample": 4449,
      "nhmm": 4450,
      "multiply": 4451,
      "achie": 4452,
      "expressed": 4453,
      "numer": 4454,
      "visit": 4455,
      "word": 4456,
      "##ask": 4457,
      "coordinate": 4458,
      "##iles": 4459,
      "##ade": 4460,
      "##oid": 4461,
      "approxim": 4462,
      "nnext": 4463,
      "examples": 4464,
      "##dots": 4465,
      "##arily": 4466,
      "cycles": 4467,
      "42": 4468,
      "occ": 4469,
      "hy": 4470,
      "meth": 4471,
      "target": 4472,
      "noption": 4473,
      "sk": 4474,
      "counts": 4475,
      "window": 4476,
      "his": 4477,
      "ldots": 4478,
      "exist": 4479,
      "dep": 4480,
      "formed": 4481,
      "aver": 4482,
      "defined": 4483,
      "ceil": 4484,
      "space": 4485,
      "corresponding": 4486,
      "##ameter": 4487,
      "##led": 4488,
      "increasing": 4489,
      "mist": 4490,
      "##lete": 4491,
      "available": 4492,
      "give": 4493,
      "npr": 4494,
      "cross": 4495,
      "##el": 4496,
      "proceed": 4497,
      "white": 4498,
      "n0": 4499,
      "react": 4500,
      "##ning": 4501,
      "permutation": 4502,
      "slow": 4503,
      "##ables": 4504,
      "minutes": 4505,
      "jo": 4506,
      "r2": 4507,
      "##less": 4508,
      "##ats": 4509,
      "run": 4510,
      "polygon": 4511,
      "fri": 4512,
      "nhowever": 4513,
      "regular": 4514,
      "500": 4515,
      "nis": 4516,
      "room": 4517,
      "whe": 4518,
      "##ints": 4519,
      "import": 4520,
      "sl": 4521,
      "indices": 4522,
      "apply": 4523,
      "game": 4524,
      "vectors": 4525,
      "##ending": 4526,
      "gamma": 4527,
      "cr": 4528,
      "opposite": 4529,
      "nsub": 4530,
      "program": 4531,
      "quadrilateral": 4532,
      "##ets": 4533,
      "cap": 4534,
      "bd": 4535,
      "##abe": 4536,
      "##arch": 4537,
      "definition": 4538,
      "##formation": 4539,
      "37": 4540,
      "wins": 4541,
      "conver": 4542,
      "dy": 4543,
      "n7": 4544,
      "subtract": 4545,
      "plus": 4546,
      "nim": 4547,
      "xy": 4548,
      "exponent": 4549,
      "students": 4550,
      "##arrow": 4551,
      "level": 4552,
      "figure": 4553,
      "neq": 4554,
      "nprint": 4555,
      "year": 4556,
      "##ague": 4557,
      "##plify": 4558,
      "34": 4559,
      "loc": 4560,
      "unit": 4561,
      "simplif": 4562,
      "depend": 4563,
      "##sib": 4564,
      "##ply": 4565,
      "nsimplify": 4566,
      "##forward": 4567,
      "straightforward": 4568,
      "##11": 4569,
      "##iction": 4570,
      "confirm": 4571,
      "fixed": 4572,
      "groups": 4573,
      "interval": 4574,
      "strings": 4575,
      "rest": 4576,
      "##using": 4577,
      "der": 4578,
      "lc": 4579,
      "expect": 4580,
      "partic": 4581,
      "search": 4582,
      "allowed": 4583,
      "##alid": 4584,
      "simply": 4585,
      "circumcircle": 4586,
      "fraction": 4587,
      "person": 4588,
      "que": 4589,
      "##pper": 4590,
      "infinite": 4591,
      "involved": 4592,
      "##ization": 4593,
      "card": 4594,
      "##ople": 4595,
      "possib": 4596,
      "nsum": 4597,
      "##ra": 4598,
      "blue": 4599,
      "vague": 4600,
      "isn": 4601,
      "people": 4602,
      "72": 4603,
      "upd": 4604,
      "##anation": 4605,
      "face": 4606,
      "clos": 4607,
      "average": 4608,
      "vertical": 4609,
      "##ically": 4610,
      "##imeter": 4611,
      "80": 4612,
      "cdots": 4613,
      "adding": 4614,
      "distrib": 4615,
      "ca": 4616,
      "x1": 4617,
      "conve": 4618,
      "pow": 4619,
      "##ahedron": 4620,
      "hold": 4621,
      "c2": 4622,
      "##ral": 4623,
      "subsets": 4624,
      "respectively": 4625,
      "slop": 4626,
      "equals": 4627,
      "thus": 4628,
      "letter": 4629,
      "##one": 4630,
      "nlook": 4631,
      "rational": 4632,
      "bottom": 4633,
      "moving": 4634,
      "pmatrix": 4635,
      "accordingly": 4636,
      "starts": 4637,
      "subt": 4638,
      "horizontal": 4639,
      "sugges": 4640,
      "suggests": 4641,
      "##imin": 4642,
      "break": 4643,
      "##ten": 4644,
      "4x": 4645,
      "whether": 4646,
      "flow": 4647,
      "corresponds": 4648,
      "typ": 4649,
      "##orrect": 4650,
      "magn": 4651,
      "config": 4652,
      "combinations": 4653,
      "invalid": 4654,
      "##war": 4655,
      "intervals": 4656,
      "##idth": 4657,
      "##til": 4658,
      "idx": 4659,
      "far": 4660,
      "water": 4661,
      "increases": 4662,
      "effect": 4663,
      "pot": 4664,
      "necessarily": 4665,
      "configur": 4666,
      "##ons": 4667,
      "sphere": 4668,
      "explanation": 4669,
      "midpoint": 4670,
      "ball": 4671,
      "44": 4672,
      "b2": 4673,
      "op": 4674,
      "mass": 4675,
      "vi": 4676,
      "##ements": 4677,
      "##bb": 4678,
      "statement": 4679,
      "dim": 4680,
      "elect": 4681,
      "generated": 4682,
      "speed": 4683,
      "differences": 4684,
      "made": 4685,
      "nch": 4686,
      "rfloor": 4687,
      "##ages": 4688,
      "initialize": 4689,
      "lfloor": 4690,
      "components": 4691,
      "plug": 4692,
      "redu": 4693,
      "lea": 4694,
      "cut": 4695,
      "neach": 4696,
      "2b": 4697,
      "##ape": 4698,
      "geometry": 4699,
      "bal": 4700,
      "exec": 4701,
      "81": 4702,
      "six": 4703,
      "create": 4704,
      "##ost": 4705,
      "nthat": 4706,
      "##gether": 4707,
      "works": 4708,
      "nlooking": 4709,
      "##ternal": 4710,
      "tem": 4711,
      "decreasing": 4712,
      "convex": 4713,
      "idea": 4714,
      "##op": 4715,
      "inst": 4716,
      "lies": 4717,
      "trick": 4718,
      "choices": 4719,
      "##te": 4720,
      "assuming": 4721,
      "may": 4722,
      "enough": 4723,
      "##iod": 4724,
      "equilateral": 4725,
      "##ribed": 4726,
      "shif": 4727,
      "del": 4728,
      "best": 4729,
      "minus": 4730,
      "sounds": 4731,
      "mistake": 4732,
      "queue": 4733,
      "##uting": 4734,
      "lie": 4735,
      "otherwise": 4736,
      "##12": 4737,
      "400": 4738,
      "variables": 4739,
      "##anc": 4740,
      "choosing": 4741,
      "tetr": 4742,
      "fr": 4743,
      "exponents": 4744,
      "five": 4745,
      "block": 4746,
      "ai": 4747,
      "##ull": 4748,
      "note": 4749,
      "much": 4750,
      "##rad": 4751,
      "##ond": 4752,
      "medi": 4753,
      "our": 4754,
      "nafter": 4755,
      "round": 4756,
      "nk": 4757,
      "lcm": 4758,
      "pal": 4759,
      "contin": 4760,
      "perimeter": 4761,
      "period": 4762,
      "y2": 4763,
      "until": 4764,
      "similarly": 4765,
      "conc": 4766,
      "component": 4767,
      "zeros": 4768,
      "##indrom": 4769,
      "consistent": 4770,
      "known": 4771,
      "complete": 4772,
      "involving": 4773,
      "equival": 4774,
      "arrangement": 4775,
      "dimens": 4776,
      "##itu": 4777,
      "##ling": 4778,
      "phi": 4779,
      "palindrom": 4780,
      "key": 4781,
      "numerator": 4782,
      "carefully": 4783,
      "combination": 4784,
      "##ithmetic": 4785,
      "subsequence": 4786,
      "exceed": 4787,
      "144": 4788,
      "loo": 4789,
      "##ics": 4790,
      "making": 4791,
      "potent": 4792,
      "arithmetic": 4793,
      "city": 4794,
      "centers": 4795,
      "execut": 4796,
      "query": 4797,
      "##ier": 4798,
      "appears": 4799,
      "class": 4800,
      "hex": 4801,
      "helps": 4802,
      "twice": 4803,
      "simplifies": 4804,
      "stack": 4805,
      "nokay": 4806,
      "road": 4807,
      "199": 4808,
      "pq": 4809,
      "property": 4810,
      "##up": 4811,
      "short": 4812,
      "c1": 4813,
      "happ": 4814,
      "##epend": 4815,
      "permutations": 4816,
      "dots": 4817,
      "repl": 4818,
      "##fty": 4819,
      "nad": 4820,
      "infty": 4821,
      "s2": 4822,
      "assigned": 4823,
      "feet": 4824,
      "field": 4825,
      "300": 4826,
      "##clic": 4827,
      "56": 4828,
      "share": 4829,
      "##ded": 4830,
      "diameter": 4831,
      "##osen": 4832,
      "substring": 4833,
      "multiples": 4834,
      "prompt": 4835,
      "score": 4836,
      "calculated": 4837,
      "limit": 4838,
      "##ember": 4839,
      "independ": 4840,
      "inches": 4841,
      "width": 4842,
      "##arter": 4843,
      "did": 4844,
      "additional": 4845,
      "seem": 4846,
      "identify": 4847,
      "contrib": 4848,
      "powers": 4849,
      "contrad": 4850,
      "##alse": 4851,
      "overlapping": 4852,
      "tricky": 4853,
      "##self": 4854,
      "light": 4855,
      "##ract": 4856,
      "low": 4857,
      "tetrahedron": 4858,
      "counter": 4859,
      "##ection": 4860,
      "false": 4861,
      "70": 4862,
      "executable": 4863,
      "together": 4864,
      "disc": 4865,
      "39": 4866,
      "her": 4867,
      "matching": 4868,
      "360": 4869,
      "ones": 4870,
      "b1": 4871,
      "vis": 4872,
      "union": 4873,
      "construct": 4874,
      "##pec": 4875,
      "overlap": 4876,
      "chosen": 4877,
      "labe": 4878,
      "ther": 4879,
      "##omb": 4880,
      "et": 4881,
      "upper": 4882,
      "approximately": 4883,
      "highest": 4884,
      "##side": 4885,
      "sa": 4886,
      "meas": 4887,
      "scal": 4888,
      "arrange": 4889,
      "decimal": 4890,
      "takes": 4891,
      "rate": 4892,
      "divisor": 4893,
      "slope": 4894,
      "##ule": 4895,
      "subarr": 4896,
      "freq": 4897,
      "##ren": 4898,
      "blocks": 4899,
      "increase": 4900,
      "nel": 4901,
      "had": 4902,
      "bisector": 4903,
      "##ults": 4904,
      "neighbors": 4905,
      "independent": 4906,
      "mol": 4907,
      "nfin": 4908,
      "##ature": 4909,
      "n8": 4910,
      "##to": 4911,
      "net": 4912,
      "student": 4913,
      "symmetry": 4914,
      "want": 4915,
      "due": 4916,
      "understanding": 4917,
      "##center": 4918,
      "collect": 4919,
      "integr": 4920,
      "nit": 4921,
      "problems": 4922,
      "missing": 4923,
      "##gs": 4924,
      "##sc": 4925,
      "series": 4926,
      "diagonals": 4927,
      "41": 4928,
      "surf": 4929,
      "dx": 4930,
      "43": 4931,
      "2r": 4932,
      "expected": 4933,
      "overline": 4934,
      "acceptable": 4935,
      "ha": 4936,
      "checking": 4937,
      "##ked": 4938,
      "containing": 4939,
      "theory": 4940,
      "allows": 4941,
      "##wn": 4942,
      "eas": 4943,
      "##radi": 4944,
      "goal": 4945,
      "covered": 4946,
      "outside": 4947,
      "##icks": 4948,
      "2y": 4949,
      "store": 4950,
      "hexagon": 4951,
      "pick": 4952,
      "nag": 4953,
      "hours": 4954,
      "##ired": 4955,
      "n9": 4956,
      "66": 4957,
      "results": 4958,
      "region": 4959,
      "pa": 4960,
      "maintain": 4961,
      "sem": 4962,
      "feas": 4963,
      "visited": 4964,
      "reading": 4965,
      "##ya": 4966,
      "looking": 4967,
      "bf": 4968,
      "##nam": 4969,
      "##ken": 4970,
      "beh": 4971,
      "abcd": 4972,
      "children": 4973,
      "optimal": 4974,
      "bar": 4975,
      "deriv": 4976,
      "delta": 4977,
      "been": 4978,
      "##itude": 4979,
      "##ank": 4980,
      "equivalent": 4981,
      "r1": 4982,
      "999": 4983,
      "placed": 4984,
      "nstart": 4985,
      "##ism": 4986,
      "nr": 4987,
      "nact": 4988,
      "##ert": 4989,
      "provided": 4990,
      "65": 4991,
      "programming": 4992,
      "nagain": 4993,
      "matter": 4994,
      "54": 4995,
      "suppose": 4996,
      "diagonal": 4997,
      "heap": 4998,
      "strate": 4999,
      "determined": 5000,
      "amount": 5001,
      "cubes": 5002,
      "101": 5003,
      "calculating": 5004,
      "y1": 5005,
      "##esents": 5006,
      "table": 5007,
      "##80": 5008,
      "update": 5009,
      "probably": 5010,
      "96": 5011,
      "compare": 5012,
      "exclu": 5013,
      "n10": 5014,
      "ell": 5015,
      "##edge": 5016,
      "p1": 5017,
      "itself": 5018,
      "calculations": 5019,
      "ncon": 5020,
      "swap": 5021,
      "method": 5022,
      "rol": 5023,
      "125": 5024,
      "parent": 5025,
      "nu": 5026,
      "precompute": 5027,
      "##ram": 5028,
      "geometric": 5029,
      "sch": 5030,
      "ensuring": 5031,
      "rotation": 5032,
      "surface": 5033,
      "candid": 5034,
      "manage": 5035,
      "##olute": 5036,
      "mole": 5037,
      "##24": 5038,
      "recurs": 5039,
      "products": 5040,
      "represents": 5041,
      "rearr": 5042,
      "convert": 5043,
      "##ci": 5044,
      "##plied": 5045,
      "messy": 5046,
      "a3": 5047,
      "temper": 5048,
      "across": 5049,
      "nactually": 5050,
      "intersects": 5051,
      "##gru": 5052,
      "nset": 5053,
      "##conds": 5054,
      "neighbor": 5055,
      "##fer": 5056,
      "players": 5057,
      "logic": 5058,
      "s1": 5059,
      "leads": 5060,
      "##rm": 5061,
      "##cular": 5062,
      "pain": 5063,
      "unless": 5064,
      "absolute": 5065,
      "##ax": 5066,
      "reaction": 5067,
      "coefficient": 5068,
      "##imized": 5069,
      "nwhere": 5070,
      "counting": 5071,
      "seconds": 5072,
      "##ses": 5073,
      "things": 5074,
      "##ub": 5075,
      "except": 5076,
      "relative": 5077,
      "congru": 5078,
      "ninitial": 5079,
      "57": 5080,
      "task": 5081,
      "cur": 5082,
      "strip": 5083,
      "##wards": 5084,
      "aa": 5085,
      "expressions": 5086,
      "coins": 5087,
      "01": 5088,
      "##yz": 5089,
      "goes": 5090,
      "##radius": 5091,
      "division": 5092,
      "##ane": 5093,
      "simul": 5094,
      "##case": 5095,
      "information": 5096,
      "55": 5097,
      "##anging": 5098,
      "ends": 5099,
      "mathbb": 5100,
      "##000": 5101,
      "others": 5102,
      "writ": 5103,
      "jum": 5104,
      "38": 5105,
      "est": 5106,
      "##ators": 5107,
      "asy": 5108,
      "##ilities": 5109,
      "imm": 5110,
      "nhere": 5111,
      "##bit": 5112,
      "##over": 5113,
      "ensures": 5114,
      "incorrect": 5115,
      "fine": 5116,
      "##uming": 5117,
      "near": 5118,
      "##umul": 5119,
      "alt": 5120,
      "looks": 5121,
      "smarter": 5122,
      "types": 5123,
      "sorting": 5124,
      "configuration": 5125,
      "nfinally": 5126,
      "p2": 5127,
      "balance": 5128,
      "##day": 5129,
      "orth": 5130,
      "feasible": 5131,
      "##ead": 5132,
      "nseems": 5133,
      "##roid": 5134,
      "loop": 5135,
      "finite": 5136,
      "removing": 5137,
      "wal": 5138,
      "mathrm": 5139,
      "52": 5140,
      "##ios": 5141,
      "shortest": 5142,
      "generating": 5143,
      "asking": 5144,
      "tra": 5145,
      "flip": 5146,
      "84": 5147,
      "pie": 5148,
      "1e": 5149,
      "##ural": 5150,
      "##use": 5151,
      "nsecond": 5152,
      "dynam": 5153,
      "##eces": 5154,
      "quant": 5155,
      "book": 5156,
      "nelse": 5157,
      "nedge": 5158,
      "including": 5159,
      "npl": 5160,
      "transform": 5161,
      "passes": 5162,
      "ef": 5163,
      "##encies": 5164,
      "rightarrow": 5165,
      "pieces": 5166,
      "project": 5167,
      "very": 5168,
      "##idd": 5169,
      "bi": 5170,
      "avoid": 5171,
      "mer": 5172,
      "em": 5173,
      "##izes": 5174,
      "63": 5175,
      "concept": 5176,
      "prin": 5177,
      "remains": 5178,
      "##ell": 5179,
      "pop": 5180,
      "buy": 5181,
      "helpful": 5182,
      "wants": 5183,
      "however": 5184,
      "consists": 5185,
      "nas": 5186,
      "##ivity": 5187,
      "median": 5188,
      "dfrac": 5189,
      "##ia": 5190,
      "flo": 5191,
      "##ional": 5192,
      "ninitialize": 5193,
      "free": 5194,
      "substrings": 5195,
      "depending": 5196,
      "directions": 5197,
      "going": 5198,
      "price": 5199,
      "etc": 5200,
      "bob": 5201,
      "polynomials": 5202,
      "guar": 5203,
      "centroid": 5204,
      "meet": 5205,
      "cyclic": 5206,
      "strategy": 5207,
      "altern": 5208,
      "pack": 5209,
      "##ands": 5210,
      "green": 5211,
      "##osition": 5212,
      "46": 5213,
      "##uction": 5214,
      "selected": 5215,
      "setting": 5216,
      "identity": 5217,
      "fourth": 5218,
      "relationships": 5219,
      "dividing": 5220,
      "##olog": 5221,
      "approaches": 5222,
      "##red": 5223,
      "##att": 5224,
      "elimin": 5225,
      "measure": 5226,
      "progress": 5227,
      "2m": 5228,
      "98": 5229,
      "arcs": 5230,
      "having": 5231,
      "guarant": 5232,
      "alice": 5233,
      "strict": 5234,
      "ratios": 5235,
      "palindrome": 5236,
      "central": 5237,
      "##ash": 5238,
      "ncheck": 5239,
      "sufficient": 5240,
      "press": 5241,
      "potential": 5242,
      "es": 5243,
      "heights": 5244,
      "crit": 5245,
      "invers": 5246,
      "diction": 5247,
      "bfs": 5248,
      "2c": 5249,
      "fit": 5250,
      "##ended": 5251,
      "dfs": 5252,
      "51": 5253,
      "variable": 5254,
      "##ffix": 5255,
      "lit": 5256,
      "law": 5257,
      "piece": 5258,
      "nnot": 5259,
      "during": 5260,
      "self": 5261,
      "47": 5262,
      "expand": 5263,
      "great": 5264,
      "connecting": 5265,
      "##prime": 5266,
      "nusing": 5267,
      "indic": 5268,
      "representation": 5269,
      "2d": 5270,
      "grow": 5271,
      "choice": 5272,
      "##und": 5273,
      "electron": 5274,
      "##ores": 5275,
      "##way": 5276,
      "friends": 5277,
      "complexity": 5278,
      "align": 5279,
      "##osed": 5280,
      "##ser": 5281,
      "miles": 5282,
      "relation": 5283,
      "shad": 5284,
      "friend": 5285,
      "h2": 5286,
      "##ola": 5287,
      "##lock": 5288,
      "##uck": 5289,
      "coprime": 5290,
      "lists": 5291,
      "bits": 5292,
      "xa": 5293,
      "rad": 5294,
      "##yond": 5295,
      "##ouse": 5296,
      "##ars": 5297,
      "insert": 5298,
      "inputs": 5299,
      "full": 5300,
      "assignment": 5301,
      "symmetric": 5302,
      "interest": 5303,
      "##ark": 5304,
      "2000": 5305,
      "##centr": 5306,
      "nadd": 5307,
      "manageable": 5308,
      "trying": 5309,
      "##her": 5310,
      "sn": 5311,
      "ending": 5312,
      "proport": 5313,
      "below": 5314,
      "##urther": 5315,
      "natural": 5316,
      "nsubstit": 5317,
      "rectangles": 5318,
      "specifically": 5319,
      "los": 5320,
      "##anced": 5321,
      "bro": 5322,
      "du": 5323,
      "deal": 5324,
      "regions": 5325,
      "##onger": 5326,
      "##pecially": 5327,
      "especially": 5328,
      "swaps": 5329,
      "inverse": 5330,
      "particular": 5331,
      "xi": 5332,
      "strictly": 5333,
      "##pre": 5334,
      "were": 5335,
      "dimensions": 5336,
      "##ength": 5337,
      "signific": 5338,
      "whose": 5339,
      "temperature": 5340,
      "##ized": 5341,
      "analyz": 5342,
      "gets": 5343,
      "pur": 5344,
      "beyond": 5345,
      "interact": 5346,
      "suffix": 5347,
      "##ole": 5348,
      "##most": 5349,
      "special": 5350,
      "dictionary": 5351,
      "##lu": 5352,
      "##fe": 5353,
      "##wh": 5354,
      "overall": 5355,
      "67": 5356,
      "grav": 5357,
      "##mal": 5358,
      "context": 5359,
      "lay": 5360,
      "nimport": 5361,
      "cities": 5362,
      "trees": 5363,
      "satisfied": 5364,
      "achieve": 5365,
      "taking": 5366,
      "obser": 5367,
      "##ibility": 5368,
      "150": 5369,
      "parity": 5370,
      "chord": 5371,
      "includes": 5372,
      "t2": 5373,
      "simple": 5374,
      "nnum": 5375,
      "##pping": 5376,
      "##used": 5377,
      "factorial": 5378,
      "close": 5379,
      "fast": 5380,
      "optimize": 5381,
      "costs": 5382,
      "nj": 5383,
      "nass": 5384,
      "rh": 5385,
      "longest": 5386,
      "weights": 5387,
      "building": 5388,
      "likely": 5389,
      "multiplic": 5390,
      "ncompute": 5391,
      "npossible": 5392,
      "insc": 5393,
      "reverse": 5394,
      "pres": 5395,
      "implementation": 5396,
      "##21": 5397,
      "particip": 5398,
      "event": 5399,
      "spher": 5400,
      "##ory": 5401,
      "##ensity": 5402,
      "tangents": 5403,
      "solving": 5404,
      "oct": 5405,
      "planes": 5406,
      "spaces": 5407,
      "##oint": 5408,
      "scen": 5409,
      "ment": 5410,
      "subtree": 5411,
      "ae": 5412,
      "xa0": 5413,
      "sizes": 5414,
      "conclu": 5415,
      "ndp": 5416,
      "centered": 5417,
      "cat": 5418,
      "immedi": 5419,
      "met": 5420,
      "##ian": 5421,
      "arrangements": 5422,
      "radical": 5423,
      "open": 5424,
      "operator": 5425,
      "##iving": 5426,
      "forms": 5427,
      "resid": 5428,
      "easier": 5429,
      "hence": 5430,
      "##py": 5431,
      "nrow": 5432,
      "supp": 5433,
      "correspond": 5434,
      "53": 5435,
      "swit": 5436,
      "rand": 5437,
      "significant": 5438,
      "5x": 5439,
      "##aring": 5440,
      "further": 5441,
      "followed": 5442,
      "represented": 5443,
      "npro": 5444,
      "ncalcul": 5445,
      "plugging": 5446,
      "dynamic": 5447,
      "own": 5448,
      "nv": 5449,
      "##otes": 5450,
      "substitute": 5451,
      "59": 5452,
      "##lin": 5453,
      "##uous": 5454,
      "##ey": 5455,
      "256": 5456,
      "##linear": 5457,
      "domin": 5458,
      "won": 5459,
      "ellip": 5460,
      "3a": 5461,
      "ra": 5462,
      "random": 5463,
      "done": 5464,
      "t1": 5465,
      "##imizes": 5466,
      "inscribed": 5467,
      "##alu": 5468,
      "##ush": 5469,
      "removed": 5470,
      "congruent": 5471,
      "instead": 5472,
      "##imizing": 5473,
      "iss": 5474,
      "behav": 5475,
      "##uced": 5476,
      "shift": 5477,
      "foc": 5478,
      "rank": 5479,
      "outc": 5480,
      "##ased": 5481,
      "boxes": 5482,
      "runs": 5483,
      "nam": 5484,
      "sal": 5485,
      "duplic": 5486,
      "selecting": 5487,
      "adv": 5488,
      "covers": 5489,
      "##ven": 5490,
      "nno": 5491,
      "##arithm": 5492,
      "nmult": 5493,
      "big": 5494,
      "image": 5495,
      "clock": 5496,
      "110": 5497,
      "capac": 5498,
      "##alled": 5499,
      "mem": 5500,
      "trave": 5501,
      "yet": 5502,
      "logarithm": 5503,
      "##28": 5504,
      "infinity": 5505,
      "formal": 5506,
      "constraint": 5507,
      "depends": 5508,
      "added": 5509,
      "passing": 5510,
      "increment": 5511,
      "fractions": 5512,
      "##75": 5513,
      "##itially": 5514,
      "##idden": 5515,
      "##dle": 5516,
      "separately": 5517,
      "meters": 5518,
      "external": 5519,
      "inequalities": 5520,
      "##where": 5521,
      "subarray": 5522,
      "partition": 5523,
      "trigon": 5524,
      "cot": 5525,
      "ant": 5526,
      "onto": 5527,
      "simpler": 5528,
      "nplug": 5529,
      "ba": 5530,
      "bac": 5531,
      "##aten": 5532,
      "asc": 5533,
      "##wor": 5534,
      "trigonometr": 5535,
      "internal": 5536,
      "partial": 5537,
      "games": 5538,
      "58": 5539,
      "198": 5540,
      "##avor": 5541,
      "##oll": 5542,
      "##ivid": 5543,
      "collinear": 5544,
      "relates": 5545,
      "depth": 5546,
      "parab": 5547,
      "middle": 5548,
      "##jection": 5549,
      "leaves": 5550,
      "included": 5551,
      "conclude": 5552,
      "radii": 5553,
      "infinitely": 5554,
      "##99": 5555,
      "individ": 5556,
      "2i": 5557,
      "evalu": 5558,
      "items": 5559,
      "ndiv": 5560,
      "affects": 5561,
      "restr": 5562,
      "circular": 5563,
      "written": 5564,
      "trip": 5565,
      "inclusion": 5566,
      "##rog": 5567,
      "assumption": 5568,
      "extra": 5569,
      "ascending": 5570,
      "##ision": 5571,
      "species": 5572,
      "integral": 5573,
      "ordered": 5574,
      "##ness": 5575,
      "##ners": 5576,
      "##icts": 5577,
      "##oes": 5578,
      "reduce": 5579,
      "desired": 5580,
      "##ules": 5581,
      "concentr": 5582,
      "replac": 5583,
      "##tracting": 5584,
      "77": 5585,
      "##ones": 5586,
      "intersections": 5587,
      "triple": 5588,
      "nstarting": 5589,
      "##60": 5590,
      "ellipse": 5591,
      "##fficiency": 5592,
      "critical": 5593,
      "greatest": 5594,
      "##mis": 5595,
      "formalize": 5596,
      "balls": 5597,
      "quite": 5598,
      "asympt": 5599,
      "assignments": 5600,
      "bea": 5601,
      "distribution": 5602,
      "##50": 5603,
      "skip": 5604,
      "nreturn": 5605,
      "dealing": 5606,
      "called": 5607,
      "behavior": 5608,
      "remember": 5609,
      "3k": 5610,
      "pract": 5611,
      "##oth": 5612,
      "##sion": 5613,
      "years": 5614,
      "multiplying": 5615,
      "97": 5616,
      "revers": 5617,
      "bisectors": 5618,
      "enc": 5619,
      "km": 5620,
      "##bitr": 5621,
      "conj": 5622,
      "arbitr": 5623,
      "##clusive": 5624,
      "##ability": 5625,
      "substituting": 5626,
      "##ceil": 5627,
      "##abl": 5628,
      "nmultiply": 5629,
      "##urrence": 5630,
      "##ctor": 5631,
      "applic": 5632,
      "coloring": 5633,
      "yield": 5634,
      "queries": 5635,
      "##els": 5636,
      "##ient": 5637,
      "efficiency": 5638,
      "ranges": 5639,
      "da": 5640,
      "##omp": 5641,
      "##akes": 5642,
      "attack": 5643,
      "tu": 5644,
      "nwhat": 5645,
      "corner": 5646,
      "d2": 5647,
      "61": 5648,
      "assigning": 5649,
      "##ematic": 5650,
      "##40": 5651,
      "##roc": 5652,
      "computing": 5653,
      "levels": 5654,
      "recip": 5655,
      "mech": 5656,
      "##ode": 5657,
      "##ty": 5658,
      "##ulation": 5659,
      "density": 5660,
      "okay": 5661,
      "##phi": 5662,
      "73": 5663,
      "exclusion": 5664,
      "fill": 5665,
      "fil": 5666,
      "nbec": 5667,
      "roads": 5668,
      "fron": 5669,
      "useful": 5670,
      "nbecause": 5671,
      "3n": 5672,
      "##celes": 5673,
      "##ification": 5674,
      "mechan": 5675,
      "transformation": 5676,
      "asks": 5677,
      "ntake": 5678,
      "##ocent": 5679,
      "stre": 5680,
      "descending": 5681,
      "interpre": 5682,
      "magnetic": 5683,
      "phot": 5684,
      "nmore": 5685,
      "cubic": 5686,
      "85": 5687,
      "possibly": 5688,
      "nmax": 5689,
      "shaded": 5690,
      "78": 5691,
      "favor": 5692,
      "##tr": 5693,
      "##lection": 5694,
      "reflect": 5695,
      "##uce": 5696,
      "trape": 5697,
      "trapez": 5698,
      "percent": 5699,
      "longer": 5700,
      "##name": 5701,
      "trapezoid": 5702,
      "6x": 5703,
      "orthocent": 5704,
      "board": 5705,
      "front": 5706,
      "visual": 5707,
      "events": 5708,
      "##chn": 5709,
      "shape": 5710,
      "atom": 5711,
      "10000": 5712,
      "nstep": 5713,
      "repeated": 5714,
      "##ights": 5715,
      "nnumber": 5716,
      "imply": 5717,
      "movement": 5718,
      "trigonometric": 5719,
      "##wers": 5720,
      "jump": 5721,
      "super": 5722,
      "viol": 5723,
      "hash": 5724,
      "closest": 5725,
      "varphi": 5726,
      "##order": 5727,
      "tre": 5728,
      "##istance": 5729,
      "processing": 5730,
      "proportional": 5731,
      "establ": 5732,
      "arranged": 5733,
      "frequencies": 5734,
      "decreases": 5735,
      "cone": 5736,
      "##cel": 5737,
      "wall": 5738,
      "dc": 5739,
      "satisfying": 5740,
      "oa": 5741,
      "mn": 5742,
      "fall": 5743,
      "connections": 5744,
      "nac": 5745,
      "mark": 5746,
      "mathematic": 5747,
      "analyze": 5748,
      "##ramid": 5749,
      "influ": 5750,
      "places": 5751,
      "head": 5752,
      "axes": 5753,
      "bus": 5754,
      "month": 5755,
      "##ck": 5756,
      "##bles": 5757,
      "rep": 5758,
      "boundary": 5759,
      "iterating": 5760,
      "resulting": 5761,
      "nmoreover": 5762,
      "##pot": 5763,
      "pyramid": 5764,
      "guaranteed": 5765,
      "nare": 5766,
      "techn": 5767,
      "house": 5768,
      "safe": 5769,
      "pb": 5770,
      "##umulative": 5771,
      "candidate": 5772,
      "projection": 5773,
      "midpoints": 5774,
      "m2": 5775,
      "##istic": 5776,
      "separate": 5777,
      "##ological": 5778,
      "conjug": 5779,
      "111": 5780,
      "semic": 5781,
      "##uted": 5782,
      "dark": 5783,
      "o1": 5784,
      "object": 5785,
      "representing": 5786,
      "##of": 5787,
      "##ton": 5788,
      "checks": 5789,
      "didn": 5790,
      "##ins": 5791,
      "actual": 5792,
      "2π": 5793,
      "outcomes": 5794,
      "91": 5795,
      "immediately": 5796,
      "pent": 5797,
      "doll": 5798,
      "force": 5799,
      "turns": 5800,
      "##23": 5801,
      "##thes": 5802,
      "mater": 5803,
      "solid": 5804,
      "##rightarrow": 5805,
      "76": 5806,
      "##96": 5807,
      "capacity": 5808,
      "material": 5809,
      "4a": 5810,
      "identical": 5811,
      "inclusive": 5812,
      "##icult": 5813,
      "##ods": 5814,
      "asked": 5815,
      "circumcenter": 5816,
      "entirely": 5817,
      "subgr": 5818,
      "rules": 5819,
      "vow": 5820,
      "normal": 5821,
      "combine": 5822,
      "##bidden": 5823,
      "tack": 5824,
      "##udes": 5825,
      "obtain": 5826,
      "121": 5827,
      "##itudes": 5828,
      "##ference": 5829,
      "##oy": 5830,
      "tackle": 5831,
      "##itive": 5832,
      "contradiction": 5833,
      "binomial": 5834,
      "error": 5835,
      "quantum": 5836,
      "summing": 5837,
      "chain": 5838,
      "##cos": 5839,
      "circumradius": 5840,
      "few": 5841,
      "##56": 5842,
      "nle": 5843,
      "prof": 5844,
      "operatorname": 5845,
      "##vir": 5846,
      "squared": 5847,
      "keeping": 5848,
      "##36": 5849,
      "ox": 5850,
      "adjacency": 5851,
      "mir": 5852,
      "nexp": 5853,
      "methods": 5854,
      "neither": 5855,
      "2p": 5856,
      "d1": 5857,
      "##pri": 5858,
      "coll": 5859,
      "bad": 5860,
      "sour": 5861,
      "train": 5862,
      "overrightarrow": 5863,
      "##viron": 5864,
      "prior": 5865,
      "teams": 5866,
      "subsequences": 5867,
      "88": 5868,
      "beaut": 5869,
      "##sl": 5870,
      "visualize": 5871,
      "appropri": 5872,
      "environ": 5873,
      "nexpand": 5874,
      "o2": 5875,
      "rece": 5876,
      "prote": 5877,
      "##kens": 5878,
      "initially": 5879,
      "pile": 5880,
      "hole": 5881,
      "song": 5882,
      "hom": 5883,
      "gravit": 5884,
      "dam": 5885,
      "implementing": 5886,
      "intersecting": 5887,
      "parabola": 5888,
      "shows": 5889,
      "transl": 5890,
      "fo": 5891,
      "pen": 5892,
      "travers": 5893,
      "reciproc": 5894,
      "forbidden": 5895,
      "replace": 5896,
      "identities": 5897,
      "strength": 5898,
      "##edy": 5899,
      "factorization": 5900,
      "rearrange": 5901,
      "##val": 5902,
      "consisting": 5903,
      "ndefine": 5904,
      "cli": 5905,
      "##asks": 5906,
      "derivative": 5907,
      "##br": 5908,
      "che": 5909,
      "pentagon": 5910,
      "dot": 5911,
      "##rimin": 5912,
      "##raph": 5913,
      "confusing": 5914,
      "heal": 5915,
      "tangency": 5916,
      "##ircles": 5917,
      "ncurrent": 5918,
      "##arm": 5919,
      "mask": 5920,
      "decrease": 5921,
      "hypot": 5922,
      "descri": 5923,
      "suggest": 5924,
      "250": 5925,
      "hypoten": 5926,
      "##ene": 5927,
      "hyd": 5928,
      "cumulative": 5929,
      "confused": 5930,
      "candies": 5931,
      "##mb": 5932,
      "##ety": 5933,
      "difficult": 5934,
      "taken": 5935,
      "eliminate": 5936,
      "altitude": 5937,
      "gravitational": 5938,
      "deque": 5939,
      "95": 5940,
      "cents": 5941,
      "##ario": 5942,
      "closed": 5943,
      "orthocenter": 5944,
      "89": 5945,
      "hypotenuse": 5946,
      "##riminant": 5947,
      "sho": 5948,
      "later": 5949,
      "whole": 5950,
      "k2": 5951,
      "tiles": 5952,
      "brack": 5953,
      "##uth": 5954,
      "maximal": 5955,
      "progression": 5956,
      "cb": 5957,
      "put": 5958,
      "repeating": 5959,
      "tokens": 5960,
      "seen": 5961,
      "nearest": 5962,
      "bip": 5963,
      "gas": 5964,
      "rob": 5965,
      "seats": 5966,
      "regard": 5967,
      "2s": 5968,
      "123": 5969,
      "excluding": 5970,
      "fli": 5971,
      "greedy": 5972,
      "strong": 5973,
      "nassuming": 5974,
      "##osceles": 5975,
      "become": 5976,
      "##ords": 5977,
      "isosceles": 5978,
      "wrong": 5979,
      "expans": 5980,
      "mu": 5981,
      "suit": 5982,
      "quick": 5983,
      "away": 5984,
      "x3": 5985,
      "scenario": 5986,
      "maps": 5987,
      "nmin": 5988,
      "##anged": 5989,
      "coinc": 5990,
      "seat": 5991,
      "account": 5992,
      "interior": 5993,
      "described": 5994,
      "##airs": 5995,
      "delet": 5996,
      "often": 5997,
      "curve": 5998,
      "##angle": 5999,
      "decide": 6000,
      "uses": 6001,
      "128": 6002,
      "##di": 6003,
      "bipart": 6004,
      "##allen": 6005,
      "asymptote": 6006,
      "##ah": 6007,
      "hmm": 6008,
      "rule": 6009,
      "108": 6010,
      "##raw": 6011,
      "continue": 6012,
      "##orm": 6013,
      "carry": 6014,
      "occurs": 6015,
      "princi": 6016,
      "challen": 6017,
      "multiplied": 6018,
      "giving": 6019,
      "legs": 6020,
      "applying": 6021,
      "possibilities": 6022,
      "member": 6023,
      "touch": 6024,
      "placing": 6025,
      "##utions": 6026,
      "pc": 6027,
      "graphs": 6028,
      "stick": 6029,
      "nsubstituting": 6030,
      "incenter": 6031,
      "##ee": 6032,
      "nine": 6033,
      "##uler": 6034,
      "##ograph": 6035,
      "miss": 6036,
      "bases": 6037,
      "recursive": 6038,
      "combined": 6039,
      "nplugging": 6040,
      "ii": 6041,
      "active": 6042,
      "##wr": 6043,
      "cup": 6044,
      "label": 6045,
      "npre": 6046,
      "lex": 6047,
      "reduces": 6048,
      "scores": 6049,
      "##slant": 6050,
      "stones": 6051,
      "composite": 6052,
      "finally": 6053,
      "readline": 6054,
      "names": 6055,
      "irr": 6056,
      "##44": 6057,
      "##bs": 6058,
      "design": 6059,
      "dro": 6060,
      "knowing": 6061,
      "numbered": 6062,
      "latt": 6063,
      "ptr": 6064,
      "endpo": 6065,
      "chem": 6066,
      "arg": 6067,
      "discriminant": 6068,
      "##olution": 6069,
      "subarrays": 6070,
      "gir": 6071,
      "##bra": 6072,
      "240": 6073,
      "ncase": 6074,
      "rooms": 6075,
      "alternative": 6076,
      "simulate": 6077,
      "station": 6078,
      "configurations": 6079,
      "##bo": 6080,
      "2016": 6081,
      "##rol": 6082,
      "books": 6083,
      "##asya": 6084,
      "provide": 6085,
      "happens": 6086,
      "##ellow": 6087,
      "900": 6088,
      "##ok": 6089,
      "##ols": 6090,
      "changing": 6091,
      "interesting": 6092,
      "restrict": 6093,
      "68": 6094,
      "##vable": 6095,
      "##icit": 6096,
      "db": 6097,
      "225": 6098,
      "nsubtract": 6099,
      "a4": 6100,
      "achieved": 6101,
      "forming": 6102,
      "##na": 6103,
      "lattice": 6104,
      "kind": 6105,
      "ncorrect": 6106,
      "hands": 6107,
      "sig": 6108,
      "parameter": 6109,
      "interpret": 6110,
      "69": 6111,
      "##rod": 6112,
      "##ounts": 6113,
      "pay": 6114,
      "2t": 6115,
      "##ob": 6116,
      "sigma": 6117,
      "equality": 6118,
      "##hedral": 6119,
      "bounded": 6120,
      "cylin": 6121,
      "cylinder": 6122,
      "##set": 6123,
      "optimiz": 6124,
      "shown": 6125,
      "fewer": 6126,
      "ham": 6127,
      "yellow": 6128,
      "gl": 6129,
      "holes": 6130,
      "hyper": 6131,
      "3y": 6132,
      "dest": 6133,
      "chooses": 6134,
      "him": 6135,
      "health": 6136,
      "alge": 6137,
      "message": 6138,
      "##ilaterals": 6139,
      "switch": 6140,
      "##sel": 6141,
      "##uit": 6142,
      "quadrilaterals": 6143,
      "orient": 6144,
      "pairwise": 6145,
      "##gram": 6146,
      "##48": 6147,
      "105": 6148,
      "##ese": 6149,
      "625": 6150,
      "##erate": 6151,
      "##old": 6152,
      "why": 6153,
      "lowercase": 6154,
      "periodic": 6155,
      "algebra": 6156,
      "trac": 6157,
      "candidates": 6158,
      "narea": 6159,
      "bipartite": 6160,
      "##vert": 6161,
      "##ster": 6162,
      "bounds": 6163,
      "bill": 6164,
      "duplicates": 6165,
      "3d": 6166,
      "handling": 6167,
      "expansion": 6168,
      "##bon": 6169,
      "##ries": 6170,
      "existing": 6171,
      "anything": 6172,
      "2017": 6173,
      "mix": 6174,
      "euler": 6175,
      "detect": 6176,
      "##ged": 6177,
      "clockwise": 6178,
      "##work": 6179,
      "formulas": 6180,
      "signs": 6181,
      "money": 6182,
      "minimized": 6183,
      "##32": 6184,
      "nmy": 6185,
      "repeat": 6186,
      "spheres": 6187,
      "169": 6188,
      "advanced": 6189,
      "simplifying": 6190,
      "important": 6191,
      "refer": 6192,
      "damage": 6193,
      "tens": 6194,
      "consuming": 6195,
      "##like": 6196,
      "rotations": 6197,
      "94": 6198,
      "fam": 6199,
      "cosines": 6200,
      "span": 6201,
      "600": 6202,
      "##sider": 6203,
      "71": 6204,
      "##atch": 6205,
      "nright": 6206,
      "stop": 6207,
      "inner": 6208,
      "##aries": 6209,
      "subtracting": 6210,
      "ndraw": 6211,
      "via": 6212,
      "mom": 6213,
      "eight": 6214,
      "##ily": 6215,
      "333": 6216,
      "4k": 6217,
      "##76": 6218,
      "nthird": 6219,
      "compan": 6220,
      "##35": 6221,
      "possibility": 6222,
      "##enger": 6223,
      "push": 6224,
      "promis": 6225,
      "layer": 6226,
      "setup": 6227,
      "genetic": 6228,
      "acid": 6229,
      "irrational": 6230,
      "##arp": 6231,
      "dice": 6232,
      "ten": 6233,
      "saw": 6234,
      "computed": 6235,
      "techni": 6236,
      "bb": 6237,
      "##ilon": 6238,
      "##psilon": 6239,
      "applied": 6240,
      "covering": 6241,
      "parallelo": 6242,
      "subgraph": 6243,
      "##aper": 6244,
      "properly": 6245,
      "parallelogram": 6246,
      "nfind": 6247,
      "rounds": 6248,
      "##ifth": 6249,
      "trail": 6250,
      "nwith": 6251,
      "elif": 6252,
      "particles": 6253,
      "hard": 6254,
      "compared": 6255,
      "acute": 6256,
      "promising": 6257,
      "##mer": 6258,
      "##oring": 6259,
      "npos": 6260,
      "##joint": 6261,
      "bx": 6262,
      "##22": 6263,
      "reaches": 6264,
      "nwhen": 6265,
      "semi": 6266,
      "##gan": 6267,
      "come": 6268,
      "apart": 6269,
      "dish": 6270,
      "h1": 6271,
      "abd": 6272,
      "pred": 6273,
      "bp": 6274,
      "principle": 6275,
      "vasya": 6276,
      "bir": 6277,
      "disjoint": 6278,
      "reality": 6279,
      "recurrence": 6280,
      "2x2": 6281,
      "ess": 6282,
      "sto": 6283,
      "##pped": 6284,
      "86": 6285,
      "wee": 6286,
      "foot": 6287,
      "nleft": 6288,
      "tick": 6289,
      "bag": 6290,
      "confl": 6291,
      "af": 6292,
      "suc": 6293,
      "##ified": 6294,
      "guess": 6295,
      "join": 6296,
      "tha": 6297,
      "ncomb": 6298,
      "ndivide": 6299,
      "216": 6300,
      "naddition": 6301,
      "##ern": 6302,
      "really": 6303,
      "nsimplifying": 6304,
      "mapping": 6305,
      "##isms": 6306,
      "pet": 6307,
      "parse": 6308,
      "##ils": 6309,
      "nimplement": 6310,
      "mut": 6311,
      "arrays": 6312,
      "air": 6313,
      "##atives": 6314,
      "##ament": 6315,
      "corners": 6316,
      "potentially": 6317,
      "extens": 6318,
      "towards": 6319,
      "sever": 6320,
      "mic": 6321,
      "##vi": 6322,
      "##ored": 6323,
      "complet": 6324,
      "magnitude": 6325,
      "##aneous": 6326,
      "dollars": 6327,
      "##ques": 6328,
      "v2": 6329,
      "4n": 6330,
      "3b": 6331,
      "nucle": 6332,
      "environment": 6333,
      "exper": 6334,
      "2010": 6335,
      "concaten": 6336,
      "bcd": 6337,
      "patterns": 6338,
      "faster": 6339,
      "sector": 6340,
      "concentration": 6341,
      "contradicts": 6342,
      "mathematical": 6343,
      "minimizes": 6344,
      "rewr": 6345,
      "conv": 6346,
      "altitudes": 6347,
      "misc": 6348,
      "##atures": 6349,
      "spin": 6350,
      "happen": 6351,
      "##ameters": 6352,
      "2e": 6353,
      "contest": 6354,
      "ncre": 6355,
      "paint": 6356,
      "##ym": 6357,
      "ncount": 6358,
      "##ished": 6359,
      "argum": 6360,
      "inversion": 6361,
      "never": 6362,
      "several": 6363,
      "nrem": 6364,
      "handles": 6365,
      "bou": 6366,
      "##aves": 6367,
      "##ploy": 6368,
      "reachable": 6369,
      "##abel": 6370,
      "sens": 6371,
      "##31": 6372,
      "drawn": 6373,
      "selection": 6374,
      "l1": 6375,
      "1001": 6376,
      "2019": 6377,
      "ship": 6378,
      "outline": 6379,
      "arbitrary": 6380,
      "cp": 6381,
      "limits": 6382,
      "ncol": 6383,
      "hund": 6384,
      "nde": 6385,
      "stay": 6386,
      "##ric": 6387,
      "sent": 6388,
      "stuck": 6389,
      "##olving": 6390,
      "nab": 6391,
      "##ests": 6392,
      "involve": 6393,
      "cou": 6394,
      "die": 6395,
      "##etch": 6396,
      "##ams": 6397,
      "pressure": 6398,
      "74": 6399,
      "kj": 6400,
      "##sa": 6401,
      "210": 6402,
      "##ucing": 6403,
      "nadditionally": 6404,
      "incircle": 6405,
      "particle": 6406,
      "record": 6407,
      "##ident": 6408,
      "regardless": 6409,
      "sines": 6410,
      "town": 6411,
      "1s": 6412,
      "cuts": 6413,
      "alternating": 6414,
      "obtained": 6415,
      "precision": 6416,
      "functional": 6417,
      "apples": 6418,
      "achievable": 6419,
      "conjugate": 6420,
      "1e5": 6421,
      "ngood": 6422,
      "transition": 6423,
      "distribute": 6424,
      "phys": 6425,
      "##selves": 6426,
      "north": 6427,
      "triples": 6428,
      "item": 6429,
      "sliding": 6430,
      "walk": 6431,
      "sched": 6432,
      "leaving": 6433,
      "##ath": 6434,
      "inradius": 6435,
      "themselves": 6436,
      "##forming": 6437,
      "against": 6438,
      "lot": 6439,
      "k1": 6440,
      "##ko": 6441,
      "reads": 6442,
      "8x": 6443,
      "bel": 6444,
      "n11": 6445,
      "scc": 6446,
      "2014": 6447,
      "home": 6448,
      "l2": 6449,
      "effects": 6450,
      "effectively": 6451,
      "preser": 6452,
      "nacc": 6453,
      "enter": 6454,
      "connects": 6455,
      "79": 6456,
      "epsilon": 6457,
      "adds": 6458,
      "answers": 6459,
      "nwell": 6460,
      "sketch": 6461,
      "percentage": 6462,
      "kx": 6463,
      "##pro": 6464,
      "ncalculate": 6465,
      "ah": 6466,
      "sell": 6467,
      "marbles": 6468,
      "treat": 6469,
      "continuous": 6470,
      "transformations": 6471,
      "leg": 6472,
      "nfact": 6473,
      "attempt": 6474,
      "nstill": 6475,
      "##ternally": 6476,
      "interactions": 6477,
      "fifth": 6478,
      "##ards": 6479,
      "##iness": 6480,
      "##thest": 6481,
      "scale": 6482,
      "som": 6483,
      "nposition": 6484,
      "food": 6485,
      "absor": 6486,
      "float": 6487,
      "800": 6488,
      "##lections": 6489,
      "finish": 6490,
      "unlike": 6491,
      "polar": 6492,
      "veloc": 6493,
      "comes": 6494,
      "nother": 6495,
      "jumps": 6496,
      "ring": 6497,
      "swapping": 6498,
      "multiplication": 6499,
      "evaluate": 6500,
      "fail": 6501,
      "##mic": 6502,
      "directed": 6503,
      "##ids": 6504,
      "rotated": 6505,
      "spac": 6506,
      "nspec": 6507,
      "systems": 6508,
      "favorable": 6509,
      "success": 6510,
      "dir": 6511,
      "##etimes": 6512,
      "##earch": 6513,
      "cn": 6514,
      "kg": 6515,
      "##cules": 6516,
      "counted": 6517,
      "62": 6518,
      "labels": 6519,
      "##rogen": 6520,
      "missed": 6521,
      "proof": 6522,
      "er": 6523,
      "solved": 6524,
      "angled": 6525,
      "essent": 6526,
      "nlabel": 6527,
      "profit": 6528,
      "nne": 6529,
      "mirr": 6530,
      "v1": 6531,
      "able": 6532,
      "m1": 6533,
      "applicable": 6534,
      "naccording": 6535,
      "tasks": 6536,
      "connection": 6537,
      "pythag": 6538,
      "soc": 6539,
      "research": 6540,
      "priority": 6541,
      "160": 6542,
      "05": 6543,
      "formation": 6544,
      "nspecific": 6545,
      "nall": 6546,
      "overlaps": 6547,
      "cour": 6548,
      "vs": 6549,
      "employ": 6550,
      "old": 6551,
      "##oci": 6552,
      "participants": 6553,
      "individual": 6554,
      "exit": 6555,
      "##orean": 6556,
      "accumul": 6557,
      "derive": 6558,
      "4y": 6559,
      "age": 6560,
      "probabilities": 6561,
      "denominators": 6562,
      "sec": 6563,
      "tell": 6564,
      "associ": 6565,
      "shap": 6566,
      "lowest": 6567,
      "indicating": 6568,
      "focus": 6569,
      "seven": 6570,
      "##33": 6571,
      "influence": 6572,
      "##aks": 6573,
      "unif": 6574,
      "nun": 6575,
      "##ival": 6576,
      "control": 6577,
      "prim": 6578,
      "subseg": 6579,
      "prefer": 6580,
      "p3": 6581,
      "##romatic": 6582,
      "n12": 6583,
      "##ination": 6584,
      "leave": 6585,
      "nconsider": 6586,
      "summary": 6587,
      "occurr": 6588,
      "winning": 6589,
      "issues": 6590,
      "pythagorean": 6591,
      "##90": 6592,
      "spect": 6593,
      "denot": 6594,
      "gain": 6595,
      "##yclic": 6596,
      "colored": 6597,
      "nspecifically": 6598,
      "ndif": 6599,
      "painted": 6600,
      "endpoints": 6601,
      "moment": 6602,
      "king": 6603,
      "##lor": 6604,
      "simult": 6605,
      "2004": 6606,
      "c3": 6607,
      "eat": 6608,
      "pill": 6609,
      "##ale": 6610,
      "##ilt": 6611,
      "2018": 6612,
      "uniform": 6613,
      "semicircle": 6614,
      "2009": 6615,
      "network": 6616,
      "combinator": 6617,
      "heat": 6618,
      "bm": 6619,
      "cast": 6620,
      "specify": 6621,
      "charge": 6622,
      "sometimes": 6623,
      "unlikely": 6624,
      "simultaneous": 6625,
      "everything": 6626,
      "merge": 6627,
      "land": 6628,
      "spent": 6629,
      "returns": 6630,
      "##fix": 6631,
      "neut": 6632,
      "resour": 6633,
      "residues": 6634,
      "divisibility": 6635,
      "extend": 6636,
      "substitution": 6637,
      "ri": 6638,
      "vary": 6639,
      "coverage": 6640,
      "estim": 6641,
      "eu": 6642,
      "symb": 6643,
      "nprefix": 6644,
      "nq": 6645,
      "##land": 6646,
      "sun": 6647,
      "precomput": 6648,
      "roll": 6649,
      "##crete": 6650,
      "wave": 6651,
      "##rices": 6652,
      "beginning": 6653,
      "testing": 6654,
      "##thal": 6655,
      "hull": 6656,
      "plants": 6657,
      "closer": 6658,
      "subtended": 6659,
      "notherwise": 6660,
      "occur": 6661,
      "cf": 6662,
      "mex": 6663,
      "nwhile": 6664,
      "cau": 6665,
      "reduced": 6666,
      "built": 6667,
      "passenger": 6668,
      "molecules": 6669,
      "93": 6670,
      "87": 6671,
      "generalize": 6672,
      "##jective": 6673,
      "occup": 6674,
      "##board": 6675,
      "##otic": 6676,
      "polygons": 6677,
      "##ategor": 6678,
      "minimizing": 6679,
      "##agram": 6680,
      "somewhere": 6681,
      "beauty": 6682,
      "shor": 6683,
      "##ock": 6684,
      "optimization": 6685,
      "##onic": 6686,
      "travel": 6687,
      "transitions": 6688,
      "998": 6689,
      "##ametr": 6690,
      "##ring": 6691,
      "##uel": 6692,
      "nthese": 6693,
      "rectangular": 6694,
      "east": 6695,
      "135": 6696,
      "nread": 6697,
      "enthal": 6698,
      "octagon": 6699,
      "triangular": 6700,
      "manip": 6701,
      "##queue": 6702,
      "winner": 6703,
      "ing": 6704,
      "mention": 6705,
      "art": 6706,
      "locus": 6707,
      "recon": 6708,
      "##ov": 6709,
      "##atter": 6710,
      "ij": 6711,
      "issue": 6712,
      "##seud": 6713,
      "computation": 6714,
      "universe": 6715,
      "quickly": 6716,
      "categor": 6717,
      "working": 6718,
      "666": 6719,
      "homoth": 6720,
      "s3": 6721,
      "located": 6722,
      "traversal": 6723,
      "cow": 6724,
      "south": 6725,
      "prevent": 6726,
      "slopes": 6727,
      "circumference": 6728,
      "ncreasing": 6729,
      "produce": 6730,
      "repeats": 6731,
      "##16": 6732,
      "topological": 6733,
      "farthest": 6734,
      "growth": 6735,
      "oppon": 6736,
      "ngle": 6737,
      "plays": 6738,
      "2020": 6739,
      "##icograph": 6740,
      "leaf": 6741,
      "bacter": 6742,
      "sine": 6743,
      "pict": 6744,
      "##ited": 6745,
      "carbon": 6746,
      "##onal": 6747,
      "marks": 6748,
      "logarithms": 6749,
      "visible": 6750,
      "maj": 6751,
      "classes": 6752,
      "electrons": 6753,
      "source": 6754,
      "micro": 6755,
      "aut": 6756,
      "ful": 6757,
      "yz": 6758,
      "constants": 6759,
      "2h": 6760,
      "92": 6761,
      "ndistance": 6762,
      "chords": 6763,
      "lexicograph": 6764,
      "precisely": 6765,
      "rhomb": 6766,
      "bul": 6767,
      "flipping": 6768,
      "simultaneously": 6769,
      "plant": 6770,
      "mentions": 6771,
      "velocity": 6772,
      "though": 6773,
      "displ": 6774,
      "shorter": 6775,
      "##struct": 6776,
      "2008": 6777,
      "fib": 6778,
      "complement": 6779,
      "completely": 6780,
      "outer": 6781,
      "flowers": 6782,
      "atoms": 6783,
      "cc": 6784,
      "conson": 6785,
      "##30": 6786,
      "ann": 6787,
      "##cons": 6788,
      "##45": 6789,
      "expressing": 6790,
      "ncalculating": 6791,
      "sit": 6792,
      "simplified": 6793,
      "tou": 6794,
      "lang": 6795,
      "##tle": 6796,
      "access": 6797,
      "triplets": 6798,
      "factorials": 6799,
      "2z": 6800,
      "organ": 6801,
      "members": 6802,
      "enthalpy": 6803,
      "##yl": 6804,
      "mill": 6805,
      "plas": 6806,
      "derived": 6807,
      "rays": 6808,
      "##78": 6809,
      "##scr": 6810,
      "nprocess": 6811,
      "nsort": 6812,
      "##och": 6813,
      "7x": 6814,
      "practice": 6815,
      "qr": 6816,
      "##go": 6817,
      "paper": 6818,
      "indexing": 6819,
      "relatively": 6820,
      "establish": 6821,
      "structures": 6822,
      "evolution": 6823,
      "occurrences": 6824,
      "iterative": 6825,
      "compar": 6826,
      "cancel": 6827,
      "##ili": 6828,
      "cook": 6829,
      "##usion": 6830,
      "running": 6831,
      "##iguous": 6832,
      "ray": 6833,
      "##carp": 6834,
      "simplic": 6835,
      "ft": 6836,
      "disk": 6837,
      "major": 6838,
      "picks": 6839,
      "clearly": 6840,
      "##agin": 6841,
      "polyhedron": 6842,
      "nest": 6843,
      "nassign": 6844,
      "simplicity": 6845,
      "##lish": 6846,
      "nonce": 6847,
      "determining": 6848,
      "extended": 6849,
      "abst": 6850,
      "2ab": 6851,
      "inversions": 6852,
      "mathscr": 6853,
      "dihedral": 6854,
      "maximized": 6855,
      "tax": 6856,
      "140": 6857,
      "nz": 6858,
      "mag": 6859,
      "lo": 6860,
      "pages": 6861,
      "impro": 6862,
      "shifts": 6863,
      "contribution": 6864,
      "description": 6865,
      "hyperb": 6866,
      "votes": 6867,
      "nchoo": 6868,
      "2015": 6869,
      "ordering": 6870,
      "clique": 6871,
      "82": 6872,
      "deli": 6873,
      "removal": 6874,
      "001": 6875,
      "exceeds": 6876,
      "4r": 6877,
      "bomb": 6878,
      "##under": 6879,
      "population": 6880,
      "dt": 6881,
      "dom": 6882,
      "1024": 6883,
      "introd": 6884,
      "log2": 6885,
      "week": 6886,
      "purch": 6887,
      "memo": 6888,
      "english": 6889,
      "pointer": 6890,
      "nday": 6891,
      "cruc": 6892,
      "cal": 6893,
      "coincide": 6894,
      "crucial": 6895,
      "##64": 6896,
      "fits": 6897,
      "processes": 6898,
      "4b": 6899,
      "mi": 6900,
      "brid": 6901,
      "rho": 6902,
      "pseud": 6903,
      "##aginary": 6904,
      "##ture": 6905,
      "hit": 6906,
      "tau": 6907,
      "##izz": 6908,
      "ingred": 6909,
      "misunder": 6910,
      "##lex": 6911,
      "##ogonal": 6912,
      "270": 6913,
      "projections": 6914,
      "piles": 6915,
      "2002": 6916,
      "nyou": 6917,
      "##iods": 6918,
      "spanning": 6919,
      "thing": 6920,
      "throw": 6921,
      "rotating": 6922,
      "restrictions": 6923,
      "trailing": 6924,
      "periods": 6925,
      "subject": 6926,
      "cosmic": 6927,
      "5000": 6928,
      "jun": 6929,
      "inefficient": 6930,
      "nsubstitute": 6931,
      "##ann": 6932,
      "drawing": 6933,
      "n20": 6934,
      "aligned": 6935,
      "ign": 6936,
      "construction": 6937,
      "exponential": 6938,
      "##aking": 6939,
      "720": 6940,
      "extract": 6941,
      "npoint": 6942,
      "nexpanding": 6943,
      "plasma": 6944,
      "arct": 6945,
      "exclude": 6946,
      "quar": 6947,
      "recursively": 6948,
      "composition": 6949,
      "x0": 6950,
      "decomp": 6951,
      "flips": 6952,
      "reversed": 6953,
      "##tally": 6954,
      "##umes": 6955,
      "nothing": 6956,
      "maximizes": 6957,
      "##aa": 6958,
      "3c": 6959,
      "lif": 6960,
      "##ne": 6961,
      "nsorted": 6962,
      "cosine": 6963,
      "worst": 6964,
      "frame": 6965,
      "overc": 6966,
      "approximation": 6967,
      "abstract": 6968,
      "gm": 6969,
      "performing": 6970,
      "2006": 6971,
      "##ather": 6972,
      "reached": 6973,
      "scho": 6974,
      "company": 6975,
      "imaginary": 6976,
      "10x": 6977,
      "##ulate": 6978,
      "##oses": 6979,
      "##ouses": 6980,
      "skill": 6981,
      "heads": 6982,
      "3r": 6983,
      "post": 6984,
      "##standing": 6985,
      "##apped": 6986,
      "spherical": 6987,
      "generally": 6988,
      "rhombus": 6989,
      "alphab": 6990,
      "chemical": 6991,
      "explo": 6992,
      "##acci": 6993,
      "subsequent": 6994,
      "##ik": 6995,
      "angular": 6996,
      "homothety": 6997,
      "domain": 6998,
      "adap": 6999,
      "512": 7000,
      "##onacci": 7001,
      "mistakes": 7002,
      "02": 7003,
      "##ilib": 7004,
      "2007": 7005,
      "splitting": 7006,
      "rotate": 7007,
      "##ilibri": 7008,
      "provides": 7009,
      "fen": 7010,
      "men": 7011,
      "cause": 7012,
      "lceil": 7013,
      "vowels": 7014,
      "langu": 7015,
      "##uits": 7016,
      "576": 7017,
      "residue": 7018,
      "heav": 7019,
      "polycarp": 7020,
      "combining": 7021,
      "loops": 7022,
      "gaps": 7023,
      "##ilibrium": 7024,
      "reciprocal": 7025,
      "bracket": 7026,
      "fully": 7027,
      "touches": 7028,
      "west": 7029,
      "##lation": 7030,
      "prop": 7031,
      "clar": 7032,
      "##reds": 7033,
      "boys": 7034,
      "nhe": 7035,
      "mach": 7036,
      "molecular": 7037,
      "gap": 7038,
      "exc": 7039,
      "##ress": 7040,
      "102": 7041,
      "equilibrium": 7042,
      "observ": 7043,
      "fibonacci": 7044,
      "##tt": 7045,
      "orders": 7046,
      "challenging": 7047,
      "130": 7048,
      "##70": 7049,
      "##wick": 7050,
      "##eta": 7051,
      "dual": 7052,
      "##inear": 7053,
      "walking": 7054,
      "appropriate": 7055,
      "##15": 7056,
      "instance": 7057,
      "tuples": 7058,
      "rolls": 7059,
      "rceil": 7060,
      "adjusted": 7061,
      "##ctors": 7062,
      "diagram": 7063,
      "confirms": 7064,
      "limited": 7065,
      "vice": 7066,
      "delete": 7067,
      "mb": 7068,
      "usually": 7069,
      "shared": 7070,
      "misunderstanding": 7071,
      "b3": 7072,
      "unc": 7073,
      "syn": 7074,
      "location": 7075,
      "reactions": 7076,
      "versa": 7077,
      "typically": 7078,
      "gal": 7079,
      "hundreds": 7080,
      "112": 7081,
      "determin": 7082,
      "nfactor": 7083,
      "fenwick": 7084,
      "experim": 7085,
      "medians": 7086,
      "established": 7087,
      "y3": 7088,
      "petya": 7089,
      "##ium": 7090,
      "##ees": 7091,
      "animal": 7092,
      "168": 7093,
      "vowel": 7094,
      "##consist": 7095,
      "drink": 7096,
      "ste": 7097,
      "obt": 7098,
      "colorings": 7099,
      "temp": 7100,
      "traverse": 7101,
      "robot": 7102,
      "eucl": 7103,
      "##gies": 7104,
      "parsing": 7105,
      "inconsist": 7106,
      "horizontally": 7107,
      "floating": 7108,
      "songs": 7109,
      "alternate": 7110,
      "obtuse": 7111,
      "paren": 7112,
      "contiguous": 7113,
      "triv": 7114,
      "pairing": 7115,
      "activ": 7116,
      "phase": 7117,
      "ec": 7118,
      "respective": 7119,
      "removes": 7120,
      "##ingu": 7121,
      "forward": 7122,
      "rais": 7123,
      "nremain": 7124,
      "aq": 7125,
      "page": 7126,
      "##kn": 7127,
      "##chy": 7128,
      "##spect": 7129,
      "basis": 7130,
      "party": 7131,
      "##34": 7132,
      "suitable": 7133,
      "126": 7134,
      "contributes": 7135,
      "chairs": 7136,
      "spli": 7137,
      "2003": 7138,
      "nadding": 7139,
      "comparis": 7140,
      "modular": 7141,
      "leftmost": 7142,
      "##my": 7143,
      "independently": 7144,
      "maintaining": 7145,
      "hum": 7146,
      "lat": 7147,
      "rating": 7148,
      "tile": 7149,
      "stations": 7150,
      "cans": 7151,
      "rain": 7152,
      "explicit": 7153,
      "chess": 7154,
      "##ustom": 7155,
      "labeled": 7156,
      "shouldn": 7157,
      "border": 7158,
      "specifies": 7159,
      "729": 7160,
      "##71": 7161,
      "worry": 7162,
      "2012": 7163,
      "##warz": 7164,
      "schwarz": 7165,
      "##aur": 7166,
      "balanced": 7167,
      "practical": 7168,
      "associated": 7169,
      "##dy": 7170,
      "subsegment": 7171,
      "##word": 7172,
      "transfer": 7173,
      "hydrogen": 7174,
      "1x": 7175,
      "custom": 7176,
      "##cal": 7177,
      "z2": 7178,
      "spell": 7179,
      "factored": 7180,
      "flu": 7181,
      "transport": 7182,
      "supposed": 7183,
      "appropriately": 7184,
      "06": 7185,
      "wonder": 7186,
      "ran": 7187,
      "grows": 7188,
      "noper": 7189,
      "cauchy": 7190,
      "extre": 7191,
      "##imeters": 7192,
      "orientation": 7193,
      "harm": 7194,
      "##onds": 7195,
      "vertically": 7196,
      "dimension": 7197,
      "collections": 7198,
      "contribute": 7199,
      "argument": 7200,
      "##uary": 7201,
      "loss": 7202,
      "switches": 7203,
      "##sters": 7204,
      "summarize": 7205,
      "applies": 7206,
      "techniques": 7207,
      "combinatorial": 7208,
      "hyperbola": 7209,
      "parenthes": 7210,
      "quadrant": 7211,
      "reduction": 7212,
      "boy": 7213,
      "inser": 7214,
      "indexed": 7215,
      "rightmost": 7216,
      "mentioned": 7217,
      "4m": 7218,
      "showing": 7219,
      "moved": 7220,
      "##ny": 7221,
      "electro": 7222,
      "lateral": 7223,
      "ions": 7224,
      "simulation": 7225,
      "mph": 7226,
      "##yst": 7227,
      "leqslant": 7228,
      "requirements": 7229,
      "equally": 7230,
      "dog": 7231,
      "keys": 7232,
      "numerical": 7233,
      "crossing": 7234,
      "quarter": 7235,
      "##etical": 7236,
      "aren": 7237,
      "mirror": 7238,
      "##98": 7239,
      "##77": 7240,
      "##idean": 7241,
      "1c": 7242,
      "spread": 7243,
      "participant": 7244,
      "memory": 7245,
      "birds": 7246,
      "leap": 7247,
      "initialization": 7248,
      "marked": 7249,
      "##inguish": 7250,
      "boundaries": 7251,
      "uppercase": 7252,
      "##cule": 7253,
      "ability": 7254,
      "parameters": 7255,
      "parametr": 7256,
      "performed": 7257,
      "drop": 7258,
      "2f": 7259,
      "iv": 7260,
      "##ault": 7261,
      "maximizing": 7262,
      "socks": 7263,
      "euclidean": 7264,
      "compress": 7265,
      "192": 7266,
      "tower": 7267,
      "copper": 7268,
      "136": 7269,
      "010": 7270,
      "bow": 7271,
      "##olve": 7272,
      "belong": 7273,
      "diam": 7274,
      "encl": 7275,
      "totaling": 7276,
      "intercept": 7277,
      "molecule": 7278,
      "##defined": 7279,
      "pret": 7280,
      "club": 7281,
      "opponent": 7282,
      "bank": 7283,
      "rearranging": 7284,
      "ncom": 7285,
      "circumcircles": 7286,
      "##elace": 7287,
      "dag": 7288,
      "waves": 7289,
      "loses": 7290,
      "reflecting": 7291,
      "9x": 7292,
      "##uses": 7293,
      "nfre": 7294,
      "ninde": 7295,
      "polymer": 7296,
      "a0": 7297,
      "frog": 7298,
      "stone": 7299,
      "printed": 7300,
      "3t": 7301,
      "indicates": 7302,
      "##ients": 7303,
      "essentially": 7304,
      "equid": 7305,
      "npo": 7306,
      "2011": 7307,
      "allowing": 7308,
      "83": 7309,
      "cance": 7310,
      "attach": 7311,
      "reducing": 7312,
      "##uff": 7313,
      "##oming": 7314,
      "n15": 7315,
      "comparing": 7316,
      "reasonable": 7317,
      "deb": 7318,
      "##iew": 7319,
      "arcsin": 7320,
      "nsh": 7321,
      "##ounted": 7322,
      "radians": 7323,
      "filled": 7324,
      "prints": 7325,
      "similarity": 7326,
      "xyz": 7327,
      "pretty": 7328,
      "pizz": 7329,
      "dimensional": 7330,
      "dominoes": 7331,
      "cycl": 7332,
      "neighboring": 7333,
      "picture": 7334,
      "rook": 7335,
      "##orts": 7336,
      "externally": 7337,
      "unity": 7338,
      "planet": 7339,
      "moles": 7340,
      "nchoose": 7341,
      "##ero": 7342,
      "matrices": 7343,
      "##可能": 7344,
      "196": 7345,
      "support": 7346,
      "optimized": 7347,
      "estimate": 7348,
      "temperatures": 7349,
      "adapt": 7350,
      "swe": 7351,
      "notice": 7352,
      "subm": 7353,
      "volumes": 7354,
      "job": 7355,
      "encoun": 7356,
      "arctan": 7357,
      "##olate": 7358,
      "ndi": 7359,
      "mor": 7360,
      "pip": 7361,
      "##nect": 7362,
      "manh": 7363,
      "##imally": 7364,
      "ntest": 7365,
      "##aven": 7366,
      "##ocode": 7367,
      "meeting": 7368,
      "materials": 7369,
      "chlor": 7370,
      "liters": 7371,
      "2001": 7372,
      "convol": 7373,
      "fuel": 7374,
      "##sp": 7375,
      "##92": 7376,
      "##gen": 7377,
      "knight": 7378,
      "fruits": 7379,
      "concyclic": 7380,
      "arbitrarily": 7381,
      "shoelace": 7382,
      "statements": 7383,
      "2500": 7384,
      "##88": 7385,
      "stars": 7386,
      "pqr": 7387,
      "ncombine": 7388,
      "monster": 7389,
      "scaling": 7390,
      "1e9": 7391,
      "abb": 7392,
      "##ptions": 7393,
      "compet": 7394,
      "2005": 7395,
      "convoluted": 7396,
      "##co": 7397,
      "100000": 7398,
      "cars": 7399,
      "entries": 7400,
      "interpretation": 7401,
      "prot": 7402,
      "nequ": 7403,
      "n16": 7404,
      "arrow": 7405,
      "##centers": 7406,
      "reciprocals": 7407,
      "link": 7408,
      "pd": 7409,
      "##min": 7410,
      "##ived": 7411,
      "equidistant": 7412,
      "243": 7413,
      "cnt": 7414,
      "autom": 7415,
      "##vern": 7416,
      "##ancy": 7417,
      "exceeding": 7418,
      "##ology": 7419,
      "windows": 7420,
      "a5": 7421,
      "eventually": 7422,
      "physics": 7423,
      "denoted": 7424,
      "kil": 7425,
      "##ogn": 7426,
      "04": 7427,
      "nassume": 7428,
      "##ana": 7429,
      "nrec": 7430,
      "local": 7431,
      "school": 7432,
      "token": 7433,
      "extension": 7434,
      "##37": 7435,
      "nby": 7436,
      "prices": 7437,
      "450": 7438,
      "375": 7439,
      "nremaining": 7440,
      "fac": 7441,
      "ion": 7442,
      "geqslant": 7443,
      "r3": 7444,
      "mx": 7445,
      "om": 7446,
      "creating": 7447,
      "recursion": 7448,
      "plot": 7449,
      "remainders": 7450,
      "depart": 7451,
      "ace": 7452,
      "##urb": 7453,
      "notes": 7454,
      "arranging": 7455,
      "distributed": 7456,
      "increased": 7457,
      "uniquely": 7458,
      "nnew": 7459,
      "nature": 7460,
      "plau": 7461,
      "##known": 7462,
      "shares": 7463,
      "triplet": 7464,
      "##terior": 7465,
      "arrival": 7466,
      "expanding": 7467,
      "occupied": 7468,
      "unknown": 7469,
      "govern": 7470,
      "insight": 7471,
      "girls": 7472,
      "plausible": 7473,
      "forces": 7474,
      "undefined": 7475,
      "lexicographically": 7476,
      "cx": 7477,
      "rough": 7478,
      "brackets": 7479,
      "ak": 7480,
      "houses": 7481,
      "messages": 7482,
      "bacteria": 7483,
      "sil": 7484,
      "##ox": 7485,
      "notation": 7486,
      "288": 7487,
      "fold": 7488,
      "miscalcul": 7489,
      "##plus": 7490,
      "grams": 7491,
      "writing": 7492,
      "3s": 7493,
      "mile": 7494,
      "##jk": 7495,
      "layers": 7496,
      "nres": 7497,
      "fem": 7498,
      "earth": 7499,
      "confirming": 7500,
      "wide": 7501,
      "wire": 7502,
      "presence": 7503,
      "npoints": 7504,
      "chip": 7505,
      "discre": 7506,
      "placements": 7507,
      "dna": 7508,
      "n100": 7509,
      "broken": 7510,
      "##b1": 7511,
      "##uts": 7512,
      "effective": 7513,
      "nimplementing": 7514,
      "magic": 7515,
      "##zero": 7516,
      "absorb": 7517,
      "band": 7518,
      "specul": 7519,
      "ct": 7520,
      "concrete": 7521,
      "exterior": 7522,
      "acd": 7523,
      "ceiling": 7524,
      "ske": 7525,
      "e2": 7526,
      "nro": 7527,
      "flag": 7528,
      "fractional": 7529,
      "nelif": 7530,
      "rewrite": 7531,
      "expects": 7532,
      "parentheses": 7533,
      "##amp": 7534,
      "default": 7535,
      "pix": 7536,
      "##ru": 7537,
      "##iation": 7538,
      "ncont": 7539,
      "mm": 7540,
      "choc": 7541,
      "quot": 7542,
      "behind": 7543,
      "bars": 7544,
      "bought": 7545,
      "unn": 7546,
      "meets": 7547,
      "palindromic": 7548,
      "purp": 7549,
      "3m": 7550,
      "##une": 7551,
      "fields": 7552,
      "replaced": 7553,
      "proteins": 7554,
      "apple": 7555,
      "gon": 7556,
      "hi": 7557,
      "lem": 7558,
      "tourn": 7559,
      "determines": 7560,
      "catal": 7561,
      "dem": 7562,
      "m3": 7563,
      "resources": 7564,
      "speculative": 7565,
      "weak": 7566,
      "nexample": 7567,
      "nsame": 7568,
      "version": 7569,
      "resistance": 7570,
      "axi": 7571,
      "##thesis": 7572,
      "kin": 7573,
      "##iral": 7574,
      "nonzero": 7575,
      "draws": 7576,
      "merged": 7577,
      "sectors": 7578,
      "ngre": 7579,
      "nneed": 7580,
      "algorithms": 7581,
      "wom": 7582,
      "optimally": 7583,
      "##bc": 7584,
      "colinear": 7585,
      "recogn": 7586,
      "ao": 7587,
      "bid": 7588,
      "##phere": 7589,
      "nearlier": 7590,
      "tuple": 7591,
      "bene": 7592,
      "##ball": 7593,
      "##itten": 7594,
      "teach": 7595,
      "stage": 7596,
      "ngcd": 7597,
      "##liest": 7598,
      "##arios": 7599,
      "performance": 7600,
      "scenarios": 7601,
      "chair": 7602,
      "cookies": 7603,
      "##18": 7604,
      "##ove": 7605,
      "n13": 7606,
      "protein": 7607,
      "3x3": 7608,
      "earliest": 7609,
      "stops": 7610,
      "ju": 7611,
      "orbit": 7612,
      "##resh": 7613,
      "gold": 7614,
      "##ced": 7615,
      "2013": 7616,
      "##ashi": 7617,
      "eats": 7618,
      "##atches": 7619,
      "prism": 7620,
      "gave": 7621,
      "##94": 7622,
      "##width": 7623,
      "##pected": 7624,
      "nsequ": 7625,
      "deck": 7626,
      "mp": 7627,
      "##可以": 7628,
      "ci": 7629,
      "##man": 7630,
      "previously": 7631,
      "accel": 7632,
      "earn": 7633,
      "contradict": 7634,
      "dev": 7635,
      "contributions": 7636,
      "heard": 7637,
      "interm": 7638,
      "gray": 7639,
      "##zy": 7640,
      "eaten": 7641,
      "bur": 7642,
      "confident": 7643,
      "dependencies": 7644,
      "randomly": 7645,
      "##72": 7646,
      "composed": 7647,
      "heapq": 7648,
      "snow": 7649,
      "ndoes": 7650,
      "continu": 7651,
      "cry": 7652,
      "watch": 7653,
      "broad": 7654,
      "gravity": 7655,
      "npositions": 7656,
      "f1": 7657,
      "##flow": 7658,
      "individually": 7659,
      "trivial": 7660,
      "connectivity": 7661,
      "##ucky": 7662,
      "domino": 7663,
      "mechanisms": 7664,
      "nboth": 7665,
      "commun": 7666,
      "bitm": 7667,
      "lights": 7668,
      "action": 7669,
      "continues": 7670,
      "little": 7671,
      "pseudocode": 7672,
      "explicitly": 7673,
      "4c": 7674,
      "changed": 7675,
      "benef": 7676,
      "##95": 7677,
      "##rected": 7678,
      "destro": 7679,
      "nour": 7680,
      "rs": 7681,
      "xz": 7682,
      "knows": 7683,
      "constructed": 7684,
      "pf": 7685,
      "describ": 7686,
      "324": 7687,
      "saying": 7688,
      "##ently": 7689,
      "nested": 7690,
      "08": 7691,
      "fro": 7692,
      "rolling": 7693,
      "##ahashi": 7694,
      "##或者": 7695,
      "breaks": 7696,
      "octahedron": 7697,
      "##abc": 7698,
      "handled": 7699,
      "ncolumn": 7700,
      "paired": 7701,
      "intermedi": 7702,
      "address": 7703,
      "machine": 7704,
      "##55": 7705,
      "##idence": 7706,
      "playing": 7707,
      "drug": 7708,
      "ridd": 7709,
      "occurrence": 7710,
      "glass": 7711,
      "ticket": 7712,
      "##iliar": 7713,
      "palindromes": 7714,
      "violates": 7715,
      "objects": 7716,
      "12x": 7717,
      "bottles": 7718,
      "constructing": 7719,
      "encounter": 7720,
      "measures": 7721,
      "oxy": 7722,
      "arccos": 7723,
      "concurrent": 7724,
      "##a2": 7725,
      "someone": 7726,
      "knights": 7727,
      "contained": 7728,
      "happiness": 7729,
      "discrep": 7730,
      "cev": 7731,
      "buys": 7732,
      "deliver": 7733,
      "flower": 7734,
      "discard": 7735,
      "multiplicative": 7736,
      "familiar": 7737,
      "nperfect": 7738,
      "suffic": 7739,
      "2021": 7740,
      "##ales": 7741,
      "##versity": 7742,
      "nsolving": 7743,
      "equivalence": 7744,
      "##rel": 7745,
      "backtracking": 7746,
      "atm": 7747,
      "bran": 7748,
      "impact": 7749,
      "sources": 7750,
      "##directed": 7751,
      "##eration": 7752,
      "bring": 7753,
      "determinant": 7754,
      "##ites": 7755,
      "undirected": 7756,
      "touching": 7757,
      "n或者": 7758,
      "##ared": 7759,
      "cosθ": 7760,
      "bricks": 7761,
      "bed": 7762,
      "ir": 7763,
      "##42": 7764,
      "listed": 7765,
      "negatives": 7766,
      "refers": 7767,
      "tak": 7768,
      "ingredients": 7769,
      "mst": 7770,
      "##cepts": 7771,
      "adc": 7772,
      "disks": 7773,
      "##vals": 7774,
      "##agn": 7775,
      "outputs": 7776,
      "parents": 7777,
      "simplest": 7778,
      "seq": 7779,
      "grouping": 7780,
      "tournament": 7781,
      "##bal": 7782,
      "si": 7783,
      "##list": 7784,
      "1990": 7785,
      "consum": 7786,
      "buying": 7787,
      "n但": 7788,
      "anywhere": 7789,
      "lying": 7790,
      "rates": 7791,
      "vill": 7792,
      "cutting": 7793,
      "excluded": 7794,
      "raised": 7795,
      "w1": 7796,
      "##roup": 7797,
      "ow": 7798,
      "##rid": 7799,
      "##stac": 7800,
      "stays": 7801,
      "nexpected": 7802,
      "ballo": 7803,
      "repeatedly": 7804,
      "nrecall": 7805,
      "##lie": 7806,
      "nsetting": 7807,
      "spaced": 7808,
      "deficit": 7809,
      "lost": 7810,
      "106": 7811,
      "pointers": 7812,
      "fund": 7813,
      "lis": 7814,
      "predict": 7815,
      "million": 7816,
      "memoization": 7817,
      "##需要": 7818,
      "genes": 7819,
      "tails": 7820,
      "nequation": 7821,
      "oxygen": 7822,
      "bond": 7823,
      "haven": 7824,
      "monoch": 7825,
      "additionally": 7826,
      "clean": 7827,
      "##asha": 7828,
      "abe": 7829,
      "masses": 7830,
      "gc": 7831,
      "foci": 7832,
      "y0": 7833,
      "sheet": 7834,
      "antib": 7835,
      "cake": 7836,
      "##ginal": 7837,
      "ski": 7838,
      "course": 7839,
      "overflow": 7840,
      "crosses": 7841,
      "343": 7842,
      "language": 7843,
      "##vious": 7844,
      "n14": 7845,
      "standing": 7846,
      "insertions": 7847,
      "##problem": 7848,
      "6a": 7849,
      "proving": 7850,
      "played": 7851,
      "factorize": 7852,
      "significantly": 7853,
      "monochromatic": 7854,
      "nangle": 7855,
      "stable": 7856,
      "obstac": 7857,
      "alphabet": 7858,
      "extreme": 7859,
      "##undant": 7860,
      "##ms": 7861,
      "##ka": 7862,
      "sticks": 7863,
      "placement": 7864,
      "walls": 7865,
      "##fs": 7866,
      "computes": 7867,
      "tank": 7868,
      "handsh": 7869,
      "nsequence": 7870,
      "oh": 7871,
      "##ads": 7872,
      "explain": 7873,
      "discrepancy": 7874,
      "cha": 7875,
      "implic": 7876,
      "varies": 7877,
      "cups": 7878,
      "packs": 7879,
      "linewidth": 7880,
      "##isions": 7881,
      "amounts": 7882,
      "420": 7883,
      "##inter": 7884,
      "updating": 7885,
      "conflict": 7886,
      "ber": 7887,
      "inch": 7888,
      "cla": 7889,
      "iteratively": 7890,
      "nresult": 7891,
      "kid": 7892,
      "collection": 7893,
      "explore": 7894,
      "119": 7895,
      "1b": 7896,
      "thous": 7897,
      "etween": 7898,
      "fundament": 7899,
      "109": 7900,
      "4π": 7901,
      "situ": 7902,
      "##lands": 7903,
      "envelop": 7904,
      "sinθ": 7905,
      "route": 7906,
      "girl": 7907,
      "ps": 7908,
      "dead": 7909,
      "##ift": 7910,
      "##iful": 7911,
      "months": 7912,
      "ninter": 7913,
      "transp": 7914,
      "subtrees": 7915,
      "clarify": 7916,
      "galax": 7917,
      "comparison": 7918,
      "cum": 7919,
      "blocked": 7920,
      "1989": 7921,
      "riddle": 7922,
      "f2": 7923,
      "##uces": 7924,
      "##gree": 7925,
      "cop": 7926,
      "environmental": 7927,
      "##ecess": 7928,
      "ntime": 7929,
      "156": 7930,
      "started": 7931,
      "candy": 7932,
      "δh": 7933,
      "##clock": 7934,
      "production": 7935,
      "factoring": 7936,
      "entry": 7937,
      "nrearr": 7938,
      "lear": 7939,
      "##244": 7940,
      "unnecess": 7941,
      "##zz": 7942,
      "nbring": 7943,
      "visits": 7944,
      "fundamental": 7945,
      "ban": 7946,
      "yards": 7947,
      "1111": 7948,
      "ncan": 7949,
      "liter": 7950,
      "passengers": 7951,
      "jack": 7952,
      "button": 7953,
      "sin2": 7954,
      "##0000": 7955,
      "linearly": 7956,
      "bottle": 7957,
      "replacing": 7958,
      "3i": 7959,
      "nic": 7960,
      "tall": 7961,
      "eg": 7962,
      "nice": 7963,
      "##ney": 7964,
      "nsubtracting": 7965,
      "scalar": 7966,
      "5k": 7967,
      "##38": 7968,
      "trait": 7969,
      "scatter": 7970,
      "turned": 7971,
      "mc": 7972,
      "##stra": 7973,
      "nsqu": 7974,
      "development": 7975,
      "representations": 7976,
      "monot": 7977,
      "lamps": 7978,
      "weighted": 7979,
      "schedule": 7980,
      "##eness": 7981,
      "##itely": 7982,
      "took": 7983,
      "buildings": 7984,
      "tickets": 7985,
      "##bi": 7986,
      "##jkstra": 7987,
      "tg": 7988,
      "projective": 7989,
      "yields": 7990,
      "street": 7991,
      "hh": 7992,
      "i2": 7993,
      "##reg": 7994,
      "##ulations": 7995,
      "sales": 7996,
      "falls": 7997,
      "dijkstra": 7998,
      "104": 7999,
      "plat": 8000,
      "speeds": 8001,
      "hydro": 8002,
      "stronger": 8003,
      "spaceship": 8004,
      "translation": 8005,
      "uniformly": 8006,
      "ay": 8007,
      "yen": 8008,
      "##agine": 8009,
      "extensions": 8010,
      "ndigit": 8011,
      "##gers": 8012,
      "congruence": 8013,
      "models": 8014,
      "sixth": 8015,
      "easy": 8016,
      "walks": 8017,
      "destination": 8018,
      "quotient": 8019,
      "3p": 8020,
      "usage": 8021,
      "door": 8022,
      "apex": 8023,
      "turning": 8024,
      "movements": 8025,
      "brother": 8026,
      "differenti": 8027,
      "defect": 8028,
      "identifying": 8029,
      "exch": 8030,
      "wouldn": 8031,
      "matched": 8032,
      "destroy": 8033,
      "sup": 8034,
      "orange": 8035,
      "##ilton": 8036,
      "decided": 8037,
      "gall": 8038,
      "online": 8039,
      "ord": 8040,
      "##istry": 8041,
      "upwards": 8042,
      "currently": 8043,
      "162": 8044,
      "improve": 8045,
      "noperation": 8046,
      "cryst": 8047,
      "##clockwise": 8048,
      "nve": 8049,
      "##oph": 8050,
      "manner": 8051,
      "beautiful": 8052,
      "receive": 8053,
      "devi": 8054,
      "hamilton": 8055,
      "##going": 8056,
      "##67": 8057,
      "affected": 8058,
      "transformed": 8059,
      "ncontin": 8060,
      "ice": 8061,
      "vm": 8062,
      "spots": 8063,
      "##artic": 8064,
      "132": 8065,
      "ti": 8066,
      "##ler": 8067,
      "chance": 8068,
      "##istics": 8069,
      "alto": 8070,
      "surv": 8071,
      "##problems": 8072,
      "hist": 8073,
      "catch": 8074,
      "minor": 8075,
      "targets": 8076,
      "flipped": 8077,
      "ngreat": 8078,
      "##aus": 8079,
      "altogether": 8080,
      "glo": 8081,
      "war": 8082,
      "z1": 8083,
      "experiment": 8084,
      "eta": 8085,
      "log10": 8086,
      "flight": 8087,
      "quantities": 8088,
      "0s": 8089,
      "rub": 8090,
      "##yt": 8091,
      "command": 8092,
      "consonant": 8093,
      "antibi": 8094,
      "vac": 8095,
      "mathcal": 8096,
      "salary": 8097,
      "mr": 8098,
      "##14": 8099,
      "invest": 8100,
      "143": 8101,
      "clust": 8102,
      "mutations": 8103,
      "ndifference": 8104,
      "p4": 8105,
      "trie": 8106,
      "said": 8107,
      "unnecessary": 8108,
      "##o2": 8109,
      "##79": 8110,
      "islands": 8111,
      "nnote": 8112,
      "multis": 8113,
      "technique": 8114,
      "perpendiculars": 8115,
      "display": 8116,
      "##rase": 8117,
      "##ept": 8118,
      "relat": 8119,
      "cows": 8120,
      "port": 8121,
      "slight": 8122,
      "counterclockwise": 8123,
      "ur": 8124,
      "excess": 8125,
      "flights": 8126,
      "doing": 8127,
      "lad": 8128,
      "thick": 8129,
      "intermediate": 8130,
      "takahashi": 8131,
      "password": 8132,
      "9999": 8133,
      "exploit": 8134,
      "ds": 8135,
      "##cer": 8136,
      "shifting": 8137,
      "metal": 8138,
      "concentrations": 8139,
      "xx": 8140,
      "enum": 8141,
      "favorite": 8142,
      "shapes": 8143,
      "hamiltonian": 8144,
      "burn": 8145,
      "copy": 8146,
      "mind": 8147,
      "##attan": 8148,
      "gf": 8149,
      "jour": 8150,
      "##yd": 8151,
      "##ience": 8152,
      "grad": 8153,
      "iterations": 8154,
      "sock": 8155,
      "aba": 8156,
      "##dict": 8157,
      "opening": 8158,
      "parameterize": 8159,
      "manipulate": 8160,
      "dwar": 8161,
      "locations": 8162,
      "computations": 8163,
      "##spective": 8164,
      "ey": 8165,
      "scre": 8166,
      "processed": 8167,
      "reaching": 8168,
      "mirko": 8169,
      "jan": 8170,
      "mil": 8171,
      "##iss": 8172,
      "##omic": 8173,
      "tried": 8174,
      "parametric": 8175,
      "trips": 8176,
      "bounding": 8177,
      "mechanism": 8178,
      "reconstruct": 8179,
      "fish": 8180,
      "htt": 8181,
      "invert": 8182,
      "cats": 8183,
      "modified": 8184,
      "teles": 8185,
      "duplicate": 8186,
      "employee": 8187,
      "npar": 8188,
      "shuff": 8189,
      "##unn": 8190,
      "gh": 8191,
      "oun": 8192,
      "w2": 8193,
      "##47": 8194,
      "spot": 8195,
      "termin": 8196,
      "reference": 8197,
      "ships": 8198,
      "pounds": 8199,
      "##ha": 8200,
      "satur": 8201,
      "assumed": 8202,
      "rather": 8203,
      "easily": 8204,
      "oxid": 8205,
      "inconsistent": 8206,
      "##gative": 8207,
      "enh": 8208,
      "nsqrt": 8209,
      "##connect": 8210,
      "1800": 8211,
      "clim": 8212,
      "converting": 8213,
      "shifted": 8214,
      "t3": 8215,
      "na2": 8216,
      "merging": 8217,
      "shaped": 8218,
      "##bers": 8219,
      "nden": 8220,
      "ground": 8221,
      "mus": 8222,
      "##57": 8223,
      "##length": 8224,
      "matters": 8225,
      "early": 8226,
      "monday": 8227,
      "998244": 8228,
      "aj": 8229,
      "##13": 8230,
      "##leep": 8231,
      "activity": 8232,
      "manhattan": 8233,
      "2θ": 8234,
      "cde": 8235,
      "priorit": 8236,
      "##353": 8237,
      "restaur": 8238,
      "encod": 8239,
      "nicke": 8240,
      "pu": 8241,
      "eating": 8242,
      "p0": 8243,
      "til": 8244,
      "view": 8245,
      "##paring": 8246,
      "##ino": 8247,
      "nuclear": 8248,
      "ferm": 8249,
      "acb": 8250,
      "verification": 8251,
      "bouqu": 8252,
      "c0": 8253,
      "requirement": 8254,
      "##post": 8255,
      "220": 8256,
      "##omm": 8257,
      "flat": 8258,
      "approximate": 8259,
      "filter": 8260,
      "offer": 8261,
      "figures": 8262,
      "reversing": 8263,
      "ops": 8264,
      "pan": 8265,
      "##hib": 8266,
      "details": 8267,
      "printing": 8268,
      "monsters": 8269,
      "bitmask": 8270,
      "van": 8271,
      "separation": 8272,
      "platform": 8273,
      "uns": 8274,
      "hasn": 8275,
      "folded": 8276,
      "npair": 8277,
      "wrap": 8278,
      "splits": 8279,
      "dynamics": 8280,
      "human": 8281,
      "esc": 8282,
      "analyzing": 8283,
      "category": 8284,
      "shots": 8285,
      "##enced": 8286,
      "feel": 8287,
      "affecting": 8288,
      "subtraction": 8289,
      "envelope": 8290,
      "obvious": 8291,
      "289": 8292,
      "guarantee": 8293,
      "ladder": 8294,
      "distinguish": 8295,
      "nfour": 8296,
      "##ably": 8297,
      "##forces": 8298,
      "n25": 8299,
      "existence": 8300,
      "interested": 8301,
      "semicircles": 8302,
      "##atio": 8303,
      "capture": 8304,
      "immediate": 8305,
      "998244353": 8306,
      "kill": 8307,
      "##r2": 8308,
      "neutron": 8309,
      "boo": 8310,
      "mouse": 8311,
      "##cop": 8312,
      "##fort": 8313,
      "defining": 8314,
      "insertion": 8315,
      "pole": 8316,
      "enem": 8317,
      "consideration": 8318,
      "basic": 8319,
      "##conduct": 8320,
      "superconduct": 8321,
      "x4": 8322,
      "##ef": 8323,
      "happy": 8324,
      "414": 8325,
      "measured": 8326,
      "observed": 8327,
      "hits": 8328,
      "arrive": 8329,
      "radiation": 8330,
      "difficulty": 8331,
      "tracking": 8332,
      "bor": 8333,
      "wast": 8334,
      "wik": 8335,
      "symmetries": 8336,
      "##overed": 8337,
      "alternatively": 8338,
      "symbol": 8339,
      "propag": 8340,
      "beats": 8341,
      "##omplic": 8342,
      "115": 8343,
      "njust": 8344,
      "situation": 8345,
      "checked": 8346,
      "family": 8347,
      "overcomplic": 8348,
      "fly": 8349,
      "sound": 8350,
      "##87": 8351,
      "alloc": 8352,
      "4ac": 8353,
      "ho": 8354,
      "rout": 8355,
      "attached": 8356,
      "011": 8357,
      "lucky": 8358,
      "frid": 8359,
      "animals": 8360,
      "diamond": 8361,
      "##onym": 8362,
      "accurately": 8363,
      "bitwise": 8364,
      "repet": 8365,
      "chains": 8366,
      "handshakes": 8367,
      "aim": 8368,
      "hints": 8369,
      "conversion": 8370,
      "hypo": 8371,
      "birth": 8372,
      "a6": 8373,
      "##oods": 8374,
      "avo": 8375,
      "nori": 8376,
      "exponentiation": 8377,
      "scaled": 8378,
      "partitions": 8379,
      "bridge": 8380,
      "bern": 8381,
      "sam": 8382,
      "sund": 8383,
      "perspective": 8384,
      "10a": 8385,
      "##cosity": 8386,
      "towns": 8387,
      "latin": 8388,
      "mot": 8389,
      "almost": 8390,
      "mov": 8391,
      "252": 8392,
      "removals": 8393,
      "joh": 8394,
      "photo": 8395,
      "ranks": 8396,
      "actions": 8397,
      "cach": 8398,
      "##iors": 8399,
      "parities": 8400,
      "ndist": 8401,
      "ignore": 8402,
      "ndenomin": 8403,
      "aspect": 8404,
      "quotes": 8405,
      "4000": 8406,
      "mit": 8407,
      "##ina": 8408,
      "##plan": 8409,
      "attacks": 8410,
      "d3": 8411,
      "module": 8412,
      "tooth": 8413,
      "narr": 8414,
      "##x2": 8415,
      "calls": 8416,
      "evenly": 8417,
      "fruit": 8418,
      "pad": 8419,
      "1200": 8420,
      "viscosity": 8421,
      "elimination": 8422,
      "wavelength": 8423,
      "nfreq": 8424,
      "700": 8425,
      "dd": 8426,
      "##olas": 8427,
      "squaring": 8428,
      "118": 8429,
      "conflicts": 8430,
      "island": 8431,
      "outgoing": 8432,
      "proven": 8433,
      "2xy": 8434,
      "dur": 8435,
      "isot": 8436,
      "103": 8437,
      "107": 8438,
      "additions": 8439,
      "320": 8440,
      "doub": 8441,
      "aaa": 8442,
      "overcomplicating": 8443,
      "https": 8444,
      "ok": 8445,
      "##17": 8446,
      "127": 8447,
      "incoming": 8448,
      "criter": 8449,
      "noriginal": 8450,
      "stability": 8451,
      "computer": 8452,
      "invari": 8453,
      "engine": 8454,
      "curv": 8455,
      "interaction": 8456,
      "##iers": 8457,
      "##uctive": 8458,
      "nonly": 8459,
      "##hedra": 8460,
      "dependent": 8461,
      "1995": 8462,
      "orthogonal": 8463,
      "cheap": 8464,
      "aab": 8465,
      "ads": 8466,
      "432": 8467,
      "n但是": 8468,
      "lag": 8469,
      "electric": 8470,
      "scattering": 8471,
      "multiset": 8472,
      "255": 8473,
      "feed": 8474,
      "updates": 8475,
      "courses": 8476,
      "alex": 8477,
      "expr": 8478,
      "##angement": 8479,
      "doors": 8480,
      "165": 8481,
      "nupon": 8482,
      "received": 8483,
      "deletions": 8484,
      "defaultdict": 8485,
      "ndenominator": 8486,
      "yi": 8487,
      "lever": 8488,
      "created": 8489,
      "norm": 8490,
      "bags": 8491,
      "castle": 8492,
      "dise": 8493,
      "intu": 8494,
      "images": 8495,
      "niterate": 8496,
      "cit": 8497,
      "lose": 8498,
      "##book": 8499,
      "diameters": 8500,
      "derivatives": 8501,
      "##centric": 8502,
      "117": 8503,
      "compound": 8504,
      "backwards": 8505,
      "3600": 8506,
      "vir": 8507,
      "chr": 8508,
      "brick": 8509,
      "projects": 8510,
      "indicate": 8511,
      "employees": 8512,
      "4i": 8513,
      "tc": 8514,
      "133": 8515,
      "147": 8516,
      "rooted": 8517,
      "iii": 8518,
      "glu": 8519,
      "forest": 8520,
      "photos": 8521,
      "conjugates": 8522,
      "toothp": 8523,
      "mim": 8524,
      "tetrahedrons": 8525,
      "saf": 8526,
      "spells": 8527,
      "##49": 8528,
      "##c1": 8529,
      "injective": 8530,
      "belie": 8531,
      "ideal": 8532,
      "bdc": 8533,
      "chemistry": 8534,
      "hamming": 8535,
      "keeps": 8536,
      "slots": 8537,
      "nfourth": 8538,
      "wiki": 8539,
      "ic": 8540,
      "today": 8541,
      "##ounting": 8542,
      "recalcul": 8543,
      "pin": 8544,
      "mel": 8545,
      "nav": 8546,
      "nx2": 8547,
      "5a": 8548,
      "##inos": 8549,
      "##ima": 8550,
      "##unch": 8551,
      "tail": 8552,
      "induction": 8553,
      "1a": 8554,
      "send": 8555,
      "tour": 8556,
      "examine": 8557,
      "applications": 8558,
      "harmonic": 8559,
      "journey": 8560,
      "gene": 8561,
      "adjusting": 8562,
      "dishes": 8563,
      "osc": 8564,
      "##ifications": 8565,
      "slightly": 8566,
      "4t": 8567,
      "date": 8568,
      "hc": 8569,
      "modify": 8570,
      "compat": 8571,
      "sccs": 8572,
      "##一个": 8573,
      "##apor": 8574,
      "whenever": 8575,
      "waiting": 8576,
      "picking": 8577,
      "consonants": 8578,
      "4s": 8579,
      "##kill": 8580,
      "202": 8581,
      "##igen": 8582,
      "eth": 8583,
      "##mers": 8584,
      "2520": 8585,
      "penal": 8586,
      "rewritten": 8587,
      "ninitially": 8588,
      "distributions": 8589,
      "440": 8590,
      "stripe": 8591,
      "immune": 8592,
      "communic": 8593,
      "country": 8594,
      "arrives": 8595,
      "ncos": 8596,
      "hexagons": 8597,
      "pixels": 8598,
      "curr": 8599,
      "hat": 8600,
      "positioned": 8601,
      "signal": 8602,
      "energies": 8603,
      "nvector": 8604,
      "reflected": 8605,
      "##ofproblems": 8606,
      "artofproblems": 8607,
      "cache": 8608,
      "artofproblemsolving": 8609,
      "adjustment": 8610,
      "algebraic": 8611,
      "companies": 8612,
      "tells": 8613,
      "##olves": 8614,
      "1020": 8615,
      "users": 8616,
      "curves": 8617,
      "quarks": 8618,
      "screen": 8619,
      "led": 8620,
      "sleep": 8621,
      "sum1": 8622,
      "##osure": 8623,
      "splitlines": 8624,
      "entr": 8625,
      "ounces": 8626,
      "safety": 8627,
      "stress": 8628,
      "precomputed": 8629,
      "ris": 8630,
      "meter": 8631,
      "lagr": 8632,
      "toothpicks": 8633,
      "overkill": 8634,
      "pollin": 8635,
      "##isited": 8636,
      "circumsc": 8637,
      "swapped": 8638,
      "coupon": 8639,
      "ndigits": 8640,
      "8a": 8641,
      "apb": 8642,
      "implying": 8643,
      "tie": 8644,
      "##97": 8645,
      "isogonal": 8646,
      "reset": 8647,
      "ncomparing": 8648,
      "bic": 8649,
      "bonds": 8650,
      "enters": 8651,
      "php": 8652,
      "e1": 8653,
      "tables": 8654,
      "6y": 8655,
      "lap": 8656,
      "##enerate": 8657,
      "dive": 8658,
      "variation": 8659,
      "extending": 8660,
      "traveled": 8661,
      "miscounted": 8662,
      "##ova": 8663,
      "la": 8664,
      "seeing": 8665,
      "produced": 8666,
      "3000": 8667,
      "departure": 8668,
      "telescop": 8669,
      "##he": 8670,
      "##icted": 8671,
      "feasibility": 8672,
      "primitive": 8673,
      "pizza": 8674,
      "##olds": 8675,
      "1010": 8676,
      "chessboard": 8677,
      "flex": 8678,
      "##o3": 8679,
      "rock": 8680,
      "differential": 8681,
      "orthic": 8682,
      "6n": 8683,
      "251": 8684,
      "denotes": 8685,
      "surplus": 8686,
      "arguments": 8687,
      "γ1": 8688,
      "##more": 8689,
      "nbre": 8690,
      "unch": 8691,
      "body": 8692,
      "accounts": 8693,
      "##可能不": 8694,
      "claim": 8695,
      "isol": 8696,
      "##action": 8697,
      "concave": 8698,
      "aligns": 8699,
      "characteristic": 8700,
      "coincides": 8701,
      "sentence": 8702,
      "fails": 8703,
      "intuition": 8704,
      "5b": 8705,
      "ben": 8706,
      "sav": 8707,
      "##turb": 8708,
      "##enue": 8709,
      "##ital": 8710,
      "magnitudes": 8711,
      "avoiding": 8712,
      "##root": 8713,
      "deep": 8714,
      "amb": 8715,
      "prefixes": 8716,
      "nmultiplying": 8717,
      "violating": 8718,
      "##yn": 8719,
      "thresh": 8720,
      "##icting": 8721,
      "nii": 8722,
      "world": 8723,
      "simplification": 8724,
      "updated": 8725,
      "441": 8726,
      "efgh": 8727,
      "fermat": 8728,
      "tab": 8729,
      "##card": 8730,
      "instr": 8731,
      "bask": 8732,
      "nah": 8733,
      "##atory": 8734,
      "##diers": 8735,
      "traits": 8736,
      "planets": 8737,
      "chocolate": 8738,
      "vmatrix": 8739,
      "wed": 8740,
      "perturb": 8741,
      "qual": 8742,
      "n18": 8743,
      "170": 8744,
      "discount": 8745,
      "purchase": 8746,
      "cos2": 8747,
      "nfinal": 8748,
      "##ths": 8749,
      "##ders": 8750,
      "inserting": 8751,
      "##ghter": 8752,
      "dilation": 8753,
      "sold": 8754,
      "indist": 8755,
      "##ancing": 8756,
      "paid": 8757,
      "pipe": 8758,
      "prioritize": 8759,
      "##uke": 8760,
      "intended": 8761,
      "female": 8762,
      "dict": 8763,
      "inver": 8764,
      "guest": 8765,
      "imposes": 8766,
      "tangled": 8767,
      "decrement": 8768,
      "sufficiently": 8769,
      "collisions": 8770,
      "pillar": 8771,
      "john": 8772,
      "ea": 8773,
      "dogs": 8774,
      "likes": 8775,
      "grids": 8776,
      "strongly": 8777,
      "ncombining": 8778,
      "centimeters": 8779,
      "##words": 8780,
      "sweep": 8781,
      "frogs": 8782,
      "warri": 8783,
      "bab": 8784,
      "tele": 8785,
      "px": 8786,
      "breaking": 8787,
      "instant": 8788,
      "floors": 8789,
      "presses": 8790,
      "oscill": 8791,
      "kl": 8792,
      "##ze": 8793,
      "stairs": 8794,
      "##ulf": 8795,
      "122": 8796,
      "n17": 8797,
      "skills": 8798,
      "9a": 8799,
      "fa": 8800,
      "hill": 8801,
      "cancer": 8802,
      "frag": 8803,
      "precomputing": 8804,
      "bq": 8805,
      "stam": 8806,
      "nmove": 8807,
      "149": 8808,
      "completed": 8809,
      "global": 8810,
      "past": 8811,
      "vote": 8812,
      "##awn": 8813,
      "##aken": 8814,
      "##rypt": 8815,
      "populations": 8816,
      "##ique": 8817,
      "soldiers": 8818,
      "chromatic": 8819,
      "slav": 8820,
      "dense": 8821,
      "bes": 8822,
      "##ountain": 8823,
      "infect": 8824,
      "vieta": 8825,
      "replacement": 8826,
      "describe": 8827,
      "ade": 8828,
      "rig": 8829,
      "tal": 8830,
      "##rying": 8831,
      "##66": 8832,
      "confusion": 8833,
      "backtrack": 8834,
      "modulus": 8835,
      "prep": 8836,
      "rounded": 8837,
      "6k": 8838,
      "ted": 8839,
      "distr": 8840,
      "336": 8841,
      "joining": 8842,
      "##ogene": 8843,
      "accumulate": 8844,
      "sunday": 8845,
      "resem": 8846,
      "expensive": 8847,
      "observe": 8848,
      "decomposition": 8849,
      "adsor": 8850,
      "hp": 8851,
      "##por": 8852,
      "##dd": 8853,
      "conduct": 8854,
      "nonne": 8855,
      "195": 8856,
      "##ody": 8857,
      "drive": 8858,
      "collision": 8859,
      "recalculate": 8860,
      "circumscribed": 8861,
      "surjective": 8862,
      "filling": 8863,
      "environments": 8864,
      "endpoint": 8865,
      "##era": 8866,
      "codes": 8867,
      "desk": 8868,
      "kit": 8869,
      "##许我": 8870,
      "towers": 8871,
      "alarm": 8872,
      "ctg": 8873,
      "kids": 8874,
      "med": 8875,
      "##68": 8876,
      "typo": 8877,
      "proportion": 8878,
      "designed": 8879,
      "nonnegative": 8880,
      "pk": 8881,
      "##sh": 8882,
      "##ationals": 8883,
      "nindex": 8884,
      "monotonic": 8885,
      "pul": 8886,
      "##oud": 8887,
      "##ieve": 8888,
      "characteristics": 8889,
      "observations": 8890,
      "folding": 8891,
      "##ucible": 8892,
      "classic": 8893,
      "symbols": 8894,
      "purpose": 8895,
      "ceva": 8896,
      "male": 8897,
      "ntry": 8898,
      "cevi": 8899,
      "235": 8900,
      "server": 8901,
      "suffice": 8902,
      "cevians": 8903,
      "stair": 8904,
      "storing": 8905,
      "differs": 8906,
      "computers": 8907,
      "npath": 8908,
      "stands": 8909,
      "concatenation": 8910,
      "january": 8911,
      "youn": 8912,
      "##ows": 8913,
      "induced": 8914,
      "diss": 8915,
      "offset": 8916,
      "measurements": 8917,
      "optimizations": 8918,
      "tor": 8919,
      "##uling": 8920,
      "mob": 8921,
      "1296": 8922,
      "153": 8923,
      "arrows": 8924,
      "ω2": 8925,
      "slice": 8926,
      "painting": 8927,
      "##pace": 8928,
      "internally": 8929,
      "agg": 8930,
      "nlast": 8931,
      "flaw": 8932,
      "chloride": 8933,
      "oo": 8934,
      "##ustr": 8935,
      "1002": 8936,
      "##irect": 8937,
      "##itor": 8938,
      "##icial": 8939,
      "magnet": 8940,
      "physical": 8941,
      "1st": 8942,
      "3z": 8943,
      "nover": 8944,
      "spiral": 8945,
      "298": 8946,
      "s4": 8947,
      "##ups": 8948,
      "ncomp": 8949,
      "na1": 8950,
      "resource": 8951,
      "curvature": 8952,
      "bk": 8953,
      "##ense": 8954,
      "##though": 8955,
      "sheets": 8956,
      "rearranged": 8957,
      "mixture": 8958,
      "scheduling": 8959,
      "6m": 8960,
      "fut": 8961,
      "ip": 8962,
      "##ayer": 8963,
      "equalities": 8964,
      "violate": 8965,
      "10201": 8966,
      "xn": 8967,
      "multipl": 8968,
      "175": 8969,
      "convey": 8970,
      "receives": 8971,
      "2e5": 8972,
      "believe": 8973,
      "##geon": 8974,
      "purple": 8975,
      "heapp": 8976,
      "future": 8977,
      "ml": 8978,
      "pure": 8979,
      "tunn": 8980,
      "##ony": 8981,
      "##lying": 8982,
      "##clear": 8983,
      "computational": 8984,
      "strengths": 8985,
      "##bruary": 8986,
      "lagrange": 8987,
      "napp": 8988,
      "son": 8989,
      "##unc": 8990,
      "successful": 8991,
      "g1": 8992,
      "##ho": 8993,
      "fewest": 8994,
      "penalty": 8995,
      "07": 8996,
      "aob": 8997,
      "nut": 8998,
      "10b": 8999,
      "implications": 9000,
      "ep": 9001,
      "father": 9002,
      "lan": 9003,
      "nqu": 9004,
      "##cest": 9005,
      "280": 9006,
      "h3": 9007,
      "##41": 9008,
      "##how": 9009,
      "##ropy": 9010,
      "540": 9011,
      "restrictive": 9012,
      "##agnetic": 9013,
      "##eric": 9014,
      "chrom": 9015,
      "constrained": 9016,
      "complicates": 9017,
      "skips": 9018,
      "trace": 9019,
      "somehow": 9020,
      "##osing": 9021,
      "indirect": 9022,
      "l3": 9023,
      "shop": 9024,
      "scales": 9025,
      "suffixes": 9026,
      "thickness": 9027,
      "##ba": 9028,
      "ancest": 9029,
      "nslop": 9030,
      "alone": 9031,
      "167": 9032,
      "february": 9033,
      "snack": 9034,
      "dollar": 9035,
      "bn": 9036,
      "sieve": 9037,
      "##orph": 9038,
      "reprod": 9039,
      "nput": 9040,
      "enqueue": 9041,
      "##ositions": 9042,
      "scient": 9043,
      "0000": 9044,
      "a1b1": 9045,
      "penn": 9046,
      "fg": 9047,
      "hot": 9048,
      "##tons": 9049,
      "advant": 9050,
      "154": 9051,
      "planks": 9052,
      "disconnect": 9053,
      "raise": 9054,
      "calor": 9055,
      "##minus": 9056,
      "##ogeneous": 9057,
      "5n": 9058,
      "hint": 9059,
      "然后": 9060,
      "##rical": 9061,
      "boat": 9062,
      "145": 9063,
      "499": 9064,
      "definitions": 9065,
      "strategies": 9066,
      "centroids": 9067,
      "##process": 9068,
      "cab": 9069,
      "unf": 9070,
      "230": 9071,
      "simulating": 9072,
      "capacities": 9073,
      "semiper": 9074,
      "varying": 9075,
      "bowl": 9076,
      "nbreak": 9077,
      "threshold": 9078,
      "5y": 9079,
      "##by": 9080,
      "resist": 9081,
      "misread": 9082,
      "##undy": 9083,
      "losing": 9084,
      "plate": 9085,
      "restaurant": 9086,
      "az": 9087,
      "##itivity": 9088,
      "nfloor": 9089,
      "uniqu": 9090,
      "miscalculated": 9091,
      "women": 9092,
      "vo": 9093,
      "##93": 9094,
      "subst": 9095,
      "simson": 9096,
      "eigen": 9097,
      "lands": 9098,
      "pn": 9099,
      "##43": 9100,
      "##rosion": 9101,
      "116": 9102,
      "480": 9103,
      "tues": 9104,
      "##tens": 9105,
      "stab": 9106,
      "adb": 9107,
      "ntr": 9108,
      "rounding": 9109,
      "packages": 9110,
      "bills": 9111,
      "gallons": 9112,
      "sum2": 9113,
      "abab": 9114,
      "evaluating": 9115,
      "uniqueness": 9116,
      "ids": 9117,
      "##100": 9118,
      "##rum": 9119,
      "trunc": 9120,
      "libr": 9121,
      "nco": 9122,
      "binding": 9123,
      "theoretical": 9124,
      "identif": 9125,
      "chips": 9126,
      "pawn": 9127,
      "save": 9128,
      "##ype": 9129,
      "cool": 9130,
      "alter": 9131,
      "##roun": 9132,
      "initialized": 9133,
      "##tools": 9134,
      "4d": 9135,
      "pup": 9136,
      "##oh": 9137,
      "race": 9138,
      "##isors": 9139,
      "government": 9140,
      "savings": 9141,
      "2w": 9142,
      "aw": 9143,
      "pun": 9144,
      "##使用": 9145,
      "intensity": 9146,
      "itertools": 9147,
      "##arry": 9148,
      "perfectly": 9149,
      "nconvert": 9150,
      "finitely": 9151,
      "inverses": 9152,
      "enumerate": 9153,
      "fd": 9154,
      "hidden": 9155,
      "ncl": 9156,
      "##via": 9157,
      "##zym": 9158,
      "4x4": 9159,
      "guarantees": 9160,
      "posts": 9161,
      "puzz": 9162,
      "fire": 9163,
      "cones": 9164,
      "##atically": 9165,
      "released": 9166,
      "h2o": 9167,
      "brocard": 9168,
      "hon": 9169,
      "##itted": 9170,
      "nsw": 9171,
      "sharing": 9172,
      "noh": 9173,
      "manag": 9174,
      "##ursor": 9175,
      "sensor": 9176,
      "juice": 9177,
      "q2": 9178,
      "##61": 9179,
      "##aser": 9180,
      "190": 9181,
      "discrete": 9182,
      "balloons": 9183,
      "tight": 9184,
      "##ission": 9185,
      "subcase": 9186,
      "##encing": 9187,
      "365": 9188,
      "adjustments": 9189,
      "completing": 9190,
      "essential": 9191,
      "heavier": 9192,
      "init": 9193,
      "reorder": 9194,
      "pops": 9195,
      "describes": 9196,
      "ages": 9197,
      "commands": 9198,
      "outcome": 9199,
      "computationally": 9200,
      "gift": 9201,
      "tests": 9202,
      "504": 9203,
      "everyone": 9204,
      "crossings": 9205,
      "falling": 9206,
      "bmatrix": 9207,
      "##interpre": 9208,
      "bernard": 9209,
      "rb": 9210,
      "tries": 9211,
      "shel": 9212,
      "bisects": 9213,
      "slot": 9214,
      "nprod": 9215,
      "belongs": 9216,
      "waste": 9217,
      "friday": 9218,
      "uv": 9219,
      "perp": 9220,
      "ngroup": 9221,
      "misinterpre": 9222,
      "electronic": 9223,
      "bridges": 9224,
      "customers": 9225,
      "bri": 9226,
      "hun": 9227,
      "##err": 9228,
      "lamp": 9229,
      "opens": 9230,
      "##radii": 9231,
      "leveraging": 9232,
      "cad": 9233,
      "wise": 9234,
      "semiperimeter": 9235,
      "bary": 9236,
      "##65": 9237,
      "##尝试": 9238,
      "seating": 9239,
      "spend": 9240,
      "lig": 9241,
      "winners": 9242,
      "sheep": 9243,
      "sitting": 9244,
      "introduce": 9245,
      "roughly": 9246,
      "branch": 9247,
      "hem": 9248,
      "nlow": 9249,
      "##uild": 9250,
      "##inary": 9251,
      "subn": 9252,
      "grundy": 9253,
      "emptyset": 9254,
      "collected": 9255,
      "ndividing": 9256,
      "heavy": 9257,
      "nslope": 9258,
      "2u": 9259,
      "relating": 9260,
      "confirmed": 9261,
      "parabolas": 9262,
      "neutr": 9263,
      "telescoping": 9264,
      "n24": 9265,
      "application": 9266,
      "deleting": 9267,
      "fluid": 9268,
      "irred": 9269,
      "rubles": 9270,
      "4p": 9271,
      "batter": 9272,
      "137": 9273,
      "worse": 9274,
      "189": 9275,
      "defines": 9276,
      "disru": 9277,
      "reactants": 9278,
      "flows": 9279,
      "hundred": 9280,
      "quarters": 9281,
      "protect": 9282,
      "cluster": 9283,
      "criteria": 9284,
      "invariant": 9285,
      "eb": 9286,
      "##ker": 9287,
      "##lig": 9288,
      "modeled": 9289,
      "cmb": 9290,
      "mechanics": 9291,
      "hashes": 9292,
      "suggesting": 9293,
      "mixed": 9294,
      "bouquets": 9295,
      "file": 9296,
      "γ2": 9297,
      "##gg": 9298,
      "shr": 9299,
      "planar": 9300,
      "congruences": 9301,
      "selling": 9302,
      "##ilit": 9303,
      "contact": 9304,
      "16x": 9305,
      "degenerate": 9306,
      "incomp": 9307,
      "converges": 9308,
      "observer": 9309,
      "destroyed": 9310,
      "cursor": 9311,
      "por": 9312,
      "pear": 9313,
      "##esting": 9314,
      "mism": 9315,
      "wheel": 9316,
      "spectrum": 9317,
      "exchange": 9318,
      "besides": 9319,
      "gard": 9320,
      "ned": 9321,
      "ped": 9322,
      "##sions": 9323,
      "##hol": 9324,
      "##b2": 9325,
      "tom": 9326,
      "beam": 9327,
      "finds": 9328,
      "imagine": 9329,
      "logarithmic": 9330,
      "mechanical": 9331,
      "entrance": 9332,
      "##cm": 9333,
      "##hs": 9334,
      "unp": 9335,
      "nmid": 9336,
      "enemy": 9337,
      "09": 9338,
      "blow": 9339,
      "##erator": 9340,
      "buttons": 9341,
      "although": 9342,
      "124": 9343,
      "theorems": 9344,
      "consistency": 9345,
      "picked": 9346,
      "copies": 9347,
      "deviation": 9348,
      "234": 9349,
      "1369": 9350,
      "##81": 9351,
      "##lic": 9352,
      "peak": 9353,
      "8k": 9354,
      "penc": 9355,
      "##29": 9356,
      "nte": 9357,
      "seek": 9358,
      "lcp": 9359,
      "billion": 9360,
      "2l": 9361,
      "problematic": 9362,
      "##etric": 9363,
      "tetra": 9364,
      "streets": 9365,
      "life": 9366,
      "exploited": 9367,
      "aggreg": 9368,
      "tuesday": 9369,
      "u2": 9370,
      "ch3": 9371,
      "0001": 9372,
      "passed": 9373,
      "avail": 9374,
      "balances": 9375,
      "package": 9376,
      "homogeneous": 9377,
      "##dium": 9378,
      "weeks": 9379,
      "ncost": 9380,
      "##cosyst": 9381,
      "rooks": 9382,
      "recognize": 9383,
      "stabil": 9384,
      "bon": 9385,
      "hab": 9386,
      "tram": 9387,
      "n19": 9388,
      "causes": 9389,
      "##icles": 9390,
      "stores": 9391,
      "##apers": 9392,
      "1005": 9393,
      "compression": 9394,
      "debt": 9395,
      "v3": 9396,
      "shot": 9397,
      "calculates": 9398,
      "403": 9399,
      "ratings": 9400,
      "replacements": 9401,
      "displac": 9402,
      "##zymes": 9403,
      "ecosyst": 9404,
      "prepar": 9405,
      "##exts": 9406,
      "sequent": 9407,
      "n30": 9408,
      "n50": 9409,
      "achieves": 9410,
      "util": 9411,
      "redundant": 9412,
      "carl": 9413,
      "diagonally": 9414,
      "jobs": 9415,
      "membr": 9416,
      "defects": 9417,
      "ties": 9418,
      "##uing": 9419,
      "educ": 9420,
      "decay": 9421,
      "causing": 9422,
      "dima": 9423,
      "advance": 9424,
      "travels": 9425,
      "denoting": 9426,
      "manipulation": 9427,
      "oxidation": 9428,
      "unchanged": 9429,
      "mana": 9430,
      "236": 9431,
      "299": 9432,
      "sale": 9433,
      "extremely": 9434,
      "cheapest": 9435,
      "pt": 9436,
      "##84": 9437,
      "##asure": 9438,
      "reser": 9439,
      "collinearity": 9440,
      "doubling": 9441,
      "c4": 9442,
      "ded": 9443,
      "##c2": 9444,
      "operators": 9445,
      "periodicity": 9446,
      "##child": 9447,
      "adher": 9448,
      "manually": 9449,
      "controlled": 9450,
      "bombs": 9451,
      "absorbed": 9452,
      "nproduct": 9453,
      "lane": 9454,
      "pp": 9455,
      "##code": 9456,
      "suits": 9457,
      "nmain": 9458,
      "nindeed": 9459,
      "2q": 9460,
      "ram": 9461,
      "##vent": 9462,
      "optimizing": 9463,
      "nyour": 9464,
      "323": 9465,
      "##point": 9466,
      "monke": 9467,
      "halves": 9468,
      "saturday": 9469,
      "files": 9470,
      "ye": 9471,
      "##xy": 9472,
      "sodium": 9473,
      "subtrac": 9474,
      "produces": 9475,
      "putting": 9476,
      "1999": 9477,
      "progressions": 9478,
      "trains": 9479,
      "preserve": 9480,
      "sided": 9481,
      "##ooth": 9482,
      "nexpl": 9483,
      "observation": 9484,
      "encountered": 9485,
      "nrearranging": 9486,
      "irreducible": 9487,
      "night": 9488,
      "ot": 9489,
      "solar": 9490,
      "1011": 9491,
      "methyl": 9492,
      "influenced": 9493,
      "junctions": 9494,
      "batt": 9495,
      "cam": 9496,
      "eq": 9497,
      "##sum": 9498,
      "##inement": 9499,
      "approaching": 9500,
      "indegree": 9501,
      "counterex": 9502,
      "automatically": 9503,
      "mimic": 9504,
      "bernardo": 9505,
      "z3": 9506,
      "##nes": 9507,
      "specim": 9508,
      "serv": 9509,
      "##planar": 9510,
      "pennies": 9511,
      "##rounding": 9512,
      "3e": 9513,
      "intensive": 9514,
      "1100": 9515,
      "worth": 9516,
      "denominations": 9517,
      "creates": 9518,
      "##ledge": 9519,
      "bun": 9520,
      "oq": 9521,
      "psi": 9522,
      "rationals": 9523,
      "corrosion": 9524,
      "routes": 9525,
      "n40": 9526,
      "990": 9527,
      "queen": 9528,
      "customer": 9529,
      "bird": 9530,
      "abcdef": 9531,
      "boole": 9532,
      "dri": 9533,
      "##bits": 9534,
      "##acts": 9535,
      "grand": 9536,
      "1004": 9537,
      "elev": 9538,
      "aging": 9539,
      "interpreted": 9540,
      "ninteresting": 9541,
      "##ligible": 9542,
      "aff": 9543,
      "hear": 9544,
      "4096": 9545,
      "nselect": 9546,
      "nnumerator": 9547,
      "shove": 9548,
      "mixing": 9549,
      "citiz": 9550,
      "dz": 9551,
      "dre": 9552,
      "fair": 9553,
      "gems": 9554,
      "##lings": 9555,
      "##ister": 9556,
      "resembles": 9557,
      "hline": 9558,
      "tit": 9559,
      "##mp": 9560,
      "sos": 9561,
      "syll": 9562,
      "evidence": 9563,
      "157": 9564,
      "phone": 9565,
      "limak": 9566,
      "##hibit": 9567,
      "nexplanation": 9568,
      "5c": 9569,
      "cables": 9570,
      "sou": 9571,
      "##ursday": 9572,
      "stret": 9573,
      "sosceles": 9574,
      "oil": 9575,
      "proton": 9576,
      "##ames": 9577,
      "eliminated": 9578,
      "failure": 9579,
      "dwarf": 9580,
      "motion": 9581,
      "garden": 9582,
      "availability": 9583,
      "bell": 9584,
      "##omer": 9585,
      "unused": 9586,
      "submis": 9587,
      "134": 9588,
      "closing": 9589,
      "732": 9590,
      "nnumbers": 9591,
      "regarding": 9592,
      "device": 9593,
      "gar": 9594,
      "ru": 9595,
      "tv": 9596,
      "##74": 9597,
      "plates": 9598,
      "##astic": 9599,
      "electrom": 9600,
      "alternates": 9601,
      "village": 9602,
      "barycentric": 9603,
      "har": 9604,
      "hig": 9605,
      "selections": 9606,
      "ntaking": 9607,
      "descent": 9608,
      "hitting": 9609,
      "higgs": 9610,
      "875": 9611,
      "repost": 9612,
      "circuit": 9613,
      "245": 9614,
      "decision": 9615,
      "hote": 9616,
      "k3": 9617,
      "sulf": 9618,
      "detection": 9619,
      "implemented": 9620,
      "serve": 9621,
      "deleted": 9622,
      "learning": 9623,
      "reve": 9624,
      "truck": 9625,
      "129": 9626,
      "3125": 9627,
      "candles": 9628,
      "750": 9629,
      "integrate": 9630,
      "particularly": 9631,
      "inserted": 9632,
      "bowls": 9633,
      "warriors": 9634,
      "##otics": 9635,
      "coplanar": 9636,
      "pathways": 9637,
      "insights": 9638,
      "worked": 9639,
      "mutually": 9640,
      "ndiffer": 9641,
      "delivered": 9642,
      "dance": 9643,
      "gb": 9644,
      "perimeters": 9645,
      "trisect": 9646,
      "odds": 9647,
      "##rown": 9648,
      "absorption": 9649,
      "lack": 9650,
      "nqueue": 9651,
      "##86": 9652,
      "##icle": 9653,
      "stor": 9654,
      "##ublic": 9655,
      "uncovered": 9656,
      "duration": 9657,
      "185": 9658,
      "1x1": 9659,
      "gaus": 9660,
      "nap": 9661,
[...]
