{
  "version": "1.0",
  "truncation": null,
  "padding": null,
  "added_tokens": [
    {
      "id": 0,
      "content": "<PAD>",
      "single_word": false,
      "lstrip": false,
      "rstrip": false,
      "normalized": false,
      "special": true
    },
    {
      "id": 1,
      "content": "<UNK>",
      "single_word": false,
      "lstrip": false,
      "rstrip": false,
      "normalized": false,
      "special": true
    },
    {
      "id": 2,
      "content": "<BOS>",
      "single_word": false,
      "lstrip": false,
      "rstrip": false,
      "normalized": false,
      "special": true
    },
    {
      "id": 3,
      "content": "<EOS>",
      "single_word": false,
      "lstrip": false,
      "rstrip": false,
      "normalized": false,
      "special": true
    }
  ],
  "normalizer": {
    "type": "Sequence",
    "normalizers": [
      {
        "type": "NFKC"
      }
    ]
  },
  "pre_tokenizer": {
    "type": "Sequence",
    "pretokenizers": [
      {
        "type": "Whitespace"
      },
      {
        "type": "Punctuation",
        "behavior": "Isolated"
      },
      {
        "type": "Split",
        "pattern": {
          "String": "(\\d)"
        },
        "behavior": "Isolated",
        "invert": false
      },
      {
        "type": "Split",
        "pattern": {
          "String": "(.{3,}?)\\1{1,}"
        },
        "behavior": "Isolated",
        "invert": false
      }
    ]
  },
  "post_processor": null,
  "decoder": {
    "type": "ByteLevel",
    "add_prefix_space": true,
    "trim_offsets": true,
    "use_regex": true
  },
  "model": {
    "type": "BPE",
    "dropout": null,
    "unk_token": "<UNK>",
    "continuing_subword_prefix": "##",
    "end_of_word_suffix": null,
    "fuse_unk": false,
    "byte_fallback": false,
    "ignore_merges": false,
    "vocab": {
      "<PAD>": 0,
      "<UNK>": 1,
      "<BOS>": 2,
      "<EOS>": 3,
      "!": 4,
      "\"": 5,
      "#": 6,
      "$": 7,
      "%": 8,
      "&": 9,
      "'": 10,
      "(": 11,
      ")": 12,
      "*": 13,
      "+": 14,
      ",": 15,
      "-": 16,
      ".": 17,
      "/": 18,
      "0": 19,
      "1": 20,
      "2": 21,
      "3": 22,
      "4": 23,
      "5": 24,
      "6": 25,
      "7": 26,
      "8": 27,
      "9": 28,
      ":": 29,
      ";": 30,
      "<": 31,
      "=": 32,
      ">": 33,
      "?": 34,
      "@": 35,
      "A": 36,
      "B": 37,
      "C": 38,
      "D": 39,
      "E": 40,
      "F": 41,
      "G": 42,
      "H": 43,
      "I": 44,
      "J": 45,
      "K": 46,
      "L": 47,
      "M": 48,
      "N": 49,
      "O": 50,
      "P": 51,
      "Q": 52,
      "R": 53,
      "S": 54,
      "T": 55,
      "U": 56,
      "V": 57,
      "W": 58,
      "X": 59,
      "Y": 60,
      "Z": 61,
      "[": 62,
      "\\": 63,
      "]": 64,
      "^": 65,
      "_": 66,
      "`": 67,
      "a": 68,
      "b": 69,
      "c": 70,
      "d": 71,
      "e": 72,
      "f": 73,
      "g": 74,
      "h": 75,
      "i": 76,
      "j": 77,
      "k": 78,
      "l": 79,
      "m": 80,
      "n": 81,
      "o": 82,
      "p": 83,
      "q": 84,
      "r": 85,
      "s": 86,
      "t": 87,
      "u": 88,
      "v": 89,
      "w": 90,
      "x": 91,
      "y": 92,
      "z": 93,
      "{": 94,
      "|": 95,
      "}": 96,
      "~": 97,
      "¢": 98,
      "£": 99,
      "¥": 100,
      "¦": 101,
      "¬": 102,
      "°": 103,
      "±": 104,
      "·": 105,
      "×": 106,
      "à": 107,
      "á": 108,
      "â": 109,
      "ä": 110,
      "å": 111,
      "ç": 112,
      "è": 113,
      "é": 114,
      "ê": 115,
      "î": 116,
      "ñ": 117,
      "ó": 118,
      "ô": 119,
      "ö": 120,
      "÷": 121,
      "ø": 122,
      "û": 123,
      "ü": 124,
      "ħ": 125,
      "ī": 126,
      "ĵ": 127,
      "ł": 128,
      "ń": 129,
      "ő": 130,
      "ś": 131,
      "ŵ": 132,
      "ŷ": 133,
      "ȳ": 134,
      "̂": 135,
      "̄": 136,
      "̅": 137,
      "̇": 138,
      "̈": 139,
      "α": 140,
      "β": 141,
      "γ": 142,
      "δ": 143,
      "ε": 144,
      "ζ": 145,
      "η": 146,
      "θ": 147,
      "κ": 148,
      "λ": 149,
      "μ": 150,
      "ν": 151,
      "ξ": 152,
      "π": 153,
      "ρ": 154,
      "ς": 155,
      "σ": 156,
      "τ": 157,
      "φ": 158,
      "χ": 159,
      "ψ": 160,
      "ω": 161,
      "א": 162,
      "ṙ": 163,
      "ẋ": 164,
      "ẑ": 165,
      "–": 166,
      "—": 167,
      "‖": 168,
      "‘": 169,
      "’": 170,
      "“": 171,
      "”": 172,
      "†": 173,
      "•": 174,
      "′": 175,
      "⁄": 176,
      "€": 177,
      "₹": 178,
      "←": 179,
      "↑": 180,
      "→": 181,
      "↔": 182,
      "⇌": 183,
      "⇐": 184,
      "⇒": 185,
      "⇨": 186,
      "∀": 187,
      "∂": 188,
      "∃": 189,
      "∅": 190,
      "∆": 191,
      "∇": 192,
      "∈": 193,
      "∉": 194,
      "∏": 195,
      "∑": 196,
      "−": 197,
      "∓": 198,
      "∘": 199,
      "√": 200,
      "∛": 201,
      "∝": 202,
      "∞": 203,
      "∠": 204,
      "∣": 205,
      "∤": 206,
      "∧": 207,
      "∨": 208,
      "∩": 209,
      "∪": 210,
      "∫": 211,
      "∮": 212,
      "∴": 213,
      "≅": 214,
      "≈": 215,
      "≠": 216,
      "≡": 217,
      "≤": 218,
      "≥": 219,
      "≪": 220,
      "⊂": 221,
      "⊆": 222,
      "⊈": 223,
      "⊕": 224,
      "⊗": 225,
      "⊙": 226,
      "⊤": 227,
      "⊥": 228,
      "⋃": 229,
      "⋅": 230,
      "⋊": 231,
      "⋯": 232,
      "⌊": 233,
      "⌋": 234,
      "⎡": 235,
      "⎣": 236,
      "⎤": 237,
      "⎦": 238,
      "⎽": 239,
      "─": 240,
      "│": 241,
      "└": 242,
      "├": 243,
      "□": 244,
      "△": 245,
      "○": 246,
      "◦": 247,
      "✅": 248,
      "✓": 249,
      "✔": 250,
      "✗": 251,
      "❌": 252,
      "⟨": 253,
      "⟩": 254,
      "⨂": 255,
      "。": 256,
      "一": 257,
      "个": 258,
      "众": 259,
      "值": 260,
      "共": 261,
      "出": 262,
      "分": 263,
      "和": 264,
      "均": 265,
      "多": 266,
      "大": 267,
      "如": 268,
      "少": 269,
      "平": 270,
      "总": 271,
      "成": 272,
      "据": 273,
      "数": 274,
      "是": 275,
      "最": 276,
      "有": 277,
      "果": 278,
      "次": 279,
      "求": 280,
      "现": 281,
      "的": 282,
      "组": 283,
      "绩": 284,
      "考": 285,
      "试": 286,
      "这": 287,
      "꜀": 288,
      "️": 289,
      "##l": 290,
      "##e": 291,
      "##a": 292,
      "##2": 293,
      "##4": 294,
      "##0": 295,
      "##i": 296,
      "##r": 297,
      "##t": 298,
      "##g": 299,
      "##h": 300,
      "##3": 301,
      "##n": 302,
      "##f": 303,
      "##c": 304,
      "##s": 305,
      "##d": 306,
      "##q": 307,
      "##p": 308,
      "##8": 309,
      "##9": 310,
      "##7": 311,
      "##5": 312,
      "##o": 313,
      "##1": 314,
      "##b": 315,
      "##x": 316,
      "##y": 317,
      "##z": 318,
      "##π": 319,
      "##6": 320,
      "##m": 321,
      "##v": 322,
      "##u": 323,
      "##w": 324,
      "##ω": 325,
      "##é": 326,
      "##k": 327,
      "##θ": 328,
      "##j": 329,
      "##μ": 330,
      "##ψ": 331,
      "##ρ": 332,
      "##√": 333,
      "##λ": 334,
      "##δ": 335,
      "##R": 336,
      "##ε": 337,
      "##τ": 338,
      "##α": 339,
      "##σ": 340,
      "##φ": 341,
      "##̇": 342,
      "##ö": 343,
      "##ṙ": 344,
      "##ī": 345,
      "##β": 346,
      "##±": 347,
      "##∞": 348,
      "##̅": 349,
      "##ń": 350,
      "##∇": 351,
      "##×": 352,
      "##Z": 353,
      "##γ": 354,
      "##á": 355,
      "##̄": 356,
      "##ν": 357,
      "##ø": 358,
      "##̂": 359,
      "##ħ": 360,
      "##κ": 361,
      "##组": 362,
      "##考": 363,
      "##试": 364,
      "##成": 365,
      "##绩": 366,
      "##共": 367,
      "##有": 368,
      "##个": 369,
      "##数": 370,
      "##¬": 371,
      "##ő": 372,
      "##è": 373,
      "##à": 374,
      "##ξ": 375,
      "##ς": 376,
      "##≈": 377,
      "##均": 378,
      "##分": 379,
      "##T": 380,
      "##̈": 381,
      "##ç": 382,
      "##χ": 383,
      "##现": 384,
      "##次": 385,
      "##最": 386,
      "##多": 387,
      "##的": 388,
      "##是": 389,
      "##ζ": 390,
      "##¦": 391,
      "##ü": 392,
      "##果": 393,
      "##这": 394,
      "##据": 395,
      "##众": 396,
      "##∫": 397,
      "##ś": 398,
      "##ä": 399,
      "##─": 400,
      "##B": 401,
      "##ẋ": 402,
      "##η": 403,
      "##ó": 404,
      "##î": 405,
      "##ê": 406,
      "##ô": 407,
      "##ȳ": 408,
      "##C": 409,
      "##L": 410,
      "##꜀": 411,
      "##ñ": 412,
      "##−": 413,
      "##总": 414,
      "##和": 415,
      "##大": 416,
      "##值": 417,
      "##少": 418,
      "th": 419,
      "the": 420,
      "##er": 421,
      "##in": 422,
      "##at": 423,
      "is": 424,
      "##on": 425,
      "##es": 426,
      "##al": 427,
      "##re": 428,
      "##it": 429,
      "##en": 430,
      "##an": 431,
      "so": 432,
      "an": 433,
      "of": 434,
      "to": 435,
      "##ut": 436,
      "in": 437,
      "##or": 438,
      "##le": 439,
      "##ro": 440,
      "##ing": 441,
      "##ion": 442,
      "##et": 443,
      "##ac": 444,
      "that": 445,
      "##ed": 446,
      "##ic": 447,
      "##st": 448,
      "##um": 449,
      "and": 450,
      "##ec": 451,
      "##ul": 452,
      "##ar": 453,
      "##iv": 454,
      "##ay": 455,
      "wh": 456,
      "##th": 457,
      "##se": 458,
      "##im": 459,
      "##ly": 460,
      "##ig": 461,
      "it": 462,
      "##ent": 463,
      "##id": 464,
      "for": 465,
      "pro": 466,
      "##qu": 467,
      "me": 468,
      "co": 469,
      "##ble": 470,
      "##is": 471,
      "be": 472,
      "but": 473,
      "##ation": 474,
      "are": 475,
      "##ce": 476,
      "##ber": 477,
      "##ot": 478,
      "num": 479,
      "##00": 480,
      "##ait": 481,
      "##ir": 482,
      "con": 483,
      "##be": 484,
      "can": 485,
      "ns": 486,
      "##ct": 487,
      "##ow": 488,
      "number": 489,
      "##ich": 490,
      "let": 491,
      "which": 492,
      "on": 493,
      "nw": 494,
      "re": 495,
      "may": 496,
      "po": 497,
      "maybe": 498,
      "st": 499,
      "as": 500,
      "##ive": 501,
      "##rac": 502,
      "ha": 503,
      "if": 504,
      "##igh": 505,
      "di": 506,
      "##rom": 507,
      "##ve": 508,
      "##ith": 509,
      "ne": 510,
      "##il": 511,
      "by": 512,
      "nwait": 513,
      "##mp": 514,
      "from": 515,
      "##ach": 516,
      "##ter": 517,
      "##ou": 518,
      "ex": 519,
      "##ight": 520,
      "nso": 521,
      "equ": 522,
      "or": 523,
      "##ink": 524,
      "##blem": 525,
      "problem": 526,
      "think": 527,
      "al": 528,
      "10": 529,
      "with": 530,
      "su": 531,
      "##ere": 532,
      "##uld": 533,
      "frac": 534,
      "tr": 535,
      "per": 536,
      "we": 537,
      "##ang": 538,
      "ma": 539,
      "##ate": 540,
      "##ould": 541,
      "##pp": 542,
      "##ect": 543,
      "##ore": 544,
      "bo": 545,
      "##ue": 546,
      "##ver": 547,
      "val": 548,
      "then": 549,
      "this": 550,
      "##ad": 551,
      "each": 552,
      "##but": 553,
      "at": 554,
      "tim": 555,
      "fin": 556,
      "##erm": 557,
      "sin": 558,
      "##ke": 559,
      "ab": 560,
      "se": 561,
      "##ess": 562,
      "##if": 563,
      "have": 564,
      "##me": 565,
      "##ative": 566,
      "not": 567,
      "##as": 568,
      "##ity": 569,
      "12": 570,
      "##ain": 571,
      "int": 572,
      "##ol": 573,
      "ch": 574,
      "##om": 575,
      "nbut": 576,
      "##rt": 577,
      "sid": 578,
      "##eg": 579,
      "need": 580,
      "##qrt": 581,
      "value": 582,
      "##ust": 583,
      "##us": 584,
      "sqrt": 585,
      "app": 586,
      "##out": 587,
      "##ip": 588,
      "##est": 589,
      "##ase": 590,
      "##ex": 591,
      "tw": 592,
      "nth": 593,
      "##irst": 594,
      "##mm": 595,
      "##ap": 596,
      "##ff": 597,
      "##tal": 598,
      "would": 599,
      "pos": 600,
      "two": 601,
      "sp": 602,
      "comp": 603,
      "##un": 604,
      "term": 605,
      "exp": 606,
      "equation": 607,
      "bec": 608,
      "un": 609,
      "##use": 610,
      "##ult": 611,
      "form": 612,
      "times": 613,
      "giv": 614,
      "find": 615,
      "total": 616,
      "sum": 617,
      "sh": 618,
      "##int": 619,
      "appro": 620,
      "##ch": 621,
      "##ep": 622,
      "##ine": 623,
      "##ther": 624,
      "##ag": 625,
      "##ext": 626,
      "since": 627,
      "##stan": 628,
      "all": 629,
      "##rect": 630,
      "there": 631,
      "##angle": 632,
      "##ays": 633,
      "##all": 634,
      "##em": 635,
      "##act": 636,
      "##ab": 637,
      "ang": 638,
      "##tern": 639,
      "##ause": 640,
      "div": 641,
      "squ": 642,
      "one": 643,
      "no": 644,
      "because": 645,
      "do": 646,
      "le": 647,
      "point": 648,
      "##ute": 649,
      "##ers": 650,
      "##are": 651,
      "sa": 652,
      "about": 653,
      "tri": 654,
      "##art": 655,
      "he": 656,
      "##xim": 657,
      "both": 658,
      "##fore": 659,
      "area": 660,
      "20": 661,
      "##cul": 662,
      "right": 663,
      "qu": 664,
      "##lo": 665,
      "##ur": 666,
      "##ternative": 667,
      "##ternatively": 668,
      "nf": 669,
      "15": 670,
      "diff": 671,
      "cor": 672,
      "differ": 673,
      "##eth": 674,
      "100": 675,
      "sol": 676,
      "text": 677,
      "##les": 678,
      "pl": 679,
      "nal": 680,
      "equal": 681,
      "##si": 682,
      "##alcul": 683,
      "25": 684,
      "##ial": 685,
      "##now": 686,
      "##eng": 687,
      "##aps": 688,
      "##wer": 689,
      "formul": 690,
      "square": 691,
      "##ultip": 692,
      "##ength": 693,
      "##ions": 694,
      "##ations": 695,
      "ans": 696,
      "##ite": 697,
      "has": 698,
      "##od": 699,
      "wait": 700,
      "##ard": 701,
      "##haps": 702,
      "perhaps": 703,
      "formula": 704,
      "answer": 705,
      "nalternatively": 706,
      "length": 707,
      "ad": 708,
      "where": 709,
      "given": 710,
      "16": 711,
      "triangle": 712,
      "integ": 713,
      "sub": 714,
      "first": 715,
      "sides": 716,
      "than": 717,
      "##ond": 718,
      "us": 719,
      "does": 720,
      "box": 721,
      "calcul": 722,
      "multip": 723,
      "same": 724,
      "hmm": 725,
      "##pt": 726,
      "##ies": 727,
      "step": 728,
      "cir": 729,
      "##der": 730,
      "correct": 731,
      "angle": 732,
      "##ents": 733,
      "pr": 734,
      "##bab": 735,
      "terms": 736,
      "probab": 737,
      "##its": 738,
      "out": 739,
      "posit": 740,
      "numbers": 741,
      "##let": 742,
      "inc": 743,
      "##ction": 744,
      "ag": 745,
      "just": 746,
      "18": 747,
      "mean": 748,
      "##ri": 749,
      "##ify": 750,
      "different": 751,
      "when": 752,
      "##pl": 753,
      "en": 754,
      "circ": 755,
      "11": 756,
      "fun": 757,
      "make": 758,
      "##and": 759,
      "##our": 760,
      "divid": 761,
      "##ally": 762,
      "side": 763,
      "##ility": 764,
      "##ra": 765,
      "##de": 766,
      "##eck": 767,
      "case": 768,
      "into": 769,
      "bet": 770,
      "##iz": 771,
      "n1": 772,
      "should": 773,
      "##ree": 774,
      "ac": 775,
      "again": 776,
      "##os": 777,
      "compute": 778,
      "##sid": 779,
      "##ill": 780,
      "##sible": 781,
      "##ert": 782,
      "how": 783,
      "sim": 784,
      "##king": 785,
      "check": 786,
      "##ure": 787,
      "##ems": 788,
      "##stance": 789,
      "##ress": 790,
      "they": 791,
      "probability": 792,
      "##ding": 793,
      "inter": 794,
      "li": 795,
      "any": 796,
      "nlet": 797,
      "000": 798,
      "min": 799,
      "30": 800,
      "24": 801,
      "##ant": 802,
      "function": 803,
      "says": 804,
      "##ence": 805,
      "more": 806,
      "##other": 807,
      "approxim": 808,
      "##econd": 809,
      "distance": 810,
      "##adi": 811,
      "height": 812,
      "doesn": 813,
      "must": 814,
      "##oun": 815,
      "n2": 816,
      "seems": 817,
      "mat": 818,
      "up": 819,
      "nfirst": 820,
      "##age": 821,
      "dig": 822,
      "14": 823,
      "wr": 824,
      "set": 825,
      "res": 826,
      "13": 827,
      "express": 828,
      "use": 829,
      "boxed": 830,
      "spec": 831,
      "ro": 832,
      "##ator": 833,
      "##we": 834,
      "conver": 835,
      "##ug": 836,
      "##ume": 837,
      "possible": 838,
      "##ween": 839,
      "radi": 840,
      "fact": 841,
      "cm": 842,
      "second": 843,
      "de": 844,
      "##du": 845,
      "between": 846,
      "##ately": 847,
      "2x": 848,
      "other": 849,
      "zer": 850,
      "deg": 851,
      "positive": 852,
      "another": 853,
      "##ist": 854,
      "ta": 855,
      "time": 856,
      "go": 857,
      "get": 858,
      "these": 859,
      "part": 860,
      "##ft": 861,
      "##li": 862,
      "only": 863,
      "line": 864,
      "approach": 865,
      "##igin": 866,
      "60": 867,
      "zero": 868,
      "what": 869,
      "origin": 870,
      "##ment": 871,
      "36": 872,
      "##ated": 873,
      "##ose": 874,
      "50": 875,
      "nthe": 876,
      "##sider": 877,
      "three": 878,
      "quest": 879,
      "consider": 880,
      "##so": 881,
      "know": 882,
      "like": 883,
      "produ": 884,
      "som": 885,
      "base": 886,
      "approximately": 887,
      "circle": 888,
      "factor": 889,
      "vol": 890,
      "##el": 891,
      "radius": 892,
      "##ting": 893,
      "nthere": 894,
      "here": 895,
      "##ater": 896,
      "question": 897,
      "##ace": 898,
      "cos": 899,
      "ntherefore": 900,
      "det": 901,
      "##end": 902,
      "##ong": 903,
      "root": 904,
      "solut": 905,
      "cont": 906,
      "ar": 907,
      "##ast": 908,
      "##arg": 909,
      "using": 910,
      "nt": 911,
      "also": 912,
      "den": 913,
      "rec": 914,
      "lo": 915,
      "sm": 916,
      "##fin": 917,
      "##am": 918,
      "sure": 919,
      "conf": 920,
      "final": 921,
      "nc": 922,
      "ev": 923,
      "##kay": 924,
      "way": 925,
      "exact": 926,
      "cent": 927,
      "##rees": 928,
      "left": 929,
      "determ": 930,
      "40": 931,
      "cu": 932,
      "try": 933,
      "volume": 934,
      "original": 935,
      "see": 936,
      "convers": 937,
      "small": 938,
      "ye": 939,
      "such": 940,
      "points": 941,
      "maxim": 942,
      "hum": 943,
      "human": 944,
      "pi": 945,
      "mo": 946,
      "##own": 947,
      "conversations": 948,
      "gpt": 949,
      "##ss": 950,
      "degrees": 951,
      "vert": 952,
      "##orm": 953,
      "units": 954,
      "##yp": 955,
      "ni": 956,
      "##ating": 957,
      "##ari": 958,
      "##ical": 959,
      "##ific": 960,
      "don": 961,
      "write": 962,
      "neg": 963,
      "17": 964,
      "them": 965,
      "down": 966,
      "nnow": 967,
      "you": 968,
      "some": 969,
      "gives": 970,
      "incre": 971,
      "##mple": 972,
      "##ually": 973,
      "divided": 974,
      "over": 975,
      "mod": 976,
      "19": 977,
      "add": 978,
      "rat": 979,
      "##ething": 980,
      "without": 981,
      "expect": 982,
      "something": 983,
      "ass": 984,
      "##25": 985,
      "##trac": 986,
      "n3": 987,
      "##eters": 988,
      "##ues": 989,
      "##ular": 990,
      "rem": 991,
      "quad": 992,
      "negative": 993,
      "act": 994,
      "its": 995,
      "##ether": 996,
      "##here": 997,
      "gro": 998,
      "man": 999,
      "21": 1000,
      "integer": 1001,
      "##ving": 1002,
      "wor": 1003,
      "##tion": 1004,
      "##ud": 1005,
      "therefore": 1006,
      "simpl": 1007,
      "##ize": 1008,
      "col": 1009,
      "calculate": 1010,
      "hour": 1011,
      "maximum": 1012,
      "divis": 1013,
      "##ack": 1014,
      "dec": 1015,
      "##able": 1016,
      "fe": 1017,
      "x2": 1018,
      "##stit": 1019,
      "##low": 1020,
      "##io": 1021,
      "##loc": 1022,
      "##ilar": 1023,
      "##ange": 1024,
      "rel": 1025,
      "##ice": 1026,
      "rect": 1027,
      "result": 1028,
      "##ric": 1029,
      "##kes": 1030,
      "larg": 1031,
      "##eter": 1032,
      "might": 1033,
      "product": 1034,
      "##ition": 1035,
      "dist": 1036,
      "less": 1037,
      "real": 1038,
      "##mb": 1039,
      "will": 1040,
      "start": 1041,
      "nokay": 1042,
      "digit": 1043,
      "##ound": 1044,
      "##ches": 1045,
      "values": 1046,
      "##ign": 1047,
      "ele": 1048,
      "##omes": 1049,
      "##ates": 1050,
      "multiply": 1051,
      "aver": 1052,
      "sen": 1053,
      "nto": 1054,
      "200": 1055,
      "nn": 1056,
      "wid": 1057,
      "27": 1058,
      "quadr": 1059,
      "mis": 1060,
      "ratio": 1061,
      "asking": 1062,
      "##ire": 1063,
      "average": 1064,
      "remain": 1065,
      "##ases": 1066,
      "their": 1067,
      "##lic": 1068,
      "determine": 1069,
      "mist": 1070,
      "pa": 1071,
      "ve": 1072,
      "mista": 1073,
      "##stant": 1074,
      "##ks": 1075,
      "##old": 1076,
      "sense": 1077,
      "four": 1078,
      "##ta": 1079,
      "ball": 1080,
      "my": 1081,
      "cho": 1082,
      "##mber": 1083,
      "gre": 1084,
      "nh": 1085,
      "3x": 1086,
      "##omin": 1087,
      "comb": 1088,
      "32": 1089,
      "ax": 1090,
      "minim": 1091,
      "even": 1092,
      "many": 1093,
      "angles": 1094,
      "##up": 1095,
      "##ors": 1096,
      "##atic": 1097,
      "##ord": 1098,
      "##itial": 1099,
      "width": 1100,
      "##gh": 1101,
      "direct": 1102,
      "stand": 1103,
      "cd": 1104,
      "reg": 1105,
      "substit": 1106,
      "initial": 1107,
      "constant": 1108,
      "##agon": 1109,
      "00": 1110,
      "actually": 1111,
      "meters": 1112,
      "year": 1113,
      "##tract": 1114,
      "specific": 1115,
      "ear": 1116,
      "90": 1117,
      "exa": 1118,
      "imp": 1119,
      "##less": 1120,
      "nsim": 1121,
      "dis": 1122,
      "sc": 1123,
      "48": 1124,
      "##ring": 1125,
      "spe": 1126,
      "##ough": 1127,
      "45": 1128,
      "fig": 1129,
      "##ens": 1130,
      "##und": 1131,
      "standard": 1132,
      "numer": 1133,
      "solve": 1134,
      "##member": 1135,
      "integers": 1136,
      "cy": 1137,
      "remember": 1138,
      "non": 1139,
      "##ominator": 1140,
      "pair": 1141,
      "solution": 1142,
      "##fter": 1143,
      "prim": 1144,
      "rectangle": 1145,
      "sy": 1146,
      "speed": 1147,
      "example": 1148,
      "red": 1149,
      "least": 1150,
      "plug": 1151,
      "##ans": 1152,
      "28": 1153,
      "75": 1154,
      "##ward": 1155,
      "64": 1156,
      "theta": 1157,
      "##op": 1158,
      "##ible": 1159,
      "ways": 1160,
      "n4": 1161,
      "##ffic": 1162,
      "combin": 1163,
      "vari": 1164,
      "180": 1165,
      "##ix": 1166,
      "##ffici": 1167,
      "center": 1168,
      "digits": 1169,
      "poly": 1170,
      "22": 1171,
      "##ject": 1172,
      "120": 1173,
      "rate": 1174,
      "##res": 1175,
      "state": 1176,
      "hold": 1177,
      "stud": 1178,
      "denominator": 1179,
      "back": 1180,
      "par": 1181,
      "33": 1182,
      "means": 1183,
      "##ilarly": 1184,
      "exactly": 1185,
      "tog": 1186,
      "did": 1187,
      "mistake": 1188,
      "##ll": 1189,
      "feet": 1190,
      "##75": 1191,
      "after": 1192,
      "gr": 1193,
      "##rix": 1194,
      "##ments": 1195,
      "##ribut": 1196,
      "pre": 1197,
      "der": 1198,
      "##form": 1199,
      "comm": 1200,
      "bc": 1201,
      "hyp": 1202,
      "##ird": 1203,
      "together": 1204,
      "dou": 1205,
      "new": 1206,
      "take": 1207,
      "veloc": 1208,
      "cube": 1209,
      "nhmm": 1210,
      "cl": 1211,
      "##ous": 1212,
      "hours": 1213,
      "now": 1214,
      "order": 1215,
      "na": 1216,
      "say": 1217,
      "##ary": 1218,
      "velocity": 1219,
      "##val": 1220,
      "prop": 1221,
      "##pe": 1222,
      "deriv": 1223,
      "99": 1224,
      "ob": 1225,
      "cost": 1226,
      "quadratic": 1227,
      "##lier": 1228,
      "23": 1229,
      "##ual": 1230,
      "##ces": 1231,
      "##erg": 1232,
      "sequ": 1233,
      "ll": 1234,
      "roots": 1235,
      "od": 1236,
      "mass": 1237,
      "##ave": 1238,
      "35": 1239,
      "ln": 1240,
      "cdot": 1241,
      "##ude": 1242,
      "expression": 1243,
      "##vi": 1244,
      "##ount": 1245,
      "##cent": 1246,
      "1000": 1247,
      "multiple": 1248,
      "specify": 1249,
      "odd": 1250,
      "##ither": 1251,
      "sur": 1252,
      "earlier": 1253,
      "subtract": 1254,
      "high": 1255,
      "group": 1256,
      "inches": 1257,
      "math": 1258,
      "##ral": 1259,
      "becomes": 1260,
      "double": 1261,
      "cond": 1262,
      "made": 1263,
      "##20": 1264,
      "meth": 1265,
      "day": 1266,
      "##lin": 1267,
      "##ector": 1268,
      "thro": 1269,
      "##ging": 1270,
      "##effici": 1271,
      "80": 1272,
      "method": 1273,
      "ind": 1274,
      "infin": 1275,
      "##cept": 1276,
      "ed": 1277,
      "##omial": 1278,
      "##ass": 1279,
      "coeffici": 1280,
      "long": 1281,
      "##ppos": 1282,
      "was": 1283,
      "still": 1284,
      "squar": 1285,
      "makes": 1286,
      "##fer": 1287,
      "figure": 1288,
      "cylin": 1289,
      "nx": 1290,
      "##cel": 1291,
      "##ugh": 1292,
      "row": 1293,
      "26": 1294,
      "bit": 1295,
      "incl": 1296,
      "te": 1297,
      "##ices": 1298,
      "edg": 1299,
      "dep": 1300,
      "##agonal": 1301,
      "##ordin": 1302,
      "equations": 1303,
      "difference": 1304,
      "##omp": 1305,
      "bl": 1306,
      "ge": 1307,
      "distribut": 1308,
      "##ub": 1309,
      "numerator": 1310,
      "coordin": 1311,
      "el": 1312,
      "before": 1313,
      "ent": 1314,
      "defin": 1315,
      "sphere": 1316,
      "stra": 1317,
      "derivative": 1318,
      "plan": 1319,
      "##ick": 1320,
      "common": 1321,
      "nd": 1322,
      "##sist": 1323,
      "diagonal": 1324,
      "either": 1325,
      "##uting": 1326,
      "end": 1327,
      "yes": 1328,
      "greater": 1329,
      "straight": 1330,
      "31": 1331,
      "adding": 1332,
      "am": 1333,
      "4x": 1334,
      "29": 1335,
      "car": 1336,
      "prime": 1337,
      "through": 1338,
      "solutions": 1339,
      "pe": 1340,
      "expecting": 1341,
      "sequence": 1342,
      "##cl": 1343,
      "sat": 1344,
      "##read": 1345,
      "##oten": 1346,
      "divide": 1347,
      "cur": 1348,
      "hypoten": 1349,
      "##side": 1350,
      "steps": 1351,
      "nthen": 1352,
      "49": 1353,
      "axis": 1354,
      "##lied": 1355,
      "##ower": 1356,
      "2a": 1357,
      "hypotenuse": 1358,
      "divisible": 1359,
      "acc": 1360,
      "##ener": 1361,
      "third": 1362,
      "ver": 1363,
      "log": 1364,
      "mar": 1365,
      "balls": 1366,
      "ng": 1367,
      "##ves": 1368,
      "##ren": 1369,
      "##ts": 1370,
      "cylinder": 1371,
      "##ollow": 1372,
      "##isf": 1373,
      "choose": 1374,
      "pat": 1375,
      "squared": 1376,
      "satisf": 1377,
      "thi": 1378,
      "squares": 1379,
      "arr": 1380,
      "coun": 1381,
      "500": 1382,
      "goes": 1383,
      "##iles": 1384,
      "01": 1385,
      "force": 1386,
      "follow": 1387,
      "simplif": 1388,
      "##imal": 1389,
      "under": 1390,
      "students": 1391,
      "test": 1392,
      "##ased": 1393,
      "##etric": 1394,
      "##40": 1395,
      "##very": 1396,
      "energ": 1397,
      "didn": 1398,
      "##ph": 1399,
      "##gn": 1400,
      "pm": 1401,
      "##led": 1402,
      "ny": 1403,
      "being": 1404,
      "unless": 1405,
      "energy": 1406,
      "could": 1407,
      "nex": 1408,
      "emp": 1409,
      "though": 1410,
      "ser": 1411,
      "##sect": 1412,
      "##formation": 1413,
      "every": 1414,
      "sign": 1415,
      "##66": 1416,
      "pop": 1417,
      "want": 1418,
      "##ople": 1419,
      "##ise": 1420,
      "##aph": 1421,
      "statement": 1422,
      "people": 1423,
      "a2": 1424,
      "intersect": 1425,
      "gener": 1426,
      "isn": 1427,
      "id": 1428,
      "smaller": 1429,
      "##ulation": 1430,
      "consist": 1431,
      "np": 1432,
      "nnext": 1433,
      "recall": 1434,
      "typ": 1435,
      "tan": 1436,
      "leg": 1437,
      "##ities": 1438,
      "##str": 1439,
      "##plify": 1440,
      "cub": 1441,
      "disc": 1442,
      "##ross": 1443,
      "vertex": 1444,
      "nwh": 1445,
      "true": 1446,
      "##ance": 1447,
      "##imeter": 1448,
      "percent": 1449,
      "hal": 1450,
      "nsimplify": 1451,
      "##onent": 1452,
      "nsub": 1453,
      "rep": 1454,
      "##ah": 1455,
      "##eration": 1456,
      "position": 1457,
      "tang": 1458,
      "n5": 1459,
      "minimum": 1460,
      "surf": 1461,
      "nm": 1462,
      "##ram": 1463,
      "oppos": 1464,
      "##que": 1465,
      "fraction": 1466,
      "##etic": 1467,
      "plugging": 1468,
      "population": 1469,
      "assum": 1470,
      "pairs": 1471,
      "who": 1472,
      "ident": 1473,
      "miles": 1474,
      "##ove": 1475,
      "##raw": 1476,
      "triang": 1477,
      "slo": 1478,
      "give": 1479,
      "work": 1480,
      "72": 1481,
      "##icular": 1482,
      "draw": 1483,
      "70": 1484,
      "interval": 1485,
      "change": 1486,
      "nthus": 1487,
      "syst": 1488,
      "##lect": 1489,
      "##16": 1490,
      "top": 1491,
      "opposite": 1492,
      "hel": 1493,
      "half": 1494,
      "34": 1495,
      "96": 1496,
      "graph": 1497,
      "perimeter": 1498,
      "moving": 1499,
      "##ten": 1500,
      "entire": 1501,
      "mu": 1502,
      "remaining": 1503,
      "##ameter": 1504,
      "water": 1505,
      "op": 1506,
      "##80": 1507,
      "surface": 1508,
      "larger": 1509,
      "confus": 1510,
      "those": 1511,
      "information": 1512,
      "##son": 1513,
      "integral": 1514,
      "too": 1515,
      "matrix": 1516,
      "mid": 1517,
      "requ": 1518,
      "decimal": 1519,
      "##aces": 1520,
      "help": 1521,
      "b2": 1522,
      "##ls": 1523,
      "300": 1524,
      "##asing": 1525,
      "linear": 1526,
      "##ote": 1527,
      "##ied": 1528,
      "ph": 1529,
      "years": 1530,
      "system": 1531,
      "dt": 1532,
      "##ior": 1533,
      "r2": 1534,
      "##ines": 1535,
      "##nomial": 1536,
      "polynomial": 1537,
      "trans": 1538,
      "tangent": 1539,
      "42": 1540,
      "considering": 1541,
      "accel": 1542,
      "decre": 1543,
      "##inct": 1544,
      "##orem": 1545,
      "meas": 1546,
      "series": 1547,
      "400": 1548,
      "consistent": 1549,
      "direction": 1550,
      "calculated": 1551,
      "##po": 1552,
      "blue": 1553,
      "nb": 1554,
      "thought": 1555,
      "##ak": 1556,
      "##ail": 1557,
      "81": 1558,
      "inside": 1559,
      "slope": 1560,
      "clo": 1561,
      "multiplied": 1562,
      "equals": 1563,
      "bin": 1564,
      "differently": 1565,
      "outc": 1566,
      "plus": 1567,
      "elements": 1568,
      "inv": 1569,
      "##ry": 1570,
      "unit": 1571,
      "factors": 1572,
      "yeah": 1573,
      "##urn": 1574,
      "condition": 1575,
      "vector": 1576,
      "52": 1577,
      "above": 1578,
      "##76": 1579,
      "confid": 1580,
      "diameter": 1581,
      "adj": 1582,
      "ncomp": 1583,
      "##ecess": 1584,
      "##nect": 1585,
      "whether": 1586,
      "##rr": 1587,
      "well": 1588,
      "increase": 1589,
      "trip": 1590,
      "lim": 1591,
      "miss": 1592,
      "##ide": 1593,
      "sing": 1594,
      "##oriz": 1595,
      "plane": 1596,
      "##sc": 1597,
      "lead": 1598,
      "starting": 1599,
      "55": 1600,
      "constr": 1601,
      "##iven": 1602,
      "##fect": 1603,
      "distinct": 1604,
      "necess": 1605,
      "##ality": 1606,
      "simplify": 1607,
      "05": 1608,
      "##itude": 1609,
      "##ational": 1610,
      "connect": 1611,
      "vertices": 1612,
      "theorem": 1613,
      "##orizon": 1614,
      "approaches": 1615,
      "multiplying": 1616,
      "56": 1617,
      "horizon": 1618,
      "inde": 1619,
      "used": 1620,
      "next": 1621,
      "##ique": 1622,
      "##ithm": 1623,
      "la": 1624,
      "nif": 1625,
      "##equ": 1626,
      "##12": 1627,
      "along": 1628,
      "ke": 1629,
      "##cc": 1630,
      "##for": 1631,
      "alternatively": 1632,
      "nsin": 1633,
      "##ons": 1634,
      "nwe": 1635,
      "horizontal": 1636,
      "simplifies": 1637,
      "similarly": 1638,
      "dim": 1639,
      "ngiven": 1640,
      "unique": 1641,
      "##usion": 1642,
      "ncompute": 1643,
      "assume": 1644,
      "inequ": 1645,
      "indeed": 1646,
      "acceleration": 1647,
      "percentage": 1648,
      "substituting": 1649,
      "fi": 1650,
      "fix": 1651,
      "distribution": 1652,
      "perp": 1653,
      "subs": 1654,
      "abc": 1655,
      "##ertain": 1656,
      "repres": 1657,
      "##edi": 1658,
      "amount": 1659,
      "39": 1660,
      "##pect": 1661,
      "sl": 1662,
      "price": 1663,
      "knowing": 1664,
      "dx": 1665,
      "##33": 1666,
      "smallest": 1667,
      "##forward": 1668,
      "triangles": 1669,
      "else": 1670,
      "straightforward": 1671,
      "nsimilarly": 1672,
      "increases": 1673,
      "##umn": 1674,
      "##utes": 1675,
      "verify": 1676,
      "##inant": 1677,
      "y2": 1678,
      "##endicular": 1679,
      "certain": 1680,
      "perpendicular": 1681,
      "37": 1682,
      "outcomes": 1683,
      "supp": 1684,
      "kg": 1685,
      "cross": 1686,
      "sample": 1687,
      "##ets": 1688,
      "object": 1689,
      "nsince": 1690,
      "column": 1691,
      "dimens": 1692,
      "minutes": 1693,
      "##ortion": 1694,
      "calculation": 1695,
      "##point": 1696,
      "loo": 1697,
      "higher": 1698,
      "contain": 1699,
      "coordinates": 1700,
      "##ved": 1701,
      "2n": 1702,
      "65": 1703,
      "##ism": 1704,
      "##pond": 1705,
      "nwhich": 1706,
      "##ables": 1707,
      "single": 1708,
      "##lex": 1709,
      "n0": 1710,
      "38": 1711,
      "150": 1712,
      "infinity": 1713,
      "##10": 1714,
      "mathb": 1715,
      "##ways": 1716,
      "##loor": 1717,
      "##enc": 1718,
      "denote": 1719,
      "##ateral": 1720,
      "seconds": 1721,
      "##eld": 1722,
      "round": 1723,
      "nfor": 1724,
      "always": 1725,
      "large": 1726,
      "##32": 1727,
      "person": 1728,
      "partic": 1729,
      "power": 1730,
      "days": 1731,
      "alread": 1732,
      "already": 1733,
      "##rib": 1734,
      "54": 1735,
      "mon": 1736,
      "norm": 1737,
      "##ossible": 1738,
      "color": 1739,
      "44": 1740,
      "size": 1741,
      "##round": 1742,
      "##ffect": 1743,
      "85": 1744,
      "##ures": 1745,
      "hand": 1746,
      "##respond": 1747,
      "vertical": 1748,
      "correspond": 1749,
      "fl": 1750,
      "py": 1751,
      "##irm": 1752,
      "nin": 1753,
      "##ature": 1754,
      "degree": 1755,
      "measure": 1756,
      "err": 1757,
      "5x": 1758,
      "##av": 1759,
      "substitute": 1760,
      "inver": 1761,
      "proportion": 1762,
      "##ye": 1763,
      "require": 1764,
      "##frac": 1765,
      "cubic": 1766,
      "360": 1767,
      "##pre": 1768,
      "combinations": 1769,
      "##ted": 1770,
      "##ential": 1771,
      "making": 1772,
      "##arily": 1773,
      "cons": 1774,
      "last": 1775,
      "impossible": 1776,
      "understan": 1777,
      "##endent": 1778,
      "emplo": 1779,
      "range": 1780,
      "confirm": 1781,
      "##ribed": 1782,
      "n6": 1783,
      "km": 1784,
      "around": 1785,
      "inequality": 1786,
      "##r2": 1787,
      "arrang": 1788,
      "employe": 1789,
      "card": 1790,
      "path": 1791,
      "coefficients": 1792,
      "rest": 1793,
      "reach": 1794,
      "missing": 1795,
      "95": 1796,
      "satisfy": 1797,
      "prism": 1798,
      "arc": 1799,
      "variables": 1800,
      "98": 1801,
      "fixed": 1802,
      "bre": 1803,
      "constrain": 1804,
      "##gon": 1805,
      "opt": 1806,
      "##15": 1807,
      "respect": 1808,
      "okay": 1809,
      "devi": 1810,
      "pres": 1811,
      "put": 1812,
      "fo": 1813,
      "grow": 1814,
      "limit": 1815,
      "similar": 1816,
      "##96": 1817,
      "scal": 1818,
      "cases": 1819,
      "geom": 1820,
      "##sed": 1821,
      "model": 1822,
      "##ru": 1823,
      "general": 1824,
      "##24": 1825,
      "vis": 1826,
      "##right": 1827,
      "##cal": 1828,
      "once": 1829,
      "##itions": 1830,
      "##ys": 1831,
      "##plac": 1832,
      "dat": 1833,
      "field": 1834,
      "##itten": 1835,
      "medi": 1836,
      "defined": 1837,
      "necessarily": 1838,
      "minus": 1839,
      "temp": 1840,
      "perfect": 1841,
      "sw": 1842,
      "five": 1843,
      "cone": 1844,
      "2π": 1845,
      "exponent": 1846,
      "regard": 1847,
      "##bles": 1848,
      "expressed": 1849,
      "##scribed": 1850,
      "edge": 1851,
      "##ement": 1852,
      "##ner": 1853,
      "s2": 1854,
      "much": 1855,
      "##rent": 1856,
      "##alle": 1857,
      "face": 1858,
      "magn": 1859,
      "coefficient": 1860,
      "assign": 1861,
      "paralle": 1862,
      "##clusion": 1863,
      "##ctions": 1864,
      "temper": 1865,
      "##28": 1866,
      "2b": 1867,
      "edges": 1868,
      "dfrac": 1869,
      "##14": 1870,
      "regardless": 1871,
      "04": 1872,
      "##ings": 1873,
      "within": 1874,
      "approx": 1875,
      "##rad": 1876,
      "rol": 1877,
      "##ends": 1878,
      "##etim": 1879,
      "contin": 1880,
      "##cle": 1881,
      "select": 1882,
      "125": 1883,
      "##ilateral": 1884,
      "remainder": 1885,
      "directly": 1886,
      "##iod": 1887,
      "interior": 1888,
      "current": 1889,
      "lengths": 1890,
      "expected": 1891,
      "pass": 1892,
      "list": 1893,
      "midpoint": 1894,
      "67": 1895,
      "mol": 1896,
      "found": 1897,
      "normal": 1898,
      "element": 1899,
      "##ty": 1900,
      "better": 1901,
      "weight": 1902,
      "seg": 1903,
      "2r": 1904,
      "c2": 1905,
      "63": 1906,
      "solid": 1907,
      "she": 1908,
      "240": 1909,
      "##rim": 1910,
      "period": 1911,
      "press": 1912,
      "works": 1913,
      "adjac": 1914,
      "##ind": 1915,
      "signific": 1916,
      "interest": 1917,
      "nfrom": 1918,
      "boxes": 1919,
      "indep": 1920,
      "apply": 1921,
      "##radic": 1922,
      "contradic": 1923,
      "##ck": 1924,
      "represent": 1925,
      "##ort": 1926,
      "had": 1927,
      "play": 1928,
      "getting": 1929,
      "##etimes": 1930,
      "##hip": 1931,
      "meaning": 1932,
      "lines": 1933,
      "confident": 1934,
      "minimal": 1935,
      "increasing": 1936,
      "sometimes": 1937,
      "complex": 1938,
      "6x": 1939,
      "ncalcul": 1940,
      "inscribed": 1941,
      "600": 1942,
      "data": 1943,
      "polygon": 1944,
      "##ins": 1945,
      "##60": 1946,
      "##lock": 1947,
      "break": 1948,
      "invol": 1949,
      "nad": 1950,
      "marbles": 1951,
      "##atrix": 1952,
      "functions": 1953,
      "green": 1954,
      "##lies": 1955,
      "rot": 1956,
      "rever": 1957,
      "ref": 1958,
      "exist": 1959,
      "##ile": 1960,
      "equiv": 1961,
      "temperature": 1962,
      "rand": 1963,
      "##onents": 1964,
      "random": 1965,
      "bound": 1966,
      "##ever": 1967,
      "cap": 1968,
      "relations": 1969,
      "##sel": 1970,
      "circum": 1971,
      "written": 1972,
      "adjacent": 1973,
      "infinite": 1974,
      "cover": 1975,
      "2y": 1976,
      "most": 1977,
      "complic": 1978,
      "##gg": 1979,
      "independent": 1980,
      "perm": 1981,
      "x1": 1982,
      "im": 1983,
      "show": 1984,
      "58": 1985,
      "##ason": 1986,
      "250": 1987,
      "##ters": 1988,
      "47": 1989,
      "legs": 1990,
      "##tracting": 1991,
      "count": 1992,
      "##uous": 1993,
      "region": 1994,
      "##thing": 1995,
      "43": 1996,
      "significant": 1997,
      "##ording": 1998,
      "type": 1999,
      "valid": 2000,
      "##ilities": 2001,
      "pot": 2002,
      "propert": 2003,
      "et": 2004,
      "deviation": 2005,
      "largest": 2006,
      "variable": 2007,
      "place": 2008,
      "##ful": 2009,
      "pressure": 2010,
      "prof": 2011,
      "dividing": 2012,
      "present": 2013,
      "##where": 2014,
      "nyes": 2015,
      "08": 2016,
      "suppose": 2017,
      "##18": 2018,
      "02": 2019,
      "symm": 2020,
      "##ests": 2021,
      "incor": 2022,
      "trave": 2023,
      "##ling": 2024,
      "##ency": 2025,
      "mathbf": 2026,
      "##par": 2027,
      "57": 2028,
      "permut": 2029,
      "relationship": 2030,
      "##ule": 2031,
      "reason": 2032,
      "incorrect": 2033,
      "states": 2034,
      "employees": 2035,
      "ga": 2036,
      "##ically": 2037,
      "rectang": 2038,
      "were": 2039,
      "refer": 2040,
      "related": 2041,
      "nmultip": 2042,
      "according": 2043,
      "separ": 2044,
      "key": 2045,
      "allow": 2046,
      "bu": 2047,
      "going": 2048,
      "##avor": 2049,
      "##ences": 2050,
      "potential": 2051,
      "##ectors": 2052,
      "ncalculating": 2053,
      "parts": 2054,
      "##99": 2055,
      "overl": 2056,
      "wrong": 2057,
      "nmultiply": 2058,
      "84": 2059,
      "##cess": 2060,
      "understand": 2061,
      "good": 2062,
      "ment": 2063,
      "##ape": 2064,
      "assuming": 2065,
      "calculations": 2066,
      "space": 2067,
      "chang": 2068,
      "our": 2069,
      "division": 2070,
      "##ge": 2071,
      "particle": 2072,
      "combination": 2073,
      "bot": 2074,
      "elect": 2075,
      "##wn": 2076,
      "twice": 2077,
      "dr": 2078,
      "score": 2079,
      "##ars": 2080,
      "mach": 2081,
      "46": 2082,
      "bott": 2083,
      "multiplic": 2084,
      "78": 2085,
      "ext": 2086,
      "prov": 2087,
      "nst": 2088,
      "53": 2089,
      "coordinate": 2090,
      "800": 2091,
      "six": 2092,
      "read": 2093,
      "##90": 2094,
      "leq": 2095,
      "sugg": 2096,
      "error": 2097,
      "##93": 2098,
      "97": 2099,
      "62": 2100,
      "##not": 2101,
      "nan": 2102,
      "##ser": 2103,
      "profit": 2104,
      "methods": 2105,
      "ca": 2106,
      "known": 2107,
      "law": 2108,
      "beg": 2109,
      "nat": 2110,
      "growth": 2111,
      "favor": 2112,
      "##wise": 2113,
      "##ending": 2114,
      "cr": 2115,
      "gra": 2116,
      "gu": 2117,
      "des": 2118,
      "expand": 2119,
      "faces": 2120,
      "##ead": 2121,
      "parallel": 2122,
      "66": 2123,
      "process": 2124,
      "nalright": 2125,
      "##ceed": 2126,
      "inverse": 2127,
      "51": 2128,
      "compan": 2129,
      "prec": 2130,
      "floor": 2131,
      "##wards": 2132,
      "ndiv": 2133,
      "88": 2134,
      "##way": 2135,
      "##tions": 2136,
      "144": 2137,
      "##urs": 2138,
      "conclusion": 2139,
      "off": 2140,
      "turn": 2141,
      "pyth": 2142,
      "intersection": 2143,
      "however": 2144,
      "x3": 2145,
      "begin": 2146,
      "ap": 2147,
      "inst": 2148,
      "##cular": 2149,
      "m2": 2150,
      "bring": 2151,
      "median": 2152,
      "matches": 2153,
      "suggests": 2154,
      "geometric": 2155,
      "confusing": 2156,
      "chord": 2157,
      "grav": 2158,
      "company": 2159,
      "68": 2160,
      "geq": 2161,
      "dimensions": 2162,
      "03": 2163,
      "cannot": 2164,
      "##ory": 2165,
      "##vious": 2166,
      "##98": 2167,
      "formed": 2168,
      "angled": 2169,
      "addition": 2170,
      "##te": 2171,
      "context": 2172,
      "implies": 2173,
      "regular": 2174,
      "got": 2175,
      "confused": 2176,
      "fre": 2177,
      "based": 2178,
      "##placement": 2179,
      "usually": 2180,
      "etc": 2181,
      "nanother": 2182,
      "##45": 2183,
      "bd": 2184,
      "correctly": 2185,
      "##ull": 2186,
      "sal": 2187,
      "2k": 2188,
      "##ecut": 2189,
      "##pping": 2190,
      "06": 2191,
      "nsubtract": 2192,
      "lower": 2193,
      "pythag": 2194,
      "rational": 2195,
      "circles": 2196,
      "conditions": 2197,
      "cre": 2198,
      "month": 2199,
      "rule": 2200,
      "mom": 2201,
      "clim": 2202,
      "sn": 2203,
      "tank": 2204,
      "##one": 2205,
      "needs": 2206,
      "##ecutive": 2207,
      "visual": 2208,
      "needed": 2209,
      "previous": 2210,
      "occ": 2211,
      "consecutive": 2212,
      "leading": 2213,
      "leve": 2214,
      "76": 2215,
      "below": 2216,
      "##ron": 2217,
      "41": 2218,
      "primes": 2219,
      "whole": 2220,
      "##ven": 2221,
      "move": 2222,
      "net": 2223,
      "##ption": 2224,
      "##ced": 2225,
      "user": 2226,
      "abs": 2227,
      "circular": 2228,
      "bottom": 2229,
      "class": 2230,
      "mph": 2231,
      "connected": 2232,
      "considered": 2233,
      "##x2": 2234,
      "t2": 2235,
      "alph": 2236,
      "##36": 2237,
      "groups": 2238,
      "##ats": 2239,
      "moment": 2240,
      "nstart": 2241,
      "##95": 2242,
      "nadding": 2243,
      "cut": 2244,
      "##self": 2245,
      "2x2": 2246,
      "##cd": 2247,
      "vectors": 2248,
      "nwhere": 2249,
      "77": 2250,
      "##og": 2251,
      "alt": 2252,
      "charg": 2253,
      "complicated": 2254,
      "##92": 2255,
      "sect": 2256,
      "##etry": 2257,
      "n7": 2258,
      "reco": 2259,
      "##riminant": 2260,
      "numerical": 2261,
      "##ola": 2262,
      "subset": 2263,
      "deal": 2264,
      "##imeters": 2265,
      "team": 2266,
      "mot": 2267,
      "longer": 2268,
      "visualize": 2269,
      "identify": 2270,
      "light": 2271,
      "simp": 2272,
      "nsubstit": 2273,
      "##uring": 2274,
      "instead": 2275,
      "climb": 2276,
      "##ild": 2277,
      "##ome": 2278,
      "continuous": 2279,
      "##orean": 2280,
      "##ell": 2281,
      "pythagorean": 2282,
      "includ": 2283,
      "xy": 2284,
      "solving": 2285,
      "favorable": 2286,
      "def": 2287,
      "##rams": 2288,
      "depending": 2289,
      "referring": 2290,
      "2d": 2291,
      "##ithmetic": 2292,
      "subtracting": 2293,
      "arithmetic": 2294,
      "parab": 2295,
      "##aves": 2296,
      "complet": 2297,
      "segment": 2298,
      "block": 2299,
      "swit": 2300,
      "ret": 2301,
      "##da": 2302,
      "expects": 2303,
      "gall": 2304,
      "compos": 2305,
      "probably": 2306,
      "affect": 2307,
      "nstarting": 2308,
      "##ution": 2309,
      "pick": 2310,
      "##ference": 2311,
      "##11": 2312,
      "##35": 2313,
      "itself": 2314,
      "recogn": 2315,
      "##ified": 2316,
      "white": 2317,
      "putting": 2318,
      "v2": 2319,
      "include": 2320,
      "calculating": 2321,
      "discriminant": 2322,
      "sem": 2323,
      "dens": 2324,
      "determin": 2325,
      "machine": 2326,
      "dot": 2327,
      "plac": 2328,
      "altitude": 2329,
      "##her": 2330,
      "positions": 2331,
      "alpha": 2332,
      "mistakes": 2333,
      "rectangular": 2334,
      "precise": 2335,
      "ndivide": 2336,
      "2t": 2337,
      "redu": 2338,
      "cards": 2339,
      "anything": 2340,
      "integr": 2341,
      "fractions": 2342,
      "##using": 2343,
      "approximation": 2344,
      "ground": 2345,
      "##oid": 2346,
      "wave": 2347,
      "ann": 2348,
      "900": 2349,
      "table": 2350,
      "hex": 2351,
      "##imin": 2352,
      "convert": 2353,
      "elimin": 2354,
      "why": 2355,
      "exponents": 2356,
      "student": 2357,
      "somewhere": 2358,
      "lit": 2359,
      "##fty": 2360,
      "nj": 2361,
      "infty": 2362,
      "takes": 2363,
      "av": 2364,
      "density": 2365,
      "##ps": 2366,
      "nfin": 2367,
      "determinant": 2368,
      "gas": 2369,
      "frequ": 2370,
      "piec": 2371,
      "snail": 2372,
      "##arr": 2373,
      "multiplication": 2374,
      "##ken": 2375,
      "modul": 2376,
      "##ient": 2377,
      "##17": 2378,
      "##ning": 2379,
      "partial": 2380,
      "parabola": 2381,
      "666": 2382,
      "relative": 2383,
      "diagonals": 2384,
      "project": 2385,
      "constraints": 2386,
      "##under": 2387,
      "probabilities": 2388,
      "crit": 2389,
      "##44": 2390,
      "reversed": 2391,
      "taking": 2392,
      "##ib": 2393,
      "##ics": 2394,
      "pmatrix": 2395,
      "##ips": 2396,
      "results": 2397,
      "##ively": 2398,
      "##ia": 2399,
      "##ish": 2400,
      "07": 2401,
      "magnitude": 2402,
      "nfinally": 2403,
      "intercept": 2404,
      "a1": 2405,
      "##ok": 2406,
      "options": 2407,
      "##56": 2408,
      "her": 2409,
      "component": 2410,
      "gcd": 2411,
      "head": 2412,
      "##50": 2413,
      "nv": 2414,
      "333": 2415,
      "discount": 2416,
      "sums": 2417,
      "starts": 2418,
      "4a": 2419,
      "symmetric": 2420,
      "relate": 2421,
      "##ives": 2422,
      "hexagon": 2423,
      "remains": 2424,
      "misunder": 2425,
      "child": 2426,
      "nthis": 2427,
      "subsets": 2428,
      "interpre": 2429,
      "ide": 2430,
      "level": 2431,
      "dealing": 2432,
      "foot": 2433,
      "corresponding": 2434,
      "recap": 2435,
      "eas": 2436,
      "items": 2437,
      "motion": 2438,
      "quadrilateral": 2439,
      "##olute": 2440,
      "summ": 2441,
      "accept": 2442,
      "grid": 2443,
      "equival": 2444,
      "##inc": 2445,
      "sig": 2446,
      "earth": 2447,
      "centimeters": 2448,
      "assumption": 2449,
      "proportional": 2450,
      "##ie": 2451,
      "##terpre": 2452,
      "y1": 2453,
      "absolute": 2454,
      "njust": 2455,
      "##unds": 2456,
      "225": 2457,
      "empty": 2458,
      "minute": 2459,
      "##omb": 2460,
      "mill": 2461,
      "permutations": 2462,
      "82": 2463,
      "required": 2464,
      "87": 2465,
      "160": 2466,
      "##yond": 2467,
      "3y": 2468,
      "##48": 2469,
      "figures": 2470,
      "return": 2471,
      "bag": 2472,
      "fourth": 2473,
      "##ural": 2474,
      "products": 2475,
      "divisors": 2476,
      "625": 2477,
      "section": 2478,
      "bis": 2479,
      "oper": 2480,
      "due": 2481,
      "##oth": 2482,
      "nsecond": 2483,
      "##97": 2484,
      "2c": 2485,
      "overc": 2486,
      "effect": 2487,
      "beyond": 2488,
      "except": 2489,
      "away": 2490,
      "##ored": 2491,
      "binom": 2492,
      "city": 2493,
      "circumference": 2494,
      "likely": 2495,
      "following": 2496,
      "low": 2497,
      "actual": 2498,
      "jo": 2499,
      "big": 2500,
      "npl": 2501,
      "critical": 2502,
      "86": 2503,
      "accur": 2504,
      "changes": 2505,
      "nor": 2506,
      "256": 2507,
      "resulting": 2508,
      "πr2": 2509,
      "2000": 2510,
      "determined": 2511,
      "places": 2512,
      "approximate": 2513,
      "problems": 2514,
      "rows": 2515,
      "##30": 2516,
      "kin": 2517,
      "str": 2518,
      "##put": 2519,
      "unif": 2520,
      "yep": 2521,
      "uniform": 2522,
      "colors": 2523,
      "beta": 2524,
      "pay": 2525,
      "finite": 2526,
      "##ages": 2527,
      "curve": 2528,
      "close": 2529,
      "switch": 2530,
      "kinetic": 2531,
      "mix": 2532,
      "central": 2533,
      "die": 2534,
      "choices": 2535,
      "n8": 2536,
      "placed": 2537,
      "h2": 2538,
      "look": 2539,
      "divides": 2540,
      "tou": 2541,
      "##ivid": 2542,
      "properties": 2543,
      "nusing": 2544,
      "simple": 2545,
      "individ": 2546,
      "nand": 2547,
      "dy": 2548,
      "##standing": 2549,
      "cancel": 2550,
      "da": 2551,
      "repe": 2552,
      "satisfies": 2553,
      "##sib": 2554,
      "pain": 2555,
      "nbring": 2556,
      "##arm": 2557,
      "letters": 2558,
      "char": 2559,
      "##lection": 2560,
      "##dle": 2561,
      "dimension": 2562,
      "misunderstanding": 2563,
      "##94": 2564,
      "flow": 2565,
      "possib": 2566,
      "black": 2567,
      "simplified": 2568,
      "charge": 2569,
      "74": 2570,
      "recognize": 2571,
      "saw": 2572,
      "decreasing": 2573,
      "near": 2574,
      "grams": 2575,
      "##ci": 2576,
      "trick": 2577,
      "done": 2578,
      "string": 2579,
      "multiples": 2580,
      "capac": 2581,
      "bas": 2582,
      "areas": 2583,
      "##alu": 2584,
      "92": 2585,
      "evalu": 2586,
      "drawing": 2587,
      "##bit": 2588,
      "natural": 2589,
      "##stances": 2590,
      "looking": 2591,
      "binomial": 2592,
      "3a": 2593,
      "bul": 2594,
      "word": 2595,
      "very": 2596,
      "rearr": 2597,
      "prog": 2598,
      "interesting": 2599,
      "nis": 2600,
      "identity": 2601,
      "##acter": 2602,
      "nplug": 2603,
      "provid": 2604,
      "things": 2605,
      "displacement": 2606,
      "2s": 2607,
      "216": 2608,
      "matter": 2609,
      "obser": 2610,
      "720": 2611,
      "corner": 2612,
      "##ization": 2613,
      "##alse": 2614,
      "n10": 2615,
      "define": 2616,
      "concept": 2617,
      "##ially": 2618,
      "nsubstituting": 2619,
      "increased": 2620,
      "sets": 2621,
      "del": 2622,
      "false": 2623,
      "frequency": 2624,
      "3n": 2625,
      "sch": 2626,
      "##red": 2627,
      "reasoning": 2628,
      "substitution": 2629,
      "ran": 2630,
      "105": 2631,
      "tens": 2632,
      "ones": 2633,
      "mathem": 2634,
      "confidence": 2635,
      "gir": 2636,
      "##uding": 2637,
      "clar": 2638,
      "allowed": 2639,
      "equivalent": 2640,
      "win": 2641,
      "coins": 2642,
      "sold": 2643,
      "108": 2644,
      "anal": 2645,
      "exists": 2646,
      "##omplic": 2647,
      "overcomplic": 2648,
      "suppos": 2649,
      "supposed": 2650,
      "##ants": 2651,
      "electric": 2652,
      "taken": 2653,
      "decreases": 2654,
      "##ga": 2655,
      "##arithm": 2656,
      "wants": 2657,
      "holds": 2658,
      "##pper": 2659,
      "##omain": 2660,
      "ell": 2661,
      "modulo": 2662,
      "guess": 2663,
      "shad": 2664,
      "logarithm": 2665,
      "##incip": 2666,
      "nlo": 2667,
      "princip": 2668,
      "##78": 2669,
      "nsimplifying": 2670,
      "73": 2671,
      "middle": 2672,
      "overcomplicating": 2673,
      "##uck": 2674,
      "dc": 2675,
      "complete": 2676,
      "pattern": 2677,
      "nplugging": 2678,
      "cle": 2679,
      "fit": 2680,
      "10a": 2681,
      "gallons": 2682,
      "210": 2683,
      "inf": 2684,
      "outside": 2685,
      "maximize": 2686,
      "ome": 2687,
      "##22": 2688,
      "999": 2689,
      "61": 2690,
      "##ier": 2691,
      "match": 2692,
      "128": 2693,
      "open": 2694,
      "constraint": 2695,
      "##ended": 2696,
      "expans": 2697,
      "full": 2698,
      "fri": 2699,
      "##sp": 2700,
      "##otal": 2701,
      "cosθ": 2702,
      "equilateral": 2703,
      "omega": 2704,
      "reality": 2705,
      "setting": 2706,
      "cubes": 2707,
      "spl": 2708,
      "est": 2709,
      "distances": 2710,
      "confirms": 2711,
      "##terpreting": 2712,
      "ra": 2713,
      "specifically": 2714,
      "cm2": 2715,
      "perform": 2716,
      "interpret": 2717,
      "ntotal": 2718,
      "react": 2719,
      "##ily": 2720,
      "d2": 2721,
      "recip": 2722,
      "additional": 2723,
      "110": 2724,
      "game": 2725,
      "##oking": 2726,
      "##celes": 2727,
      "clarify": 2728,
      "excl": 2729,
      "bx": 2730,
      "event": 2731,
      "wom": 2732,
      "radians": 2733,
      "chance": 2734,
      "player": 2735,
      "variance": 2736,
      "acceptable": 2737,
      "r1": 2738,
      "cal": 2739,
      "ens": 2740,
      "definition": 2741,
      "helpful": 2742,
      "expansion": 2743,
      "8x": 2744,
      "beh": 2745,
      "contribut": 2746,
      "gravity": 2747,
      "sinθ": 2748,
      "domain": 2749,
      "bulb": 2750,
      "hard": 2751,
      "480": 2752,
      "million": 2753,
      "happ": 2754,
      "produce": 2755,
      "moves": 2756,
      "sine": 2757,
      "nr": 2758,
      "contains": 2759,
      "shif": 2760,
      "##ruct": 2761,
      "##88": 2762,
      "production": 2763,
      "decrease": 2764,
      "his": 2765,
      "sell": 2766,
      "##fined": 2767,
      "##13": 2768,
      "converg": 2769,
      "##istance": 2770,
      "struct": 2771,
      "shor": 2772,
      "##lying": 2773,
      "run": 2774,
      "nlooking": 2775,
      "selected": 2776,
      "finding": 2777,
      "bi": 2778,
      "sk": 2779,
      "##ccess": 2780,
      "##osing": 2781,
      "##floor": 2782,
      "rain": 2783,
      "att": 2784,
      "success": 2785,
      "##istic": 2786,
      "angular": 2787,
      "mention": 2788,
      "83": 2789,
      "10b": 2790,
      "##ouse": 2791,
      "quant": 2792,
      "heat": 2793,
      "depends": 2794,
      "labe": 2795,
      "##000": 2796,
      "##amb": 2797,
      "checks": 2798,
      "compare": 2799,
      "shape": 2800,
      "columns": 2801,
      "individual": 2802,
      "ellip": 2803,
      "air": 2804,
      "lc": 2805,
      "recipro": 2806,
      "##als": 2807,
      "corresponds": 2808,
      "140": 2809,
      "##ld": 2810,
      "exceed": 2811,
      "##ires": 2812,
      "nl": 2813,
      "misin": 2814,
      "reciprocal": 2815,
      "shorter": 2816,
      "eliminate": 2817,
      "delta": 2818,
      "image": 2819,
      "93": 2820,
      "entirely": 2821,
      "ho": 2822,
      "##ramid": 2823,
      "otherwise": 2824,
      "exponential": 2825,
      "n9": 2826,
      "nnum": 2827,
      "asks": 2828,
      "##row": 2829,
      "fur": 2830,
      "##ized": 2831,
      "own": 2832,
      "enough": 2833,
      "costs": 2834,
      "pyramid": 2835,
      "remo": 2836,
      "split": 2837,
      "##aring": 2838,
      "##ements": 2839,
      "contradicts": 2840,
      "##ifth": 2841,
      "liters": 2842,
      "thor": 2843,
      "##til": 2844,
      "##fficient": 2845,
      "reflect": 2846,
      "annual": 2847,
      "##defined": 2848,
      "thorough": 2849,
      "undefined": 2850,
      "relation": 2851,
      "none": 2852,
      "mark": 2853,
      "cong": 2854,
      "roll": 2855,
      "combine": 2856,
      "lamb": 2857,
      "##geb": 2858,
      "men": 2859,
      "4π": 2860,
      "arrange": 2861,
      "room": 2862,
      "arct": 2863,
      "v1": 2864,
      "property": 2865,
      "overall": 2866,
      "helps": 2867,
      "closed": 2868,
      "definite": 2869,
      "passes": 2870,
      "adjust": 2871,
      "specified": 2872,
      "eig": 2873,
      "giving": 2874,
      "congru": 2875,
      "2h": 2876,
      "further": 2877,
      "while": 2878,
      "having": 2879,
      "##ores": 2880,
      "bases": 2881,
      "du": 2882,
      "##izing": 2883,
      "lambda": 2884,
      "mole": 2885,
      "separate": 2886,
      "##gebra": 2887,
      "reven": 2888,
      "moles": 2889,
      "102": 2890,
      "ellipse": 2891,
      "estim": 2892,
      "across": 2893,
      "simplifying": 2894,
      "##ustom": 2895,
      "sin2": 2896,
      "comput": 2897,
      "align": 2898,
      "imag": 2899,
      "combined": 2900,
      "##72": 2901,
      "structure": 2902,
      "94": 2903,
      "##mpt": 2904,
      "custom": 2905,
      "clear": 2906,
      "objects": 2907,
      "applying": 2908,
      "cycle": 2909,
      "avail": 2910,
      "prove": 2911,
      "ordered": 2912,
      "algebra": 2913,
      "cm3": 2914,
      "nexp": 2915,
      "upper": 2916,
      "longest": 2917,
      "tas": 2918,
      "4ac": 2919,
      "tax": 2920,
      "applied": 2921,
      "7x": 2922,
      "##itive": 2923,
      "wee": 2924,
      "71": 2925,
      "boys": 2926,
      "##65": 2927,
      "eigen": 2928,
      "phi": 2929,
      "revenue": 2930,
      "until": 2931,
      "inner": 2932,
      "lcm": 2933,
      "k2": 2934,
      "3d": 2935,
      "invest": 2936,
      "89": 2937,
      "001": 2938,
      "com": 2939,
      "2m": 2940,
      "available": 2941,
      "saying": 2942,
      "arranged": 2943,
      "3b": 2944,
      "binary": 2945,
      "##ateg": 2946,
      "others": 2947,
      "momentum": 2948,
      "calculator": 2949,
      "misread": 2950,
      "requires": 2951,
      "##onic": 2952,
      "heads": 2953,
      "expressions": 2954,
      "##lement": 2955,
      "mentions": 2956,
      "ncomb": 2957,
      "respectively": 2958,
      "59": 2959,
      "rank": 2960,
      "conc": 2961,
      "esp": 2962,
      "coin": 2963,
      "particular": 2964,
      "##terior": 2965,
      "12x": 2966,
      "p2": 2967,
      "marble": 2968,
      "##ian": 2969,
      "arctan": 2970,
      "proceed": 2971,
      "##oks": 2972,
      "##ecially": 2973,
      "especially": 2974,
      "errors": 2975,
      "exterior": 2976,
      "##ear": 2977,
      "##apez": 2978,
      "kind": 2979,
      "towards": 2980,
      "stat": 2981,
      "trapez": 2982,
      "kil": 2983,
      "br": 2984,
      "##ternal": 2985,
      "including": 2986,
      "##uct": 2987,
      "cosine": 2988,
      "fifth": 2989,
      "share": 2990,
      "lif": 2991,
      "keep": 2992,
      "2w": 2993,
      "restric": 2994,
      "neq": 2995,
      "69": 2996,
      "arrangements": 2997,
      "bisector": 2998,
      "sounds": 2999,
      "101": 3000,
      "##wr": 3001,
      "pq": 3002,
      "##hn": 3003,
      "climbs": 3004,
      "##625": 3005,
      "##55": 3006,
      "connecting": 3007,
      "capacity": 3008,
      "##izes": 3009,
      "2ab": 3010,
      "gard": 3011,
      "idea": 3012,
      "women": 3013,
      "easier": 3014,
      "##ma": 3015,
      "events": 3016,
      "##ots": 3017,
      "girls": 3018,
      "trapezoid": 3019,
      "constants": 3020,
      "bus": 3021,
      "differences": 3022,
      "zeros": 3023,
      "##68": 3024,
      "##oll": 3025,
      "includes": 3026,
      "atom": 3027,
      "1200": 3028,
      "##upp": 3029,
      "triangular": 3030,
      "##ivity": 3031,
      "x4": 3032,
      "##ey": 3033,
      "##matrix": 3034,
      "sequences": 3035,
      "provided": 3036,
      "segments": 3037,
      "centers": 3038,
      "atm": 3039,
      "represents": 3040,
      "differenti": 3041,
      "added": 3042,
      "drawn": 3043,
      "bounded": 3044,
      "max": 3045,
      "local": 3046,
      "nsupp": 3047,
      "necessary": 3048,
      "nsuppose": 3049,
      "ask": 3050,
      "free": 3051,
      "oh": 3052,
      "resistance": 3053,
      "##ells": 3054,
      "##ton": 3055,
      "age": 3056,
      "quadrant": 3057,
      "param": 3058,
      "nk": 3059,
      "mathbb": 3060,
      "garden": 3061,
      "often": 3062,
      "cop": 3063,
      "factorial": 3064,
      "choosing": 3065,
      "scores": 3066,
      "##21": 3067,
      "375": 3068,
      "##osceles": 3069,
      "adds": 3070,
      "##avi": 3071,
      "isosceles": 3072,
      "house": 3073,
      "3k": 3074,
      "fil": 3075,
      "piece": 3076,
      "##line": 3077,
      "rounded": 3078,
      "semi": 3079,
      "##77": 3080,
      "selecting": 3081,
      "##84": 3082,
      "dv": 3083,
      "##mma": 3084,
      "components": 3085,
      "overline": 3086,
      "follows": 3087,
      "ncase": 3088,
      "conve": 3089,
      "magnetic": 3090,
      "##bon": 3091,
      "gets": 3092,
      "tree": 3093,
      "divisor": 3094,
      "ft": 3095,
      "rearrange": 3096,
      "cyc": 3097,
      "91": 3098,
      "ec": 3099,
      "sun": 3100,
      "convex": 3101,
      "mess": 3102,
      "##duct": 3103,
      "tail": 3104,
      "short": 3105,
      "lea": 3106,
      "rh": 3107,
      "called": 3108,
      "gravit": 3109,
      "identical": 3110,
      "3x2": 3111,
      "concent": 3112,
      "##ression": 3113,
      "##day": 3114,
      "##valid": 3115,
      "arcs": 3116,
      "t1": 3117,
      "permutation": 3118,
      "##ames": 3119,
      "counter": 3120,
      "ml": 3121,
      "mg": 3122,
      "among": 3123,
      "doll": 3124,
      "geometry": 3125,
      "##adius": 3126,
      "##ired": 3127,
      "##70": 3128,
      "stop": 3129,
      "contradiction": 3130,
      "##erial": 3131,
      "10x": 3132,
      "##olate": 3133,
      "obt": 3134,
      "gain": 3135,
      "##ircle": 3136,
      "material": 3137,
      "invalid": 3138,
      "highest": 3139,
      "##23": 3140,
      "intervals": 3141,
      "books": 3142,
      "far": 3143,
      "cars": 3144,
      "nsol": 3145,
      "121": 3146,
      "##atives": 3147,
      "note": 3148,
      "hat": 3149,
      "leave": 3150,
      "trac": 3151,
      "##gen": 3152,
      "##ness": 3153,
      "##osen": 3154,
      "leads": 3155,
      "##radius": 3156,
      "randomly": 3157,
      "stuck": 3158,
      "4y": 3159,
      "m3": 3160,
      "bar": 3161,
      "seem": 3162,
      "included": 3163,
      "harm": 3164,
      "##lation": 3165,
      "been": 3166,
      "definitely": 3167,
      "##85": 3168,
      "ends": 3169,
      "bal": 3170,
      "chosen": 3171,
      "separately": 3172,
      "asy": 3173,
      "radii": 3174,
      "##71": 3175,
      "feel": 3176,
      "covered": 3177,
      "##ration": 3178,
      "phys": 3179,
      "gravitational": 3180,
      "##26": 3181,
      "shaded": 3182,
      "prefer": 3183,
      "during": 3184,
      "##onom": 3185,
      "lie": 3186,
      "meet": 3187,
      "provide": 3188,
      "ach": 3189,
      "achie": 3190,
      "##nth": 3191,
      "outer": 3192,
      "270": 3193,
      "##ios": 3194,
      "analy": 3195,
      "0000": 3196,
      "misinterpreting": 3197,
      "sigma": 3198,
      "buil": 3199,
      "700": 3200,
      "reaches": 3201,
      "asympt": 3202,
      "##apping": 3203,
      "loaves": 3204,
      "cook": 3205,
      "4k": 3206,
      "involves": 3207,
      "##aking": 3208,
      "whe": 3209,
      "centered": 3210,
      "children": 3211,
      "##urren": 3212,
      "nexpand": 3213,
      "ensure": 3214,
      "##rop": 3215,
      "nwhat": 3216,
      "possibilities": 3217,
      "incon": 3218,
      "##rime": 3219,
      "accurately": 3220,
      "ratios": 3221,
      "closer": 3222,
      "congruent": 3223,
      "spring": 3224,
      "fam": 3225,
      "scale": 3226,
      "nsum": 3227,
      "tre": 3228,
      "##ane": 3229,
      "rotation": 3230,
      "pur": 3231,
      "buy": 3232,
      "touch": 3233,
      "occurs": 3234,
      "hypoth": 3235,
      "123": 3236,
      "trying": 3237,
      "##etal": 3238,
      "harmonic": 3239,
      "##actor": 3240,
      "infinitely": 3241,
      "stick": 3242,
      "pow": 3243,
      "nequ": 3244,
      "##length": 3245,
      "sto": 3246,
      "expl": 3247,
      "rewr": 3248,
      "##rices": 3249,
      "280": 3250,
      "wavelength": 3251,
      "types": 3252,
      "##ene": 3253,
      "volt": 3254,
      "rad": 3255,
      "gave": 3256,
      "maj": 3257,
      "apples": 3258,
      "196": 3259,
      "depth": 3260,
      "##cing": 3261,
      "##uity": 3262,
      "inconsist": 3263,
      "member": 3264,
      "cand": 3265,
      "79": 3266,
      "bmatrix": 3267,
      "n12": 3268,
      "pic": 3269,
      "ae": 3270,
      "mathematic": 3271,
      "##ze": 3272,
      "9x": 3273,
      "tick": 3274,
      "factoring": 3275,
      "understanding": 3276,
      "powers": 3277,
      "3t": 3278,
      "##ture": 3279,
      "games": 3280,
      "tor": 3281,
      "nare": 3282,
      "sour": 3283,
      "nequation": 3284,
      "recurs": 3285,
      "call": 3286,
      "09": 3287,
      "nnumber": 3288,
      "reasonable": 3289,
      "character": 3290,
      "assigned": 3291,
      "512": 3292,
      "nthird": 3293,
      "##125": 3294,
      "matrices": 3295,
      "interpretation": 3296,
      "slips": 3297,
      "sector": 3298,
      "ce": 3299,
      "##49": 3300,
      "dots": 3301,
      "stre": 3302,
      "friends": 3303,
      "leaving": 3304,
      "create": 3305,
      "##ners": 3306,
      "1024": 3307,
      "eigenval": 3308,
      "wal": 3309,
      "192": 3310,
      "los": 3311,
      "rece": 3312,
      "main": 3313,
      "coprime": 3314,
      "formulas": 3315,
      "indic": 3316,
      "narea": 3317,
      "##fe": 3318,
      "exclusion": 3319,
      "ther": 3320,
      "112": 3321,
      "equally": 3322,
      "your": 3323,
      "really": 3324,
      "eng": 3325,
      "fric": 3326,
      "letter": 3327,
      "##urrence": 3328,
      "sit": 3329,
      "construct": 3330,
      "mm": 3331,
      "orbit": 3332,
      "friction": 3333,
      "pare": 3334,
      "seats": 3335,
      "inclusion": 3336,
      "450": 3337,
      "gamma": 3338,
      "principle": 3339,
      "hypothes": 3340,
      "input": 3341,
      "##mples": 3342,
      "desc": 3343,
      "compound": 3344,
      "vi": 3345,
      "pent": 3346,
      "ins": 3347,
      "##ilib": 3348,
      "intersects": 3349,
      "ngle": 3350,
      "##ilibri": 3351,
      "rele": 3352,
      "##ries": 3353,
      "##pped": 3354,
      "##ounding": 3355,
      "equilibri": 3356,
      "sales": 3357,
      "em": 3358,
      "axi": 3359,
      "111": 3360,
      "##enari": 3361,
      "slight": 3362,
      "##ood": 3363,
      "downward": 3364,
      "stated": 3365,
      "pret": 3366,
      "phr": 3367,
      "scenari": 3368,
      "voltage": 3369,
      "##uth": 3370,
      "tricky": 3371,
      "ncombine": 3372,
      "operations": 3373,
      "nearest": 3374,
      "minimize": 3375,
      "##air": 3376,
      "months": 3377,
      "220": 3378,
      "words": 3379,
      "##yd": 3380,
      "576": 3381,
      "sec": 3382,
      "pretty": 3383,
      "meter": 3384,
      "##gor": 3385,
      "##74": 3386,
      "##jective": 3387,
      "travels": 3388,
      "major": 3389,
      "ant": 3390,
      "##log": 3391,
      "pieces": 3392,
      "nsolving": 3393,
      "upwards": 3394,
      "nhow": 3395,
      "pack": 3396,
      "##ool": 3397,
      "##19": 3398,
      "node": 3399,
      "nsubtracting": 3400,
      "##ash": 3401,
      "cos2": 3402,
      "1416": 3403,
      "symmetry": 3404,
      "equilibrium": 3405,
      "design": 3406,
      "oa": 3407,
      "##gorithm": 3408,
      "algorithm": 3409,
      "enc": 3410,
      "fast": 3411,
      "teams": 3412,
      "##64": 3413,
      "ten": 3414,
      "old": 3415,
      "factored": 3416,
      "350": 3417,
      "filled": 3418,
      "##rip": 3419,
      "whose": 3420,
      "960": 3421,
      "lat": 3422,
      "composition": 3423,
      "##73": 3424,
      "money": 3425,
      "involving": 3426,
      "week": 3427,
      "y3": 3428,
      "changing": 3429,
      "counting": 3430,
      "fine": 3431,
      "simpler": 3432,
      "x0": 3433,
      "320": 3434,
      "union": 3435,
      "midpoints": 3436,
      "expanding": 3437,
      "clos": 3438,
      "vers": 3439,
      "nfactor": 3440,
      "##locks": 3441,
      "135": 3442,
      "factorization": 3443,
      "p1": 3444,
      "parallelog": 3445,
      "distribute": 3446,
      "dimensional": 3447,
      "wording": 3448,
      "750": 3449,
      "nafter": 3450,
      "scaling": 3451,
      "satisfied": 3452,
      "life": 3453,
      "ice": 3454,
      "school": 3455,
      "replacement": 3456,
      "##ders": 3457,
      "##ake": 3458,
      "container": 3459,
      "estimate": 3460,
      "employee": 3461,
      "rectangles": 3462,
      "rough": 3463,
      "subt": 3464,
      "typo": 3465,
      "commit": 3466,
      "fill": 3467,
      "uses": 3468,
      "squaring": 3469,
      "##oc": 3470,
      "recurrence": 3471,
      "distributed": 3472,
      "169": 3473,
      "flu": 3474,
      "a3": 3475,
      "marg": 3476,
      "##ract": 3477,
      "contradict": 3478,
      "2l": 3479,
      "var": 3480,
      "option": 3481,
      "converges": 3482,
      "conflic": 3483,
      "behavi": 3484,
      "blocks": 3485,
      "inch": 3486,
      "540": 3487,
      "resid": 3488,
      "##des": 3489,
      "triv": 3490,
      "account": 3491,
      "r3": 3492,
      "##atch": 3493,
      "exper": 3494,
      "traveled": 3495,
      "quar": 3496,
      "wins": 3497,
      "parallelogram": 3498,
      "vot": 3499,
      "complement": 3500,
      "loc": 3501,
      "##43": 3502,
      "175": 3503,
      "##ision": 3504,
      "relates": 3505,
      "dollars": 3506,
      "nexpanding": 3507,
      "approaching": 3508,
      "pal": 3509,
      "fail": 3510,
      "##bo": 3511,
      "behavior": 3512,
      "cosines": 3513,
      "pentagon": 3514,
      "rates": 3515,
      "reflection": 3516,
      "concentration": 3517,
      "tha": 3518,
      "someone": 3519,
      "spher": 3520,
      "output": 3521,
      "phrased": 3522,
      "transform": 3523,
      "looks": 3524,
      "investment": 3525,
      "sho": 3526,
      "measures": 3527,
      "##alities": 3528,
      "town": 3529,
      "deck": 3530,
      "##ee": 3531,
      "rolling": 3532,
      "trig": 3533,
      "apex": 3534,
      "##ards": 3535,
      "iss": 3536,
      "travel": 3537,
      "nthi": 3538,
      "building": 3539,
      "concl": 3540,
      "115": 3541,
      "reaction": 3542,
      "derivatives": 3543,
      "##41": 3544,
      "aren": 3545,
      "inconsistent": 3546,
      "ncon": 3547,
      "thing": 3548,
      "neither": 3549,
      "##olog": 3550,
      "occur": 3551,
      "committe": 3552,
      "cookies": 3553,
      "##know": 3554,
      "source": 3555,
      "comes": 3556,
      "##ules": 3557,
      "corners": 3558,
      "choice": 3559,
      "hands": 3560,
      "slightly": 3561,
      "accurate": 3562,
      "come": 3563,
      "appe": 3564,
      "realize": 3565,
      "extra": 3566,
      "4n": 3567,
      "##xy": 3568,
      "task": 3569,
      "##46": 3570,
      "##pri": 3571,
      "##anc": 3572,
      "##87": 3573,
      "##sequ": 3574,
      "invert": 3575,
      "sizes": 3576,
      "amb": 3577,
      "amp": 3578,
      "vary": 3579,
      "acute": 3580,
      "generating": 3581,
      "875": 3582,
      "3x3": 3583,
      "regions": 3584,
      "implying": 3585,
      "produced": 3586,
      "v0": 3587,
      "mir": 3588,
      "triplet": 3589,
      "visit": 3590,
      "4b": 3591,
      "irr": 3592,
      "1s": 3593,
      "bird": 3594,
      "c1": 3595,
      "sort": 3596,
      "chain": 3597,
      "special": 3598,
      "loop": 3599,
      "shows": 3600,
      "applic": 3601,
      "145": 3602,
      "pol": 3603,
      "appropri": 3604,
      "005": 3605,
      "margin": 3606,
      "wond": 3607,
      "north": 3608,
      "fall": 3609,
      "conj": 3610,
      "surve": 3611,
      "happen": 3612,
      "arrangement": 3613,
      "care": 3614,
      "##86": 3615,
      "bro": 3616,
      "best": 3617,
      "altern": 3618,
      "dem": 3619,
      "wonder": 3620,
      "ess": 3621,
      "130": 3622,
      "wide": 3623,
      "wind": 3624,
      "mode": 3625,
      "train": 3626,
      "rolls": 3627,
      "combining": 3628,
      "counts": 3629,
      "exam": 3630,
      "overlap": 3631,
      "integrating": 3632,
      "shir": 3633,
      "inequalities": 3634,
      "operation": 3635,
      "survey": 3636,
      "cup": 3637,
      "phase": 3638,
      "feas": 3639,
      "questions": 3640,
      "mult": 3641,
      "repl": 3642,
      "1500": 3643,
      "hole": 3644,
      "bread": 3645,
      "slant": 3646,
      "forms": 3647,
      "##izz": 3648,
      "initially": 3649,
      "painted": 3650,
      "##ump": 3651,
      "salary": 3652,
      "vs": 3653,
      "resist": 3654,
      "nadd": 3655,
      "m1": 3656,
      "243": 3657,
      "calculus": 3658,
      "wall": 3659,
      "##ront": 3660,
      "lies": 3661,
      "boy": 3662,
      "##vation": 3663,
      "##iguous": 3664,
      "essential": 3665,
      "##57": 3666,
      "touches": 3667,
      "##ands": 3668,
      "proper": 3669,
      "shortest": 3670,
      "420": 3671,
      "unknow": 3672,
      "unknown": 3673,
      "evaluate": 3674,
      "denominators": 3675,
      "feasible": 3676,
      "##inary": 3677,
      "l2": 3678,
      "##iver": 3679,
      "mirr": 3680,
      "##phere": 3681,
      "sided": 3682,
      "seven": 3683,
      "discre": 3684,
      "conjug": 3685,
      "##ame": 3686,
      "invertible": 3687,
      "molar": 3688,
      "693": 3689,
      "forces": 3690,
      "trivial": 3691,
      "##ilon": 3692,
      "diverg": 3693,
      "##psilon": 3694,
      "rais": 3695,
      "##uration": 3696,
      "represented": 3697,
      "##to": 3698,
      "5k": 3699,
      "##wers": 3700,
      "subg": 3701,
      "contradictory": 3702,
      "##ger": 3703,
      "thus": 3704,
      "##ms": 3705,
      "hyd": 3706,
      "##hold": 3707,
      "9a": 3708,
      "dice": 3709,
      "analyze": 3710,
      "quite": 3711,
      "3r": 3712,
      "customer": 3713,
      "vec": 3714,
      "##lie": 3715,
      "categ": 3716,
      "tal": 3717,
      "front": 3718,
      "shift": 3719,
      "##ale": 3720,
      "hz": 3721,
      "neigh": 3722,
      "rod": 3723,
      "answers": 3724,
      "##rical": 3725,
      "overlapping": 3726,
      "lfloor": 3727,
      "differential": 3728,
      "##undred": 3729,
      "3s": 3730,
      "025": 3731,
      "##mental": 3732,
      "consum": 3733,
      "mile": 3734,
      "1x": 3735,
      "bits": 3736,
      "132": 3737,
      "nag": 3738,
      "z2": 3739,
      "##of": 3740,
      "intended": 3741,
      "setup": 3742,
      "bac": 3743,
      "bacter": 3744,
      "hundred": 3745,
      "rfloor": 3746,
      "inradius": 3747,
      "nagain": 3748,
      "##indrom": 3749,
      "roughly": 3750,
      "trials": 3751,
      "palindrom": 3752,
      "null": 3753,
      "##67": 3754,
      "teach": 3755,
      "passing": 3756,
      "statements": 3757,
      "rounding": 3758,
      "##aker": 3759,
      "scalar": 3760,
      "daily": 3761,
      "ba": 3762,
      "road": 3763,
      "particip": 3764,
      "members": 3765,
      "trigonom": 3766,
      "clock": 3767,
      "everything": 3768,
      "ambiguous": 3769,
      "lab": 3770,
      "##etition": 3771,
      "neach": 3772,
      "minor": 3773,
      "hypothesis": 3774,
      "cart": 3775,
      "diag": 3776,
      "subsequ": 3777,
      "reverse": 3778,
      "irrational": 3779,
      "##47": 3780,
      "obtain": 3781,
      "endpoint": 3782,
      "neighb": 3783,
      "inert": 3784,
      "2500": 3785,
      "speeds": 3786,
      "##rict": 3787,
      "lot": 3788,
      "##edron": 3789,
      "foc": 3790,
      "players": 3791,
      "ris": 3792,
      "4s": 3793,
      "physics": 3794,
      "loss": 3795,
      "##lipping": 3796,
      "asymptote": 3797,
      "tall": 3798,
      "##roup": 3799,
      "b1": 3800,
      "1800": 3801,
      "nden": 3802,
      "2i": 3803,
      "epsilon": 3804,
      "dog": 3805,
      "measured": 3806,
      "##89": 3807,
      "pounds": 3808,
      "##eta": 3809,
      "quantity": 3810,
      "conflicting": 3811,
      "ndenominator": 3812,
      "torque": 3813,
      "eigenvalues": 3814,
      "lateral": 3815,
      "##nthes": 3816,
      "126": 3817,
      "transp": 3818,
      "removed": 3819,
      "mirror": 3820,
      "remove": 3821,
      "##rame": 3822,
      "outcome": 3823,
      "testing": 3824,
      "##ification": 3825,
      "composite": 3826,
      "##ost": 3827,
      "nx2": 3828,
      "misst": 3829,
      "masses": 3830,
      "npv": 3831,
      "instr": 3832,
      "handle": 3833,
      "appropriate": 3834,
      "replac": 3835,
      "said": 3836,
      "##38": 3837,
      "onto": 3838,
      "depend": 3839,
      "pizz": 3840,
      "star": 3841,
      "examples": 3842,
      "##order": 3843,
      "##dots": 3844,
      "leaves": 3845,
      "useful": 3846,
      "lay": 3847,
      "doub": 3848,
      "efficient": 3849,
      "nodes": 3850,
      "typically": 3851,
      "ste": 3852,
      "dise": 3853,
      "##ellow": 3854,
      "scaled": 3855,
      "cash": 3856,
      "internal": 3857,
      "affects": 3858,
      "##61": 3859,
      "bacteria": 3860,
      "kx": 3861,
      "##ium": 3862,
      "few": 3863,
      "night": 3864,
      "3600": 3865,
      "tails": 3866,
      "domin": 3867,
      "import": 3868,
      "##dy": 3869,
      "item": 3870,
      "n20": 3871,
      "dh": 3872,
      "yellow": 3873,
      "pmod": 3874,
      "orth": 3875,
      "purch": 3876,
      "ldots": 3877,
      "nu": 3878,
      "##t2": 3879,
      "nthat": 3880,
      "4x2": 3881,
      "cancels": 3882,
      "2p": 3883,
      "pv": 3884,
      "heart": 3885,
      "notation": 3886,
      "729": 3887,
      "conser": 3888,
      "allows": 3889,
      "appears": 3890,
      "##usive": 3891,
      "imagine": 3892,
      "essentially": 3893,
      "##27": 3894,
      "strict": 3895,
      "never": 3896,
      "candid": 3897,
      "parenthes": 3898,
      "subject": 3899,
      "incorrectly": 3900,
      "##atical": 3901,
      "mathematical": 3902,
      "imply": 3903,
      "triple": 3904,
      "checked": 3905,
      "nset": 3906,
      "n2x": 3907,
      "slow": 3908,
      "produces": 3909,
      "john": 3910,
      "bags": 3911,
      "6a": 3912,
      "frame": 3913,
      "involve": 3914,
      "machines": 3915,
      "2z": 3916,
      "##clear": 3917,
      "directions": 3918,
      "replace": 3919,
      "##roid": 3920,
      "nsqrt": 3921,
      "2016": 3922,
      "n15": 3923,
      "depart": 3924,
      "rewrite": 3925,
      "##umul": 3926,
      "demand": 3927,
      "polynomials": 3928,
      "careful": 3929,
      "defect": 3930,
      "quarter": 3931,
      "happens": 3932,
      "great": 3933,
      "324": 3934,
      "disease": 3935,
      "##anced": 3936,
      "club": 3937,
      "414": 3938,
      "transformation": 3939,
      "axes": 3940,
      "165": 3941,
      "u2": 3942,
      "ampl": 3943,
      "3c": 3944,
      "lowest": 3945,
      "fem": 3946,
      "conclude": 3947,
      "##79": 3948,
      "funda": 3949,
      "##rote": 3950,
      "index": 3951,
      "##ients": 3952,
      "study": 3953,
      "quart": 3954,
      "rs": 3955,
      "scenario": 3956,
      "2πr": 3957,
      "repeated": 3958,
      "##cks": 3959,
      "288": 3960,
      "closest": 3961,
      "fundamental": 3962,
      "168": 3963,
      "partition": 3964,
      "acceler": 3965,
      "deviations": 3966,
      "hydro": 3967,
      "comparing": 3968,
      "5y": 3969,
      "conduct": 3970,
      "d1": 3971,
      "##get": 3972,
      "4r": 3973,
      "figs": 3974,
      "array": 3975,
      "spent": 3976,
      "semic": 3977,
      "inertia": 3978,
      "dependent": 3979,
      "ideal": 3980,
      "##rons": 3981,
      "wheat": 3982,
      "computing": 3983,
      "##uler": 3984,
      "desired": 3985,
      "heron": 3986,
      "##ush": 3987,
      "involved": 3988,
      "nsame": 3989,
      "asked": 3990,
      "rotating": 3991,
      "imaginary": 3992,
      "##iding": 3993,
      "atoms": 3994,
      "labor": 3995,
      "ii": 3996,
      "nz": 3997,
      "##quid": 3998,
      "apart": 3999,
      "sectional": 4000,
      "liquid": 4001,
      "contro": 4002,
      "rather": 4003,
      "n16": 4004,
      "5000": 4005,
      "trees": 4006,
      "bat": 4007,
      "quot": 4008,
      "planet": 4009,
      "732": 4010,
      "##lor": 4011,
      "weights": 4012,
      "wrote": 4013,
      "config": 4014,
      "343": 4015,
      "##ability": 4016,
      "phot": 4017,
      "yards": 4018,
      "190": 4019,
      "simplest": 4020,
      "nit": 4021,
      "##vent": 4022,
      "nwhen": 4023,
      "focus": 4024,
      "hem": 4025,
      "cells": 4026,
      "##58": 4027,
      "thinking": 4028,
      "002": 4029,
      "3000": 4030,
      "##ccos": 4031,
      "170": 4032,
      "reduces": 4033,
      "wouldn": 4034,
      "rotated": 4035,
      "nmultiplying": 4036,
      "indu": 4037,
      "parentheses": 4038,
      "important": 4039,
      "kilom": 4040,
      "yi": 4041,
      "103": 4042,
      "pd": 4043,
      "grad": 4044,
      "nsubstitute": 4045,
      "ortho": 4046,
      "ao": 4047,
      "db": 4048,
      "store": 4049,
      "unclear": 4050,
      "upward": 4051,
      "bp": 4052,
      "balance": 4053,
      "slop": 4054,
      "640": 4055,
      "opens": 4056,
      "summar": 4057,
      "hemis": 4058,
      "wire": 4059,
      "theory": 4060,
      "coll": 4061,
      "paths": 4062,
      "pip": 4063,
      "goal": 4064,
      "##uded": 4065,
      "centroid": 4066,
      "doubling": 4067,
      "##31": 4068,
      "abd": 4069,
      "shel": 4070,
      "containing": 4071,
      "attach": 4072,
      "432": 4073,
      "sufficient": 4074,
      "paint": 4075,
      "fr": 4076,
      "nre": 4077,
      "expectation": 4078,
      "log2": 4079,
      "touching": 4080,
      "misstated": 4081,
      "nper": 4082,
      "spherical": 4083,
      "matters": 4084,
      "arccos": 4085,
      "conditional": 4086,
      "winning": 4087,
      "polar": 4088,
      "##co": 4089,
      "##anging": 4090,
      "arranging": 4091,
      "ef": 4092,
      "won": 4093,
      "missed": 4094,
      "subgroup": 4095,
      "##drical": 4096,
      "##ales": 4097,
      "body": 4098,
      "fewer": 4099,
      "cylindrical": 4100,
      "shell": 4101,
      "raised": 4102,
      "176": 4103,
      "bulbs": 4104,
      "dp": 4105,
      "010": 4106,
      "bill": 4107,
      "2e": 4108,
      "friend": 4109,
      "##enerate": 4110,
      "treat": 4111,
      "##ripetal": 4112,
      "quotient": 4113,
      "##iling": 4114,
      "520": 4115,
      "cb": 4116,
      "n25": 4117,
      "colored": 4118,
      "everywhere": 4119,
      "boundary": 4120,
      "chords": 4121,
      "gallon": 4122,
      "##83": 4123,
      "centripetal": 4124,
      "hyper": 4125,
      "tickets": 4126,
      "plant": 4127,
      "arg": 4128,
      "track": 4129,
      "sound": 4130,
      "oct": 4131,
      "manag": 4132,
      "logarithms": 4133,
      "##acci": 4134,
      "##oses": 4135,
      "conjugate": 4136,
      "##arrow": 4137,
      "turns": 4138,
      "observer": 4139,
      "##lish": 4140,
      "repetition": 4141,
      "##bonacci": 4142,
      "##aper": 4143,
      "##like": 4144,
      "code": 4145,
      "solved": 4146,
      "transl": 4147,
      "lens": 4148,
      "principal": 4149,
      "safe": 4150,
      "cycles": 4151,
      "instru": 4152,
      "##han": 4153,
      "intercepts": 4154,
      "enclo": 4155,
      "thick": 4156,
      "computed": 4157,
      "pois": 4158,
      "kilometers": 4159,
      "##iled": 4160,
      "signs": 4161,
      "fibonacci": 4162,
      "targ": 4163,
      "840": 4164,
      "east": 4165,
      "nright": 4166,
      "cell": 4167,
      "selling": 4168,
      "poisson": 4169,
      "##selves": 4170,
      "πr2h": 4171,
      "pract": 4172,
      "##oint": 4173,
      "##ident": 4174,
      "plot": 4175,
      "disk": 4176,
      "mv": 4177,
      "##iting": 4178,
      "medium": 4179,
      "achieved": 4180,
      "repeating": 4181,
      "station": 4182,
      "labeled": 4183,
      "##bitr": 4184,
      "nalso": 4185,
      "arbitr": 4186,
      "δt": 4187,
      "numerically": 4188,
      "isolate": 4189,
      "combinator": 4190,
      "uniformly": 4191,
      "arcsin": 4192,
      "euler": 4193,
      "customers": 4194,
      "easy": 4195,
      "tell": 4196,
      "endpoints": 4197,
      "lang": 4198,
      "mathcal": 4199,
      "entries": 4200,
      "issue": 4201,
      "decay": 4202,
      "pred": 4203,
      "triples": 4204,
      "applies": 4205,
      "3π": 4206,
      "##34": 4207,
      "themselves": 4208,
      "hemisphere": 4209,
      "weigh": 4210,
      "langu": 4211,
      "strictly": 4212,
      "market": 4213,
      "fair": 4214,
      "2xy": 4215,
      "nter": 4216,
      "##icity": 4217,
      "pizza": 4218,
      "progression": 4219,
      "nday": 4220,
      "##umulative": 4221,
      "book": 4222,
      "patients": 4223,
      "income": 4224,
      "famil": 4225,
      "experim": 4226,
      "defective": 4227,
      "##ths": 4228,
      "electron": 4229,
      "clearly": 4230,
      "messed": 4231,
      "cumulative": 4232,
      "compared": 4233,
      "slopes": 4234,
      "##52": 4235,
      "230": 4236,
      "returns": 4237,
      "span": 4238,
      "degenerate": 4239,
      "denot": 4240,
      "osc": 4241,
      "##fall": 4242,
      "sines": 4243,
      "choc": 4244,
      "##plic": 4245,
      "semicircle": 4246,
      "bir": 4247,
      "tiles": 4248,
      "parameter": 4249,
      "linearly": 4250,
      "4t": 4251,
      "contributes": 4252,
      "reject": 4253,
      "duplic": 4254,
      "injective": 4255,
      "unlike": 4256,
      "n11": 4257,
      "particles": 4258,
      "315": 4259,
      "amplitude": 4260,
      "diam": 4261,
      "ben": 4262,
      "producing": 4263,
      "p0": 4264,
      "156": 4265,
      "##ital": 4266,
      "basis": 4267,
      "coup": 4268,
      "6667": 4269,
      "##uit": 4270,
      "bond": 4271,
      "##ket": 4272,
      "moon": 4273,
      "uniquely": 4274,
      "##42": 4275,
      "ntaking": 4276,
      "##echn": 4277,
      "statist": 4278,
      "concave": 4279,
      "continuity": 4280,
      "260": 4281,
      "##333": 4282,
      "strateg": 4283,
      "2f": 4284,
      "127": 4285,
      "external": 4286,
      "##anges": 4287,
      "1296": 4288,
      "abcd": 4289,
      "kt": 4290,
      "##app": 4291,
      "orient": 4292,
      "00000": 4293,
      "vieta": 4294,
      "subsequent": 4295,
      "quartic": 4296,
      "picking": 4297,
      "##pa": 4298,
      "neut": 4299,
      "forming": 4300,
      "carbon": 4301,
      "singular": 4302,
      "##82": 4303,
      "techn": 4304,
      "109": 4305,
      "##63": 4306,
      "104": 4307,
      "bob": 4308,
      "household": 4309,
      "nle": 4310,
      "suit": 4311,
      "trial": 4312,
      "2400": 4313,
      "recalcul": 4314,
      "misc": 4315,
      "pool": 4316,
      "argum": 4317,
      "##ining": 4318,
      "##ances": 4319,
      "rope": 4320,
      "basic": 4321,
      "##ern": 4322,
      "866": 4323,
      "252": 4324,
      "trail": 4325,
      "##vert": 4326,
      "fractional": 4327,
      "flo": 4328,
      "oxy": 4329,
      "oscill": 4330,
      "bad": 4331,
      "map": 4332,
      "possibility": 4333,
      "statistic": 4334,
      "kilog": 4335,
      "stret": 4336,
      "440": 4337,
      "bud": 4338,
      "gm": 4339,
      "s3": 4340,
      "diagram": 4341,
      "##sing": 4342,
      "alice": 4343,
      "acting": 4344,
      "##ball": 4345,
      "mixture": 4346,
      "mathematically": 4347,
      "cents": 4348,
      "cyclic": 4349,
      "subm": 4350,
      "gold": 4351,
      "vice": 4352,
      "carry": 4353,
      "took": 4354,
      "9b": 4355,
      "##ience": 4356,
      "380": 4357,
      "1600": 4358,
      "integration": 4359,
      "recalculate": 4360,
      "faster": 4361,
      "limits": 4362,
      "flip": 4363,
      "##ysis": 4364,
      "monthly": 4365,
      "target": 4366,
      "cakes": 4367,
      "greatest": 4368,
      "nleft": 4369,
      "##91": 4370,
      "f1": 4371,
      "collect": 4372,
      "shadow": 4373,
      "nice": 4374,
      "##elace": 4375,
      "reciprocals": 4376,
      "engine": 4377,
      "##atures": 4378,
      "yet": 4379,
      "tells": 4380,
      "##soci": 4381,
      "optimal": 4382,
      "340": 4383,
      "f2": 4384,
      "slic": 4385,
      "imm": 4386,
      "converting": 4387,
      "alex": 4388,
      "rev": 4389,
      "eight": 4390,
      "365": 4391,
      "stock": 4392,
      "unlikely": 4393,
      "reduced": 4394,
      "s1": 4395,
      "rhomb": 4396,
      "released": 4397,
      "##ibility": 4398,
      "##h2": 4399,
      "10000": 4400,
      "nterpreting": 4401,
      "πr": 4402,
      "nab": 4403,
      "142": 4404,
      "2θ": 4405,
      "traveling": 4406,
      "236": 4407,
      "representation": 4408,
      "##ology": 4409,
      "thous": 4410,
      "south": 4411,
      "summary": 4412,
      "characteristic": 4413,
      "attached": 4414,
      "pole": 4415,
      "chem": 4416,
      "excluded": 4417,
      "crosses": 4418,
      "palindrome": 4419,
      "oxygen": 4420,
      "hence": 4421,
      "sup": 4422,
      "flat": 4423,
      "tasks": 4424,
      "rhombus": 4425,
      "gen": 4426,
      "162": 4427,
      "560": 4428,
      "##ifies": 4429,
      "levels": 4430,
      "successes": 4431,
      "analysis": 4432,
      "aligned": 4433,
      "orders": 4434,
      "cutting": 4435,
      "trigonometric": 4436,
      "gl": 4437,
      "##most": 4438,
      "tra": 4439,
      "ship": 4440,
      "que": 4441,
      "simply": 4442,
      "shoelace": 4443,
      "e2": 4444,
      "extre": 4445,
      "control": 4446,
      "curves": 4447,
      "##ancy": 4448,
      "nac": 4449,
      "ring": 4450,
      "stretch": 4451,
      "##erator": 4452,
      "selection": 4453,
      "effici": 4454,
      "008": 4455,
      "##37": 4456,
      "infect": 4457,
      "integrate": 4458,
      "designed": 4459,
      "orthogon": 4460,
      "home": 4461,
      "4c": 4462,
      "##ew": 4463,
      "against": 4464,
      "##54": 4465,
      "##echan": 4466,
      "##ories": 4467,
      "##erge": 4468,
      "matching": 4469,
      "recursive": 4470,
      "5a": 4471,
      "stay": 4472,
      "mixed": 4473,
      "translation": 4474,
      "triplets": 4475,
      "obtained": 4476,
      "refers": 4477,
      "piv": 4478,
      "mechan": 4479,
      "explain": 4480,
      "followed": 4481,
      "predic": 4482,
      "rho": 4483,
      "coff": 4484,
      "##mbol": 4485,
      "ndividing": 4486,
      "freed": 4487,
      "parametric": 4488,
      "hundreds": 4489,
      "tension": 4490,
      "symbol": 4491,
      "become": 4492,
      "##ides": 4493,
      "proof": 4494,
      "slip": 4495,
      "003": 4496,
      "summing": 4497,
      "##iving": 4498,
      "saving": 4499,
      "mentioned": 4500,
      "freedom": 4501,
      "0001": 4502,
      "2v": 4503,
      "earn": 4504,
      "525": 4505,
      "##62": 4506,
      "##orph": 4507,
      "fru": 4508,
      "complicate": 4509,
      "cla": 4510,
      "dro": 4511,
      "occup": 4512,
      "rt": 4513,
      "##aneous": 4514,
      "covers": 4515,
      "coffee": 4516,
      "enter": 4517,
      "distributions": 4518,
      "muff": 4519,
      "##inomial": 4520,
      "intens": 4521,
      "##ares": 4522,
      "stars": 4523,
      "152": 4524,
      "n18": 4525,
      "rainfall": 4526,
      "n13": 4527,
      "##uted": 4528,
      "checking": 4529,
      "##urses": 4530,
      "budget": 4531,
      "slices": 4532,
      "measurements": 4533,
      "grows": 4534,
      "o2": 4535,
      "##uture": 4536,
      "##mming": 4537,
      "heights": 4538,
      "baker": 4539,
      "er": 4540,
      "norigin": 4541,
      "4m": 4542,
      "rab": 4543,
      "w2": 4544,
      "pivot": 4545,
      "##hedron": 4546,
      "cdots": 4547,
      "label": 4548,
      "325": 4549,
      "aut": 4550,
      "future": 4551,
      "convergence": 4552,
      "efficiency": 4553,
      "rent": 4554,
      "maint": 4555,
      "##els": 4556,
      "working": 4557,
      "sections": 4558,
      "parameters": 4559,
      "orthogonal": 4560,
      "6k": 4561,
      "drop": 4562,
      "courses": 4563,
      "newton": 4564,
      "2g": 4565,
      "periodic": 4566,
      "restrictions": 4567,
      "transfer": 4568,
      "trips": 4569,
      "020": 4570,
      "147": 4571,
      "family": 4572,
      "nope": 4573,
      "330": 4574,
      "displac": 4575,
      "noriginal": 4576,
      "##cket": 4577,
      "progra": 4578,
      "stops": 4579,
      "strategy": 4580,
      "998": 4581,
      "16π": 4582,
      "##igible": 4583,
      "patient": 4584,
      "progress": 4585,
      "ohms": 4586,
      "##bits": 4587,
      "reduce": 4588,
      "versa": 4589,
      "3w": 4590,
      "aob": 4591,
      "effective": 4592,
      "unc": 4593,
      "255": 4594,
      "##uge": 4595,
      "manip": 4596,
      "##hic": 4597,
      "vehic": 4598,
      "nterm": 4599,
      "paid": 4600,
      "parse": 4601,
      "turning": 4602,
      "evaluated": 4603,
      "lw": 4604,
      "##tons": 4605,
      "n30": 4606,
      "reflecting": 4607,
      "strings": 4608,
      "nmay": 4609,
      "pipe": 4610,
      "participants": 4611,
      "##c2": 4612,
      "##uish": 4613,
      "##ork": 4614,
      "switches": 4615,
      "beam": 4616,
      "nch": 4617,
      "entry": 4618,
      "projection": 4619,
      "started": 4620,
      "384": 4621,
      "avoid": 4622,
      "candidate": 4623,
      "slice": 4624,
      "payment": 4625,
      "liter": 4626,
      "rules": 4627,
      "reass": 4628,
      "periods": 4629,
      "040": 4630,
      "termin": 4631,
      "adult": 4632,
      "swap": 4633,
      "6x2": 4634,
      "committee": 4635,
      "##ath": 4636,
      "198": 4637,
      "planes": 4638,
      "sale": 4639,
      "880": 4640,
      "##iss": 4641,
      "spac": 4642,
      "etween": 4643,
      "thickness": 4644,
      "seat": 4645,
      "##ried": 4646,
      "replacing": 4647,
      "##how": 4648,
      "##aylor": 4649,
      "spread": 4650,
      "scored": 4651,
      "latt": 4652,
      "claim": 4653,
      "117": 4654,
      "denoted": 4655,
      "bon": 4656,
      "extend": 4657,
      "chocolate": 4658,
      "5n": 4659,
      "taylor": 4660,
      "##ses": 4661,
      "notice": 4662,
      "reassuring": 4663,
      "##licit": 4664,
      "dogs": 4665,
      "289": 4666,
      "experiment": 4667,
      "nmaybe": 4668,
      "q2": 4669,
      "colorings": 4670,
      "674": 4671,
      "ban": 4672,
      "dθ": 4673,
      "metal": 4674,
      "compar": 4675,
      "ntake": 4676,
      "550": 4677,
      "pb": 4678,
      "136": 4679,
      "298": 4680,
      "logic": 4681,
      "nhowever": 4682,
      "##y2": 4683,
      "##uses": 4684,
      "119": 4685,
      "land": 4686,
      "somehow": 4687,
      "med": 4688,
      "oun": 4689,
      "nnumerator": 4690,
      "muffins": 4691,
      "143": 4692,
      "flag": 4693,
      "walk": 4694,
      "apo": 4695,
      "psi": 4696,
      "refrac": 4697,
      "assignments": 4698,
      "skip": 4699,
      "cause": 4700,
      "##anged": 4701,
      "##uel": 4702,
      "##traction": 4703,
      "discrete": 4704,
      "layer": 4705,
      "df": 4706,
      "compact": 4707,
      "shap": 4708,
      "ign": 4709,
      "##bound": 4710,
      "##rodu": 4711,
      "##apor": 4712,
      "cups": 4713,
      "preferred": 4714,
      "carefully": 4715,
      "atmos": 4716,
      "risk": 4717,
      "counted": 4718,
      "hydrogen": 4719,
      "##raph": 4720,
      "n24": 4721,
      "3z": 4722,
      "hom": 4723,
      "##orts": 4724,
      "##urse": 4725,
      "006": 4726,
      "nhere": 4727,
      "percentages": 4728,
      "evaluating": 4729,
      "##ison": 4730,
      "draws": 4731,
      "talking": 4732,
      "converted": 4733,
      "nass": 4734,
      "inclusive": 4735,
      "removing": 4736,
      "examine": 4737,
      "##encies": 4738,
      "8a": 4739,
      "push": 4740,
      "2x3": 4741,
      "##ouses": 4742,
      "consists": 4743,
      "ncos": 4744,
      "4000": 4745,
      "630": 4746,
      "flux": 4747,
      "apoth": 4748,
      "20x": 4749,
      "195": 4750,
      "rotate": 4751,
      "girl": 4752,
      "votes": 4753,
      "##inguish": 4754,
      "opening": 4755,
      "weeks": 4756,
      "art": 4757,
      "eorem": 4758,
      "kn": 4759,
      "adv": 4760,
      "decreased": 4761,
      "bisect": 4762,
      "diverges": 4763,
      "configuration": 4764,
      "apothem": 4765,
      "5w": 4766,
      "appear": 4767,
      "displaced": 4768,
      "alternative": 4769,
      "resp": 4770,
      "cool": 4771,
      "275": 4772,
      "argument": 4773,
      "immedi": 4774,
      "nrow": 4775,
      "336": 4776,
      "programming": 4777,
      "##ived": 4778,
      "##akes": 4779,
      "lattice": 4780,
      "a4": 4781,
      "met": 4782,
      "alloc": 4783,
      "ax2": 4784,
      "l1": 4785,
      "4x4": 4786,
      "bakery": 4787,
      "page": 4788,
      "ticket": 4789,
      "mut": 4790,
      "warm": 4791,
      "n100": 4792,
      "load": 4793,
      "forward": 4794,
      "circuit": 4795,
      "290": 4796,
      "savings": 4797,
      "infl": 4798,
      "##itud": 4799,
      "mn": 4800,
      "nyear": 4801,
      "discon": 4802,
      "##uation": 4803,
      "dish": 4804,
      "n14": 4805,
      "nπ": 4806,
      "associ": 4807,
      "tests": 4808,
      "nyep": 4809,
      "184": 4810,
      "resear": 4811,
      "algebraic": 4812,
      "obtuse": 4813,
      "pul": 4814,
      "slipping": 4815,
      "##29": 4816,
      "research": 4817,
      "corre": 4818,
      "##encing": 4819,
      "elimination": 4820,
      "##velo": 4821,
      "normally": 4822,
      "ut": 4823,
      "course": 4824,
      "mathematics": 4825,
      "duplicates": 4826,
      "door": 4827,
      "1001": 4828,
      "##cial": 4829,
      "##esian": 4830,
      "favorite": 4831,
      "##olution": 4832,
      "015": 4833,
      "excluding": 4834,
      "shirt": 4835,
      "##fact": 4836,
      "supplement": 4837,
      "fuel": 4838,
      "##ider": 4839,
      "worth": 4840,
      "6931": 4841,
      "ending": 4842,
      "category": 4843,
      "clockwise": 4844,
      "hearts": 4845,
      "factorials": 4846,
      "party": 4847,
      "objective": 4848,
      "760": 4849,
      "##ivers": 4850,
      "acd": 4851,
      "na2": 4852,
      "##center": 4853,
      "##ogene": 4854,
      "bran": 4855,
      "ω2": 4856,
      "116": 4857,
      "indist": 4858,
      "behind": 4859,
      "committees": 4860,
      "##ligible": 4861,
      "deep": 4862,
      "negligible": 4863,
      "exceeds": 4864,
      "shirts": 4865,
      "##ulate": 4866,
      "4h": 4867,
      "paper": 4868,
      "che": 4869,
      "plate": 4870,
      "tried": 4871,
      "650": 4872,
      "summarize": 4873,
      "mx": 4874,
      "birds": 4875,
      "pc": 4876,
      "limited": 4877,
      "##ws": 4878,
      "106": 4879,
      "rolled": 4880,
      "##oy": 4881,
      "reversing": 4882,
      "expanded": 4883,
      "5t": 4884,
      "##ather": 4885,
      "focal": 4886,
      "##bs": 4887,
      "npro": 4888,
      "flows": 4889,
      "h0": 4890,
      "k1": 4891,
      "shares": 4892,
      "##erged": 4893,
      "##word": 4894,
      "tom": 4895,
      "arbitrary": 4896,
      "##5625": 4897,
      "operator": 4898,
      "5π": 4899,
      "spaces": 4900,
      "parity": 4901,
      "capacit": 4902,
      "trace": 4903,
      "contribute": 4904,
      "##81": 4905,
      "format": 4906,
      "1e": 4907,
      "jump": 4908,
      "ages": 4909,
      "electrons": 4910,
      "kj": 4911,
      "5040": 4912,
      "decel": 4913,
      "##atically": 4914,
      "recognizing": 4915,
      "##idence": 4916,
      "af": 4917,
      "beginning": 4918,
      "##iar": 4919,
      "animal": 4920,
      "horizontally": 4921,
      "rationalize": 4922,
      "finish": 4923,
      "199": 4924,
      "medians": 4925,
      "varies": 4926,
      "gaps": 4927,
      "messy": 4928,
      "##spect": 4929,
      "2017": 4930,
      "multiplicative": 4931,
      "6s": 4932,
      "houses": 4933,
      "##tive": 4934,
      "##ometric": 4935,
      "wanted": 4936,
      "sells": 4937,
      "pdf": 4938,
      "q1": 4939,
      "quick": 4940,
      "reference": 4941,
      "labels": 4942,
      "resistor": 4943,
      "828": 4944,
      "toss": 4945,
      "assigning": 4946,
      "familiar": 4947,
      "intensity": 4948,
      "##x3": 4949,
      "nconvert": 4950,
      "autom": 4951,
      "6y": 4952,
      "##vable": 4953,
      "precisely": 4954,
      "modulus": 4955,
      "balanced": 4956,
      "households": 4957,
      "##vers": 4958,
      "accordingly": 4959,
      "tip": 4960,
      "x̄": 4961,
      "vertically": 4962,
      "neighbor": 4963,
      "098": 4964,
      "##case": 4965,
      "lock": 4966,
      "gradi": 4967,
      "birth": 4968,
      "submerged": 4969,
      "495": 4970,
      "hyperb": 4971,
      "partitions": 4972,
      "manu": 4973,
      "speak": 4974,
      "presented": 4975,
      "female": 4976,
      "subtraction": 4977,
      "verified": 4978,
      "misinterpre": 4979,
      "manufact": 4980,
      "conversion": 4981,
      "bigger": 4982,
      "oc": 4983,
      "perfectly": 4984,
      "##arant": 4985,
      "##oles": 4986,
      "166": 4987,
      "guarant": 4988,
      "charges": 4989,
      "sin2θ": 4990,
      "subtended": 4991,
      "##ogeneous": 4992,
      "y0": 4993,
      "acb": 4994,
      "confidently": 4995,
      "miscalcul": 4996,
      "cities": 4997,
      "pen": 4998,
      "flips": 4999,
      "shifted": 5000,
      "4w": 5001,
      "strong": 5002,
      "3i": 5003,
      "divisibility": 5004,
      "doubles": 5005,
      "generated": 5006,
      "decimals": 5007,
      "english": 5008,
      "exert": 5009,
      "1080": 5010,
      "rob": 5011,
      "located": 5012,
      "024": 5013,
      "598": 5014,
      "114": 5015,
      "inflow": 5016,
      "multinomial": 5017,
      "eu": 5018,
      "##51": 5019,
      "nwell": 5020,
      "specifies": 5021,
      "392": 5022,
      "piecewise": 5023,
      "bars": 5024,
      "cat": 5025,
      "pens": 5026,
      "202": 5027,
      "acid": 5028,
      "##itudes": 5029,
      "ranges": 5030,
      "sil": 5031,
      "science": 5032,
      "department": 5033,
      "##ann": 5034,
      "##utting": 5035,
      "mag": 5036,
      "n36": 5037,
      "elev": 5038,
      "togg": 5039,
      "induction": 5040,
      "h1": 5041,
      "port": 5042,
      "oil": 5043,
      "t3": 5044,
      "transition": 5045,
      "kilograms": 5046,
      "##nt": 5047,
      "stating": 5048,
      "122": 5049,
      "orbital": 5050,
      "nputting": 5051,
      "##tin": 5052,
      "alone": 5053,
      "##nthetic": 5054,
      "connects": 5055,
      "5d": 5056,
      "thrown": 5057,
      "synthetic": 5058,
      "0625": 5059,
      "distinguish": 5060,
      "bip": 5061,
      "##cules": 5062,
      "breaking": 5063,
      "individually": 5064,
      "differentiable": 5065,
      "ol": 5066,
      "##vice": 5067,
      "effectively": 5068,
      "molecules": 5069,
      "##la": 5070,
      "mind": 5071,
      "measurement": 5072,
      "5b": 5073,
      "ah": 5074,
      "belie": 5075,
      "231": 5076,
      "recalling": 5077,
      "constructed": 5078,
      "expressing": 5079,
      "shelf": 5080,
      "running": 5081,
      "extreme": 5082,
      "590": 5083,
      "124": 5084,
      "temperatures": 5085,
      "creating": 5086,
      "repeat": 5087,
      "exclude": 5088,
      "nine": 5089,
      "doing": 5090,
      "##ressed": 5091,
      "writing": 5092,
      "rounds": 5093,
      "eat": 5094,
      "youn": 5095,
      "n3x": 5096,
      "derived": 5097,
      "314": 5098,
      "yield": 5099,
      "ounces": 5100,
      "approximated": 5101,
      "mod3": 5102,
      "nln": 5103,
      "stack": 5104,
      "introdu": 5105,
      "133": 5106,
      "simplicity": 5107,
      "##ops": 5108,
      "hit": 5109,
      "derive": 5110,
      "rooms": 5111,
      "i2": 5112,
      "##ounting": 5113,
      "doubled": 5114,
      "purchase": 5115,
      "fold": 5116,
      "assumes": 5117,
      "optim": 5118,
      "cream": 5119,
      "asymptot": 5120,
      "magic": 5121,
      "unbound": 5122,
      "nfour": 5123,
      "converge": 5124,
      "therm": 5125,
      "##ler": 5126,
      "sens": 5127,
      "##a2": 5128,
      "113": 5129,
      "happening": 5130,
      "language": 5131,
      "980": 5132,
      "assumed": 5133,
      "##etch": 5134,
      "truck": 5135,
      "neighbors": 5136,
      "correlation": 5137,
      "unbounded": 5138,
      "185": 5139,
      "attain": 5140,
      "gradient": 5141,
      "socks": 5142,
      "circumscribed": 5143,
      "gaus": 5144,
      "cot": 5145,
      "spend": 5146,
      "adc": 5147,
      "volum": 5148,
      "misapp": 5149,
      "commut": 5150,
      "##ivative": 5151,
      "super": 5152,
      "5s": 5153,
      "##kets": 5154,
      "##ime": 5155,
      "441": 5156,
      "rightarrow": 5157,
      "n17": 5158,
      "simult": 5159,
      "moved": 5160,
      "5m": 5161,
      "ace": 5162,
      "polyg": 5163,
      "5625": 5164,
      "guests": 5165,
      "precision": 5166,
      "pump": 5167,
      "intersecting": 5168,
      "050": 5169,
      "circumradius": 5170,
      "rangle": 5171,
      "##circle": 5172,
      "worked": 5173,
      "##eric": 5174,
      "outf": 5175,
      "contexts": 5176,
      "noting": 5177,
      "food": 5178,
      "purp": 5179,
      "simultaneous": 5180,
      "##oes": 5181,
      "volumes": 5182,
      "dest": 5183,
      "##wed": 5184,
      "972": 5185,
      "basket": 5186,
      "ncheck": 5187,
      "714": 5188,
      "##agr": 5189,
      "mixing": 5190,
      "cartesian": 5191,
      "##etri": 5192,
      "receive": 5193,
      "peak": 5194,
      "8000": 5195,
      "charlie": 5196,
      "sched": 5197,
      "indicates": 5198,
      "ir": 5199,
      "nboth": 5200,
      "2sqrt": 5201,
      "maintain": 5202,
      "vapor": 5203,
      "post": 5204,
      "1440": 5205,
      "inversely": 5206,
      "nfourth": 5207,
      "polygons": 5208,
      "rid": 5209,
      "##gan": 5210,
      "stays": 5211,
      "growing": 5212,
      "indistinct": 5213,
      "pure": 5214,
      "3125": 5215,
      "workers": 5216,
      "discrep": 5217,
      "6t": 5218,
      "son": 5219,
      "189": 5220,
      "850": 5221,
      "abe": 5222,
      "bf": 5223,
      "substance": 5224,
      "circumcircle": 5225,
      "bed": 5226,
      "n19": 5227,
      "8π": 5228,
      "ncalculate": 5229,
      "ncombining": 5230,
      "atomic": 5231,
      "bipart": 5232,
      "tile": 5233,
      "ωt": 5234,
      "n40": 5235,
      "models": 5236,
      "reflex": 5237,
      "shared": 5238,
      "portion": 5239,
      "lost": 5240,
      "runs": 5241,
      "wheel": 5242,
      "radial": 5243,
      "3p": 5244,
      "nas": 5245,
      "##nam": 5246,
      "coil": 5247,
      "16x": 5248,
      "worry": 5249,
      "observed": 5250,
      "influ": 5251,
      "cov": 5252,
      "curved": 5253,
      "classes": 5254,
      "explan": 5255,
      "504": 5256,
      "rotations": 5257,
      "eucl": 5258,
      "simultaneously": 5259,
      "##inear": 5260,
      "equality": 5261,
      "##lete": 5262,
      "416": 5263,
      "273": 5264,
      "##reng": 5265,
      "tangency": 5266,
      "interested": 5267,
      "5th": 5268,
      "extens": 5269,
      "graphs": 5270,
      "datas": 5271,
      "alternating": 5272,
      "mic": 5273,
      "induct": 5274,
      "manage": 5275,
      "raise": 5276,
      "##board": 5277,
      "##ergeometric": 5278,
      "respon": 5279,
      "male": 5280,
      "streng": 5281,
      "mod7": 5282,
      "hypergeometric": 5283,
      "857": 5284,
      "bipartite": 5285,
      "3h": 5286,
      "4z": 5287,
      "182": 5288,
      "cdf": 5289,
      "curv": 5290,
      "continues": 5291,
      "joules": 5292,
      "##ked": 5293,
      "discard": 5294,
      "cx": 5295,
      "##verse": 5296,
      "shouldn": 5297,
      "012": 5298,
      "orientation": 5299,
      "3m": 5300,
      "##osition": 5301,
      "extended": 5302,
      "bonus": 5303,
      "discrepancy": 5304,
      "tons": 5305,
      "tables": 5306,
      "tower": 5307,
      "##9375": 5308,
      "diamond": 5309,
      "fencing": 5310,
      "##omorph": 5311,
      "factory": 5312,
      "403": 5313,
      "subtracted": 5314,
      "teachers": 5315,
      "elevator": 5316,
      "computer": 5317,
      "differentiate": 5318,
      "##icult": 5319,
      "perimeters": 5320,
      "transport": 5321,
      "0x": 5322,
      "langle": 5323,
      "difficult": 5324,
      "additive": 5325,
      "reflected": 5326,
      "bcd": 5327,
      "intersections": 5328,
      "tends": 5329,
      "##avity": 5330,
      "##ordered": 5331,
      "chemical": 5332,
      "vir": 5333,
      "##hood": 5334,
      "explanation": 5335,
      "a0": 5336,
      "##idean": 5337,
      "385": 5338,
      "woman": 5339,
      "euclidean": 5340,
      "0s": 5341,
      "tet": 5342,
      "iter": 5343,
      "155": 5344,
      "456": 5345,
      "subsp": 5346,
      "045": 5347,
      "classic": 5348,
      "provides": 5349,
      "sketch": 5350,
      "##istant": 5351,
      "##bal": 5352,
      "##work": 5353,
      "subst": 5354,
      "##duc": 5355,
      "221": 5356,
      "##mpling": 5357,
      "204": 5358,
      "##liers": 5359,
      "n50": 5360,
      "completely": 5361,
      "absor": 5362,
      "individuals": 5363,
      "later": 5364,
      "299": 5365,
      "##linear": 5366,
      "proportionality": 5367,
      "applicable": 5368,
      "##matic": 5369,
      "co2": 5370,
      "249": 5371,
      "916": 5372,
      "egg": 5373,
      "plants": 5374,
      "completing": 5375,
      "strength": 5376,
      "nq": 5377,
      "##39": 5378,
      "##arch": 5379,
      "sampling": 5380,
      "ecause": 5381,
      "mr": 5382,
      "##orted": 5383,
      "doct": 5384,
      "sorted": 5385,
      "628": 5386,
      "explicit": 5387,
      "users": 5388,
      "118": 5389,
      "264": 5390,
      "ignore": 5391,
      "flipping": 5392,
      "lose": 5393,
      "vie": 5394,
      "θ2": 5395,
      "##uch": 5396,
      "4096": 5397,
      "reduction": 5398,
      "205": 5399,
      "245": 5400,
      "colle": 5401,
      "048": 5402,
      "properly": 5403,
      "banan": 5404,
      "λ2": 5405,
      "##tle": 5406,
      "totaling": 5407,
      "movement": 5408,
      "irre": 5409,
      "ur": 5410,
      "107": 5411,
      "numerators": 5412,
      "##br": 5413,
      "3333": 5414,
      "##oring": 5415,
      "##aries": 5416,
      "rise": 5417,
      "##875": 5418,
      "390": 5419,
      "composed": 5420,
      "tetra": 5421,
      "respective": 5422,
      "indicating": 5423,
      "led": 5424,
      "rout": 5425,
      "##ope": 5426,
      "integrals": 5427,
      "currently": 5428,
      "physical": 5429,
      "supplementary": 5430,
      "variation": 5431,
      "country": 5432,
      "him": 5433,
      "hird": 5434,
      "qr": 5435,
      "##ones": 5436,
      "painting": 5437,
      "1x1": 5438,
      "nassum": 5439,
      "##omm": 5440,
      "substring": 5441,
      "##na": 5442,
      "129": 5443,
      "ceiling": 5444,
      "rabbits": 5445,
      "sod": 5446,
      "standing": 5447,
      "##iderivative": 5448,
      "watch": 5449,
      "finally": 5450,
      "224": 5451,
      "coinc": 5452,
      "smo": 5453,
      "997": 5454,
      "relationships": 5455,
      "overlaps": 5456,
      "fluid": 5457,
      "nassuming": 5458,
      "##orn": 5459,
      "004": 5460,
      "confusion": 5461,
      "instruction": 5462,
      "king": 5463,
      "recursion": 5464,
      "collision": 5465,
      "thousands": 5466,
      "575": 5467,
      "sent": 5468,
      "nsqu": 5469,
      "univers": 5470,
      "past": 5471,
      "elevation": 5472,
      "eb": 5473,
      "pt": 5474,
      "sever": 5475,
      "##ills": 5476,
      "9999": 5477,
      "received": 5478,
      "197": 5479,
      "multiplicity": 5480,
      "##feit": 5481,
      "fence": 5482,
      "##zz": 5483,
      "##lockwise": 5484,
      "##cos": 5485,
      "208": 5486,
      "correction": 5487,
      "ac2": 5488,
      "24x": 5489,
      "##tending": 5490,
      "rewritten": 5491,
      "4d": 5492,
      "brac": 5493,
      "##vant": 5494,
      "242": 5495,
      "137": 5496,
      "ndistance": 5497,
      "surfaces": 5498,
      "systems": 5499,
      "weighted": 5500,
      "##velop": 5501,
      "duration": 5502,
      "west": 5503,
      "counterfeit": 5504,
      "curvature": 5505,
      "3e": 5506,
      "460": 5507,
      "hits": 5508,
      "kine": 5509,
      "vac": 5510,
      "222": 5511,
      "kinematic": 5512,
      "##cule": 5513,
      "337": 5514,
      "swapping": 5515,
      "784": 5516,
      "combinatorics": 5517,
      "manageable": 5518,
      "perspect": 5519,
      "032": 5520,
      "cats": 5521,
      "ago": 5522,
      "contact": 5523,
      "directed": 5524,
      "b3": 5525,
      "scales": 5526,
      "##02": 5527,
      "amounts": 5528,
      "strange": 5529,
      "males": 5530,
      "##over": 5531,
      "quantities": 5532,
      "manipulate": 5533,
      "##umin": 5534,
      "157": 5535,
      "##iors": 5536,
      "heavi": 5537,
      "specifying": 5538,
      "cuts": 5539,
      "777": 5540,
      "motor": 5541,
      "operating": 5542,
      "##ropy": 5543,
      "##unding": 5544,
      "interm": 5545,
      "976": 5546,
      "placing": 5547,
      "ensuring": 5548,
      "molecule": 5549,
      "cos2θ": 5550,
      "huge": 5551,
      "manually": 5552,
      "conservation": 5553,
      "##urer": 5554,
      "observ": 5555,
      "grade": 5556,
      "esc": 5557,
      "##sceles": 5558,
      "sosceles": 5559,
      "organ": 5560,
      "11x": 5561,
      "294": 5562,
      "determining": 5563,
      "scenarios": 5564,
      "distinguishable": 5565,
      "792": 5566,
      "prior": 5567,
      "trailing": 5568,
      "glass": 5569,
      "response": 5570,
      "##b2": 5571,
      "truth": 5572,
      "noh": 5573,
      "existing": 5574,
      "dataset": 5575,
      "4i": 5576,
      "glo": 5577,
      "##ov": 5578,
      "soft": 5579,
      "unordered": 5580,
      "odds": 5581,
      "entropy": 5582,
      "log10": 5583,
      "##acters": 5584,
      "2010": 5585,
      "characters": 5586,
      "van": 5587,
      "##af": 5588,
      "321": 5589,
      "typical": 5590,
      "rearranging": 5591,
      "homogeneous": 5592,
      "cab": 5593,
      "song": 5594,
      "##zing": 5595,
      "187": 5596,
      "177": 5597,
      "428": 5598,
      "##ortions": 5599,
      "strip": 5600,
      "walls": 5601,
      "smooth": 5602,
      "cli": 5603,
      "mer": 5604,
      "prom": 5605,
      "##unch": 5606,
      "296": 5607,
      "insert": 5608,
      "photon": 5609,
      "older": 5610,
      "recon": 5611,
      "##pole": 5612,
      "π2": 5613,
      "##rounding": 5614,
      "ab2": 5615,
      "shown": 5616,
      "colinear": 5617,
      "proportions": 5618,
      "grouping": 5619,
      "talk": 5620,
      "guarantee": 5621,
      "680": 5622,
      "ds": 5623,
      "k3": 5624,
      "mel": 5625,
      "maps": 5626,
      "131": 5627,
      "310": 5628,
      "464": 5629,
      "radical": 5630,
      "##olding": 5631,
      "##sian": 5632,
      "285": 5633,
      "πr3": 5634,
      "990": 5635,
      "234": 5636,
      "treatment": 5637,
      "automatically": 5638,
      "648": 5639,
      "drink": 5640,
      "718": 5641,
      "intern": 5642,
      "complicates": 5643,
      "materials": 5644,
      "residue": 5645,
      "##uchy": 5646,
      "##ift": 5647,
      "##ably": 5648,
      "access": 5649,
      "marks": 5650,
      "stationary": 5651,
      "2ac": 5652,
      "cp": 5653,
      "##ribe": 5654,
      "separated": 5655,
      "teacher": 5656,
      "park": 5657,
      "sixth": 5658,
      "instructions": 5659,
      "fruits": 5660,
      "515": 5661,
      "hot": 5662,
      "almost": 5663,
      "##rier": 5664,
      "265": 5665,
      "2a2": 5666,
      "flight": 5667,
      "cauchy": 5668,
      "sodium": 5669,
      "##aur": 5670,
      "tailed": 5671,
      "percentile": 5672,
      "6561": 5673,
      "confirming": 5674,
      "hist": 5675,
      "measuring": 5676,
      "blo": 5677,
      "gap": 5678,
      "mgh": 5679,
      "1415": 5680,
      "substituted": 5681,
      "generally": 5682,
      "h2o": 5683,
      "618": 5684,
      "ray": 5685,
      "172": 5686,
      "showing": 5687,
      "##9265": 5688,
      "package": 5689,
      "asymptotes": 5690,
      "xi": 5691,
      "##oon": 5692,
      "numbered": 5693,
      "record": 5694,
      "impul": 5695,
      "situation": 5696,
      "825": 5697,
      "bra": 5698,
      "##he": 5699,
      "develop": 5700,
      "visitors": 5701,
      "4142": 5702,
      "##768": 5703,
      "##2857": 5704,
      "6000": 5705,
      "quantum": 5706,
      "window": 5707,
      "##clockwise": 5708,
      "950": 5709,
      "counterclockwise": 5710,
      "tetrahedron": 5711,
      "resour": 5712,
      "fields": 5713,
      "allowing": 5714,
      "meeting": 5715,
      "managers": 5716,
      "technically": 5717,
      "global": 5718,
      "e1": 5719,
      "dipole": 5720,
      "discounted": 5721,
      "subtree": 5722,
      "bb": 5723,
      "waves": 5724,
      "version": 5725,
      "833": 5726,
      "lad": 5727,
      "solute": 5728,
      "prices": 5729,
      "crossing": 5730,
      "nicely": 5731,
      "wed": 5732,
      "lagr": 5733,
      "##59": 5734,
      "stress": 5735,
      "identifying": 5736,
      "discontin": 5737,
      "745": 5738,
      "##ato": 5739,
      "doors": 5740,
      "equivalence": 5741,
      "##utions": 5742,
      "153": 5743,
      "pairwise": 5744,
      "331": 5745,
      "definitions": 5746,
      "293": 5747,
      "buses": 5748,
      "mary": 5749,
      "yz": 5750,
      "directrix": 5751,
      "458": 5752,
      "tangential": 5753,
      "nby": 5754,
      "capital": 5755,
      "4πr2": 5756,
      "impulse": 5757,
      "ly": 5758,
      "θ1": 5759,
      "suits": 5760,
      "2019": 5761,
      "1100": 5762,
      "surjective": 5763,
      "075": 5764,
      "catch": 5765,
      "pound": 5766,
      "149": 5767,
      "circumcenter": 5768,
      "eigenvalue": 5769,
      "several": 5770,
      "stone": 5771,
      "n27": 5772,
      "323": 5773,
      "biject": 5774,
      "comparison": 5775,
      "observations": 5776,
      "ful": 5777,
      "444": 5778,
      "448": 5779,
      "achieve": 5780,
      "345": 5781,
      "eigenv": 5782,
      "equid": 5783,
      "251": 5784,
      "satisfying": 5785,
      "covering": 5786,
      "rson": 5787,
      "##den": 5788,
      "##ode": 5789,
      "2u": 5790,
      "425": 5791,
      "##ptions": 5792,
      "228": 5793,
      "significance": 5794,
      "brid": 5795,
      "walks": 5796,
      "application": 5797,
      "perspective": 5798,
      "bene": 5799,
      "c3": 5800,
      "nature": 5801,
      "til": 5802,
      "anywhere": 5803,
      "functional": 5804,
      "npoint": 5805,
      "dollar": 5806,
      "complementary": 5807,
      "clubs": 5808,
      "u1": 5809,
      "##cy": 5810,
      "##ads": 5811,
      "pend": 5812,
      "cubed": 5813,
      "infected": 5814,
      "920": 5815,
      "n60": 5816,
      "foci": 5817,
      "interpreted": 5818,
      "occupied": 5819,
      "##essel": 5820,
      "seen": 5821,
      "146": 5822,
      "405": 5823,
      "##ariance": 5824,
      "hyperbola": 5825,
      "##uitive": 5826,
      "drug": 5827,
      "effects": 5828,
      "replaced": 5829,
      "4r2": 5830,
      "jar": 5831,
      "167": 5832,
      "fee": 5833,
      "scient": 5834,
      "994": 5835,
      "hats": 5836,
      "losing": 5837,
      "meant": 5838,
      "velocities": 5839,
      "immediately": 5840,
      "branch": 5841,
      "790": 5842,
      "##light": 5843,
      "##wh": 5844,
      "species": 5845,
      "215": 5846,
      "2700": 5847,
      "##ahedron": 5848,
      "passeng": 5849,
      "adults": 5850,
      "580": 5851,
      "6b": 5852,
      "fits": 5853,
      "loaf": 5854,
      "females": 5855,
      "equidistant": 5856,
      "various": 5857,
      "##1875": 5858,
      "cake": 5859,
      "frequencies": 5860,
      "surveyed": 5861,
      "destin": 5862,
      "variances": 5863,
      "fac": 5864,
      "lh": 5865,
      "aces": 5866,
      "148": 5867,
      "262": 5868,
      "transitive": 5869,
      "handsh": 5870,
      "7a": 5871,
      "188": 5872,
      "diss": 5873,
      "joint": 5874,
      "departments": 5875,
      "816": 5876,
      "##ulum": 5877,
      "1025": 5878,
      "334": 5879,
      "312": 5880,
      "4x3": 5881,
      "subspace": 5882,
      "eggs": 5883,
      "376": 5884,
      "nrt": 5885,
      "z1": 5886,
      "sinh": 5887,
      "primitive": 5888,
      "generate": 5889,
      "voters": 5890,
      "chi": 5891,
      "activ": 5892,
      "235": 5893,
      "fla": 5894,
      "independently": 5895,
      "brings": 5896,
      "keeping": 5897,
      "failure": 5898,
      "robot": 5899,
      "660": 5900,
      "μ0": 5901,
      "trad": 5902,
      "bisectors": 5903,
      "nic": 5904,
      "864": 5905,
      "program": 5906,
      "resistors": 5907,
      "aoc": 5908,
      "formal": 5909,
      "15x": 5910,
      "171": 5911,
      "2048": 5912,
      "303": 5913,
      "##ought": 5914,
      "2bc": 5915,
      "parametri": 5916,
      "gaussian": 5917,
      "intermedi": 5918,
      "pendulum": 5919,
      "##uff": 5920,
      "2018": 5921,
      "deceleration": 5922,
      "animals": 5923,
      "ahead": 5924,
      "blood": 5925,
      "a5": 5926,
      "##olates": 5927,
      "201": 5928,
      "408": 5929,
      "restaur": 5930,
      "tv": 5931,
      "25π": 5932,
      "138": 5933,
      "assignment": 5934,
      "young": 5935,
      "433": 5936,
      "5e": 5937,
      "border": 5938,
      "pet": 5939,
      "incomp": 5940,
      "mutually": 5941,
      "##stood": 5942,
      "atmosph": 5943,
      "aed": 5944,
      "mp": 5945,
      "##reci": 5946,
      "liked": 5947,
      "reflections": 5948,
      "676": 5949,
      "163": 5950,
      "elast": 5951,
      "causes": 5952,
      "compounded": 5953,
      "bought": 5954,
      "cel": 5955,
      "wood": 5956,
      "boat": 5957,
      "2006": 5958,
      "scre": 5959,
      "practice": 5960,
      "##bar": 5961,
      "##tery": 5962,
      "dense": 5963,
      "8t": 5964,
      "able": 5965,
      "##ese": 5966,
      "ncross": 5967,
      "practical": 5968,
      "mor": 5969,
      "##69": 5970,
      "##war": 5971,
      "##orrow": 5972,
      "interact": 5973,
      "representations": 5974,
      "capacitor": 5975,
      "benef": 5976,
      "expens": 5977,
      "playing": 5978,
      "integrand": 5979,
      "vehicles": 5980,
      "intermediate": 5981,
      "##ube": 5982,
      "modeled": 5983,
      "##osed": 5984,
      "driver": 5985,
      "transformed": 5986,
      "725": 5987,
      "##esting": 5988,
      "bc2": 5989,
      "described": 5990,
      "6n": 5991,
      "action": 5992,
      "##aus": 5993,
      "nswer": 5994,
      "0005": 5995,
      "volts": 5996,
      "##iness": 5997,
      "build": 5998,
      "##uzz": 5999,
      "pointing": 6000,
      "nnot": 6001,
      "implic": 6002,
      "283": 6003,
      "support": 6004,
      "combinatorial": 6005,
      "ladder": 6006,
      "##min": 6007,
      "buoy": 6008,
      "flowers": 6009,
      "slower": 6010,
      "manufacturer": 6011,
      "e0": 6012,
      "falls": 6013,
      "lap": 6014,
      "sight": 6015,
      "napp": 6016,
      "causing": 6017,
      "picture": 6018,
      "roads": 6019,
      "6th": 6020,
      "##urac": 6021,
      "1010": 6022,
      "364": 6023,
      "alphab": 6024,
      "bike": 6025,
      "location": 6026,
      "misinterpreted": 6027,
      "675": 6028,
      "100π": 6029,
      "161": 6030,
      "collinear": 6031,
      "disj": 6032,
      "relatively": 6033,
      "sitting": 6034,
      "472": 6035,
      "paired": 6036,
      "extends": 6037,
      "alternate": 6038,
      "fa": 6039,
      "kpa": 6040,
      "opp": 6041,
      "##hol": 6042,
      "##ited": 6043,
      "collection": 6044,
      "nno": 6045,
      "quadrants": 6046,
      "##yc": 6047,
      "meets": 6048,
      "spends": 6049,
      "154": 6050,
      "antiderivative": 6051,
      "categories": 6052,
      "028": 6053,
      "1260": 6054,
      "terminal": 6055,
      "told": 6056,
      "maximized": 6057,
      "8y": 6058,
      "ion": 6059,
      "##cer": 6060,
      "nstill": 6061,
      "conserved": 6062,
      "nsetting": 6063,
      "616": 6064,
      "cf": 6065,
      "n2a": 6066,
      "upd": 6067,
      "##ught": 6068,
      "555": 6069,
      "trigonometry": 6070,
      "##back": 6071,
      "samples": 6072,
      "##ators": 6073,
      "billion": 6074,
      "believe": 6075,
      "college": 6076,
      "brackets": 6077,
      "aq": 6078,
      "nomin": 6079,
      "ri": 6080,
      "##53": 6081,
      "sug": 6082,
      "detail": 6083,
      "277": 6084,
      "assumptions": 6085,
      "656": 6086,
      "nvol": 6087,
      "consumption": 6088,
      "extension": 6089,
      "##off": 6090,
      "sports": 6091,
      "generation": 6092,
      "candidates": 6093,
      "316": 6094,
      "identities": 6095,
      "contributing": 6096,
      "commutative": 6097,
      "o1": 6098,
      "ham": 6099,
      "1111": 6100,
      "4800": 6101,
      "president": 6102,
      "##uracy": 6103,
      "search": 6104,
      "##urations": 6105,
      "##plane": 6106,
      "pix": 6107,
      "232": 6108,
      "exceeding": 6109,
      "relevant": 6110,
      "optimization": 6111,
      "632": 6112,
      "eth": 6113,
      "vessel": 6114,
      "minimized": 6115,
      "n4x": 6116,
      "frust": 6117,
      "832": 6118,
      "bay": 6119,
      "cavity": 6120,
      "metric": 6121,
      "halfway": 6122,
      "bottle": 6123,
      "mv2": 6124,
      "cones": 6125,
      "0025": 6126,
      "pairing": 6127,
      "accuracy": 6128,
      "played": 6129,
      "incomplete": 6130,
      "apple": 6131,
      "decide": 6132,
      "5x2": 6133,
      "exclusive": 6134,
      "residues": 6135,
      "##926535": 6136,
      "##ole": 6137,
      "coming": 6138,
      "associated": 6139,
      "mond": 6140,
      "vote": 6141,
      "2007": 6142,
      "algebraically": 6143,
      "atmospheric": 6144,
      "066": 6145,
      "095": 6146,
      "thermal": 6147,
      "disjoint": 6148,
      "monday": 6149,
      "father": 6150,
      "modular": 6151,
      "handed": 6152,
      "fully": 6153,
      "pf": 6154,
      "##ament": 6155,
      "##urb": 6156,
      "solvent": 6157,
      "1875": 6158,
      "570": 6159,
      "nnumbers": 6160,
      "2r2": 6161,
      "late": 6162,
      "nrearr": 6163,
      "manager": 6164,
      "##itivity": 6165,
      "##ival": 6166,
      "death": 6167,
      "via": 6168,
      "##iture": 6169,
      "##eterm": 6170,
      "##atell": 6171,
      "repeats": 6172,
      "410": 6173,
      "band": 6174,
      "d3": 6175,
      "stickers": 6176,
      "visited": 6177,
      "##iverse": 6178,
      "4p": 6179,
      "466": 6180,
      "satell": 6181,
      "σ2": 6182,
      "##oras": 6183,
      "online": 6184,
      "universe": 6185,
      "##alleng": 6186,
      "n21": 6187,
      "computation": 6188,
      "ske": 6189,
      "regression": 6190,
      "everyone": 6191,
      "little": 6192,
      "estimated": 6193,
      "receives": 6194,
      "nvolume": 6195,
      "707": 6196,
      "reaching": 6197,
      "reading": 6198,
      "##456": 6199,
      "concentr": 6200,
      "fails": 6201,
      "510": 6202,
      "fore": 6203,
      "##ney": 6204,
      "##ered": 6205,
      "10y": 6206,
      "challeng": 6207,
      "spir": 6208,
      "hasn": 6209,
      "286": 6210,
      "223": 6211,
      "restriction": 6212,
      "hree": 6213,
      "incircle": 6214,
      "n32": 6215,
      "cru": 6216,
      "δv": 6217,
      "##intuitive": 6218,
      "counterintuitive": 6219,
      "spad": 6220,
      "2020": 6221,
      "worse": 6222,
      "395": 6223,
      "xyz": 6224,
      "misunderstood": 6225,
      "hamil": 6226,
      "dl": 6227,
      "##hg": 6228,
      "##integ": 6229,
      "activity": 6230,
      "370": 6231,
      "cardin": 6232,
      "985": 6233,
      "pythagoras": 6234,
      "765": 6235,
      "775": 6236,
      "##tual": 6237,
      "10k": 6238,
      "charged": 6239,
      "emit": 6240,
      "erf": 6241,
      "absorb": 6242,
      "jun": 6243,
      "tun": 6244,
      "tie": 6245,
      "##yl": 6246,
      "##ested": 6247,
      "##sius": 6248,
      "waiting": 6249,
      "1667": 6250,
      "outline": 6251,
      "##lian": 6252,
      "creates": 6253,
      "abelian": 6254,
      "virtual": 6255,
      "celsius": 6256,
      "queue": 6257,
      "hamilton": 6258,
      "##v2": 6259,
      "tool": 6260,
      "spot": 6261,
      "361": 6262,
      "incline": 6263,
      "490": 6264,
      "signal": 6265,
      "mechanical": 6266,
      "misapplying": 6267,
      "bananas": 6268,
      "inverses": 6269,
      "reducing": 6270,
      "walking": 6271,
      "alphabet": 6272,
      "ple": 6273,
      "expend": 6274,
      "textbo": 6275,
      "181": 6276,
      "iii": 6277,
      "plaus": 6278,
      "decomp": 6279,
      "wasn": 6280,
      "tangents": 6281,
      "clearer": 6282,
      "occurring": 6283,
      "plausible": 6284,
      "##ax": 6285,
      "n48": 6286,
      "distributing": 6287,
      "annuity": 6288,
      "shifts": 6289,
      "achievable": 6290,
      "sugar": 6291,
      "4th": 6292,
      "lu": 6293,
      "xz": 6294,
      "concepts": 6295,
      "differentiation": 6296,
      "spheres": 6297,
      "accelerating": 6298,
      "negatives": 6299,
      "service": 6300,
      "373": 6301,
      "435": 6302,
      "rearranged": 6303,
      "shaped": 6304,
      "au": 6305,
      "conv": 6306,
      "role": 6307,
      "605": 6308,
      "flav": 6309,
      "significantly": 6310,
      "guest": 6311,
      "built": 6312,
      "summarizing": 6313,
      "ka": 6314,
      "listing": 6315,
      "congruence": 6316,
      "5r": 6317,
      "780": 6318,
      "g2": 6319,
      "h3": 6320,
      "ninteg": 6321,
      "pub": 6322,
      "##aks": 6323,
      "##ativity": 6324,
      "248": 6325,
      "728": 6326,
      "united": 6327,
      "magnitudes": 6328,
      "asc": 6329,
      "159": 6330,
      "179": 6331,
      "1728": 6332,
      "continue": 6333,
      "turned": 6334,
      "parabol": 6335,
      "975": 6336,
      "tourn": 6337,
      "chips": 6338,
      "mod5": 6339,
      "compositions": 6340,
      "observe": 6341,
      "restricted": 6342,
      "floors": 6343,
      "ai": 6344,
      "roof": 6345,
      "detect": 6346,
      "995": 6347,
      "picked": 6348,
      "marginal": 6349,
      "##ample": 6350,
      "##pr": 6351,
      "##ox": 6352,
      "##osp": 6353,
      "3628": 6354,
      "married": 6355,
      "representing": 6356,
      "nvector": 6357,
      "emily": 6358,
      "languages": 6359,
      "bridge": 6360,
      "scientific": 6361,
      "776": 6362,
      "8k": 6363,
      "##sqrt": 6364,
      "##800": 6365,
      "copper": 6366,
      "world": 6367,
      "complexity": 6368,
      "pages": 6369,
      "sand": 6370,
      "v3": 6371,
      "##ury": 6372,
      "n22": 6373,
      "issues": 6374,
      "promot": 6375,
      "nall": 6376,
      "##alth": 6377,
      "aspect": 6378,
      "supply": 6379,
      "created": 6380,
      "business": 6381,
      "describe": 6382,
      "nucle": 6383,
      "exerted": 6384,
      "hosp": 6385,
      "##thest": 6386,
      "atte": 6387,
      "radio": 6388,
      "advanced": 6389,
      "doctor": 6390,
      "frustum": 6391,
      "fg": 6392,
      "363": 6393,
      "statistics": 6394,
      "##ission": 6395,
      "farm": 6396,
      "gal": 6397,
      "mus": 6398,
      "##rog": 6399,
      "##imum": 6400,
      "##ague": 6401,
      "486": 6402,
      "455": 6403,
      "prem": 6404,
      "dishes": 6405,
      "dz": 6406,
      "vow": 6407,
      "217": 6408,
      "displ": 6409,
      "nye": 6410,
      "worker": 6411,
      "035": 6412,
      "induced": 6413,
      "octagon": 6414,
      "hamiltonian": 6415,
      "vide": 6416,
      "thin": 6417,
      "##iff": 6418,
      "186": 6419,
      "balloon": 6420,
      "arrive": 6421,
      "preser": 6422,
      "##144": 6423,
      "projectile": 6424,
      "basketball": 6425,
      "jour": 6426,
      "stage": 6427,
      "164": 6428,
      "0003": 6429,
      "756": 6430,
      "exponentially": 6431,
      "influence": 6432,
      "history": 6433,
      "flavors": 6434,
      "ij": 6435,
      "##sion": 6436,
      "proton": 6437,
      "sheet": 6438,
      "researcher": 6439,
      "0986": 6440,
      "restaurant": 6441,
      "940": 6442,
      "equate": 6443,
      "skills": 6444,
      "weighing": 6445,
      "und": 6446,
      "save": 6447,
      "488": 6448,
      "throughout": 6449,
      "dynam": 6450,
      "performing": 6451,
      "residents": 6452,
      "096": 6453,
      "174": 6454,
      "contribution": 6455,
      "##oh": 6456,
      "##ster": 6457,
      "173": 6458,
      "497": 6459,
      "subjects": 6460,
      "nicke": 6461,
      "crucial": 6462,
      "nyeah": 6463,
      "offer": 6464,
      "14x": 6465,
      "worst": 6466,
      "thirds": 6467,
      "872": 6468,
      "stopping": 6469,
      "broken": 6470,
      "dominoes": 6471,
      "##3125": 6472,
      "symmet": 6473,
      "engineer": 6474,
      "silver": 6475,
      "lying": 6476,
      "2q": 6477,
      "static": 6478,
      "dil": 6479,
      "bottles": 6480,
      "transportation": 6481,
      "##atio": 6482,
      "averages": 6483,
      "nhold": 6484,
      "planning": 6485,
      "driving": 6486,
      "134": 6487,
      "342": 6488,
      "changed": 6489,
      "ensures": 6490,
      "tournament": 6491,
      "bg": 6492,
      "ms": 6493,
      "uv": 6494,
      "whereas": 6495,
      "npossible": 6496,
      "capture": 6497,
      "incident": 6498,
      "originally": 6499,
      "recast": 6500,
      "030": 6501,
      "infimum": 6502,
      "cartons": 6503,
      "vehicle": 6504,
      "reflexive": 6505,
      "8r": 6506,
      "##vir": 6507,
      "polic": 6508,
      "nc2": 6509,
      "implied": 6510,
      "cos2x": 6511,
      "2α": 6512,
      "dm": 6513,
      "##ank": 6514,
      "stable": 6515,
      "645": 6516,
      "network": 6517,
      "ranks": 6518,
      "enclosed": 6519,
      "view": 6520,
      "##ites": 6521,
      "uns": 6522,
      "independ": 6523,
      "aligns": 6524,
      "varying": 6525,
      "368": 6526,
      "containers": 6527,
      "econom": 6528,
      "symbols": 6529,
      "stored": 6530,
      "496": 6531,
      "rotational": 6532,
      "shelves": 6533,
      "explicitly": 6534,
      "##reciation": 6535,
      "##idden": 6536,
      "##ising": 6537,
      "lear": 6538,
      "499": 6539,
      "##otherm": 6540,
      "transformations": 6541,
      "8660": 6542,
      "satellite": 6543,
      "fish": 6544,
      "##anu": 6545,
      "##ept": 6546,
      "evenly": 6547,
      "please": 6548,
      "independence": 6549,
      "080": 6550,
      "ε0": 6551,
      "##ged": 6552,
      "##ued": 6553,
      "wherever": 6554,
      "302": 6555,
      "impact": 6556,
      "5c": 6557,
      "ded": 6558,
      "fou": 6559,
      "ions": 6560,
      "similarity": 6561,
      "530": 6562,
      "experi": 6563,
      "6h": 6564,
      "si": 6565,
      "beads": 6566,
      "sta": 6567,
      "spin": 6568,
      "cosh": 6569,
      "coloring": 6570,
      "payments": 6571,
      "buying": 6572,
      "090": 6573,
      "compressed": 6574,
      "##664": 6575,
      "constrained": 6576,
      "escape": 6577,
      "solar": 6578,
      "##raft": 6579,
      "247": 6580,
      "##itionally": 6581,
      "4a2": 6582,
      "3rd": 6583,
      "thousand": 6584,
      "quickly": 6585,
      "video": 6586,
      "##viron": 6587,
      "thread": 6588,
      "##quad": 6589,
      "##isy": 6590,
      "10th": 6591,
      "7071": 6592,
      "2πr2": 6593,
      "possibly": 6594,
      "##4375": 6595,
      "transpose": 6596,
      "queen": 6597,
      "n23": 6598,
      "contained": 6599,
      "swim": 6600,
      "9k": 6601,
      "arm": 6602,
      "newtons": 6603,
      "transitions": 6604,
      "extr": 6605,
      "cray": 6606,
      "layers": 6607,
      "612": 6608,
      "dav": 6609,
      "##oving": 6610,
      "environ": 6611,
      "swaps": 6612,
      "cardinality": 6613,
      "ow": 6614,
      "##uum": 6615,
      "iteration": 6616,
      "16a": 6617,
      "nnew": 6618,
      "n64": 6619,
      "raw": 6620,
      "shapes": 6621,
      "##gets": 6622,
      "##inter": 6623,
      "##uts": 6624,
      "##umps": 6625,
      "##ils": 6626,
      "2100": 6627,
      "minima": 6628,
      "conductor": 6629,
      "refractive": 6630,
      "nsquare": 6631,
      "lagrange": 6632,
      "bijection": 6633,
      "8b": 6634,
      "t0": 6635,
      "##ark": 6636,
      "libr": 6637,
      "304": 6638,
      "284": 6639,
      "888": 6640,
      "neutral": 6641,
      "spades": 6642,
      "418": 6643,
      "518": 6644,
      "bur": 6645,
      "2011": 6646,
      "##undant": 6647,
      "quadratics": 6648,
      "989": 6649,
      "870": 6650,
      "tenth": 6651,
      "multis": 6652,
      "configurations": 6653,
      "outflow": 6654,
      "##entory": 6655,
      "ade": 6656,
      "1680": 6657,
      "366": 6658,
      "016": 6659,
      "avg": 6660,
      "stretched": 6661,
      "415": 6662,
      "a6": 6663,
      "##375": 6664,
      "207": 6665,
      "18th": 6666,
      "respond": 6667,
      "##lipped": 6668,
      "slots": 6669,
      "fruit": 6670,
      "fourier": 6671,
      "smith": 6672,
      "212": 6673,
      "0016": 6674,
      "behaves": 6675,
      "street": 6676,
      "birthday": 6677,
      "7b": 6678,
      "##fol": 6679,
      "images": 6680,
      "differentiating": 6681,
      "quarters": 6682,
      "crayons": 6683,
      "475": 6684,
      "ea": 6685,
      "##ley": 6686,
      "##ulus": 6687,
      "2520": 6688,
      "approached": 6689,
      "name": 6690,
      "346": 6691,
      "399": 6692,
      "reached": 6693,
      "farthest": 6694,
      "nadditionally": 6695,
      "schedule": 6696,
      "40320": 6697,
      "1st": 6698,
      "n90": 6699,
      "##ication": 6700,
      "protons": 6701,
      "flavor": 6702,
      "applications": 6703,
      "##cohol": 6704,
      "resources": 6705,
      "david": 6706,
      "jack": 6707,
      "r0": 6708,
      "πx": 6709,
      "##n2": 6710,
      "inn": 6711,
      "308": 6712,
      "radiation": 6713,
      "eliminated": 6714,
      "##lace": 6715,
      "##house": 6716,
      "257": 6717,
      "polyhedron": 6718,
      "requirement": 6719,
      "accelerates": 6720,
      "1415926535": 6721,
      "##ratic": 6722,
      "##enn": 6723,
      "schwar": 6724,
      "covariance": 6725,
      "schwarz": 6726,
      "mil": 6727,
      "sectors": 6728,
      "button": 6729,
      "alcohol": 6730,
      "converse": 6731,
      "502": 6732,
      "planar": 6733,
      "inventory": 6734,
      "annually": 6735,
      "studying": 6736,
      "octahedron": 6737,
      "revol": 6738,
      "uncertain": 6739,
      "hr": 6740,
      "2025": 6741,
      "rock": 6742,
      "768": 6743,
      "adjusted": 6744,
      "picks": 6745,
      "secant": 6746,
      "5i": 6747,
      "tedi": 6748,
      "toys": 6749,
      "18x": 6750,
      "acres": 6751,
      "0002": 6752,
      "limiting": 6753,
      "projects": 6754,
      "host": 6755,
      "thoroughly": 6756,
      "mmhg": 6757,
      "diamonds": 6758,
      "tedious": 6759,
      "4e": 6760,
      "610": 6761,
      "λ1": 6762,
      "##oret": 6763,
      "276": 6764,
      "drive": 6765,
      "traject": 6766,
      "wat": 6767,
      "digital": 6768,
      "272": 6769,
      "907": 6770,
      "##90625": 6771,
      "translate": 6772,
      "couple": 6773,
      "owner": 6774,
      "##folio": 6775,
      "##hz": 6776,
      "isomorph": 6777,
      "reson": 6778,
      "ndif": 6779,
      "9000": 6780,
      "aa": 6781,
      "##rate": 6782,
      "chines": 6783,
      "simplification": 6784,
      "2009": 6785,
      "exponenti": 6786,
      "chinese": 6787,
      "744": 6788,
      "ncomparing": 6789,
      "##ription": 6790,
      "extending": 6791,
      "nmoving": 6792,
      "monic": 6793,
      "install": 6794,
      "semip": 6795,
      "3a2": 6796,
      "##6875": 6797,
      "3l": 6798,
      "9x2": 6799,
      "mw": 6800,
      "246": 6801,
      "misword": 6802,
      "2b2": 6803,
      "job": 6804,
      "neutrons": 6805,
      "misworded": 6806,
      "696": 6807,
      "imple": 6808,
      "snow": 6809,
      "##acking": 6810,
      "confirmed": 6811,
      "470": 6812,
      "performance": 6813,
      "recursively": 6814,
      "306": 6815,
      "##istics": 6816,
      "widgets": 6817,
      "empir": 6818,
      "bucket": 6819,
      "shoes": 6820,
      "controlled": 6821,
      "details": 6822,
      "##active": 6823,
      "344": 6824,
      "588": 6825,
      "portfolio": 6826,
      "59049": 6827,
      "screen": 6828,
      "##enter": 6829,
      "##ently": 6830,
      "2857": 6831,
      "##reshold": 6832,
      "logical": 6833,
      "5x5": 6834,
      "tosses": 6835,
      "coincide": 6836,
      "hospital": 6837,
      "8h": 6838,
      "nothing": 6839,
      "##izations": 6840,
      "141": 6841,
      "throw": 6842,
      "nb2": 6843,
      "oab": 6844,
      "site": 6845,
      "##ppings": 6846,
      "1300": 6847,
      "4500": 6848,
      "profess": 6849,
      "577": 6850,
      "arbitrarily": 6851,
      "3ab": 6852,
      "iron": 6853,
      "chooses": 6854,
      "267": 6855,
      "tested": 6856,
      "4375": 6857,
      "completed": 6858,
      "providing": 6859,
      "spaced": 6860,
      "implement": 6861,
      "4l": 6862,
      "596": 6863,
      "fly": 6864,
      "flying": 6865,
      "##d2": 6866,
      "##100": 6867,
      "##isc": 6868,
      "reli": 6869,
      "compression": 6870,
      "##ablish": 6871,
      "ordering": 6872,
      "sin2x": 6873,
      "ohm": 6874,
      "##quadratic": 6875,
      "dn": 6876,
      "instance": 6877,
      "##ighter": 6878,
      "10t": 6879,
      "158": 6880,
      "ncre": 6881,
      "tanθ": 6882,
      "separation": 6883,
      "establish": 6884,
      "filling": 6885,
      "families": 6886,
      "q3": 6887,
      "##ware": 6888,
      "core": 6889,
      "taller": 6890,
      "statistical": 6891,
      "0y": 6892,
      "8m": 6893,
      "944": 6894,
      "lands": 6895,
      "mac": 6896,
      "xn": 6897,
      "##ming": 6898,
      "processing": 6899,
      "returning": 6900,
      "structured": 6901,
      "##written": 6902,
      "opponent": 6903,
      "##iring": 6904,
      "655": 6905,
      "mentally": 6906,
      "shifting": 6907,
      "frictional": 6908,
      "participant": 6909,
      "battery": 6910,
      "305": 6911,
      "n49": 6912,
      "surrounding": 6913,
      "satur": 6914,
      "nbec": 6915,
      "##ribes": 6916,
      "expenditure": 6917,
      "policy": 6918,
      "library": 6919,
      "620": 6920,
      "bri": 6921,
      "jud": 6922,
      "compounding": 6923,
      "approximating": 6924,
      "211": 6925,
      "011": 6926,
      "984": 6927,
      "1023": 6928,
      "atmosphere": 6929,
      "918": 6930,
      "##set": 6931,
      "##zy": 6932,
      "##rogen": 6933,
      "209": 6934,
      "##izer": 6935,
      "##lique": 6936,
      "mod4": 6937,
      "214": 6938,
      "n45": 6939,
      "identified": 6940,
      "restrict": 6941,
      "inconsistency": 6942,
      "passengers": 6943,
      "##etermin": 6944,
      "6c": 6945,
      "##uction": 6946,
      "soil": 6947,
      "depression": 6948,
      "elsewhere": 6949,
      "2n2": 6950,
      "goods": 6951,
      "clean": 6952,
      "births": 6953,
      "nprobab": 6954,
      "5z": 6955,
      "dw": 6956,
      "sar": 6957,
      "α2": 6958,
      "##cf": 6959,
      "incidence": 6960,
      "##plus": 6961,
      "338": 6962,
      "oblique": 6963,
      "brand": 6964,
      "chemist": 6965,
      "##tic": 6966,
      "positives": 6967,
      "transm": 6968,
      "##999": 6969,
      "neighborhood": 6970,
      "universal": 6971,
      "empirical": 6972,
      "5h": 6973,
      "##40625": 6974,
      "##666": 6975,
      "nprobability": 6976,
      "nδ": 6977,
      "##go": 6978,
      "##erc": 6979,
      "totals": 6980,
      "n120": 6981,
      "194": 6982,
      "miswritten": 6983,
      "##centric": 6984,
      "n10b": 6985,
      "brother": 6986,
      "2304": 6987,
      "formalize": 6988,
      "journey": 6989,
      "nbecause": 6990,
      "bric": 6991,
      "flipped": 6992,
      "sle": 6993,
      "##nel": 6994,
      "##erate": 6995,
      "beans": 6996,
      "equating": 6997,
      "seeing": 6998,
      "dimes": 6999,
      "monot": 7000,
      "counterex": 7001,
      "napplying": 7002,
      "tel": 7003,
      "z0": 7004,
      "nperhaps": 7005,
      "inductive": 7006,
      "5p": 7007,
      "##egative": 7008,
      "322": 7009,
      "sco": 7010,
      "484": 7011,
      "redundant": 7012,
      "treated": 7013,
      "bonds": 7014,
      "predict": 7015,
      "ascending": 7016,
      "1a": 7017,
      "9s": 7018,
      "bid": 7019,
      "##ker": 7020,
      "378": 7021,
      "python": 7022,
      "##ograph": 7023,
      "ill": 7024,
      "river": 7025,
      "μ2": 7026,
      "##pass": 7027,
      "##oul": 7028,
      "1400": 7029,
      "ended": 7030,
      "n54": 7031,
      "bounds": 7032,
      "additionally": 7033,
      "diameters": 7034,
      "golden": 7035,
      "##versal": 7036,
      "gb": 7037,
      "nquadratic": 7038,
      "tren": 7039,
      "##face": 7040,
      "exerc": 7041,
      "183": 7042,
      "improp": 7043,
      "backward": 7044,
      "##6666": 7045,
      "##15625": 7046,
      "absolutely": 7047,
      "improper": 7048,
      "ferm": 7049,
      "went": 7050,
      "mas": 7051,
      "health": 7052,
      "254": 7053,
      "213": 7054,
      "verification": 7055,
      "cred": 7056,
      "gains": 7057,
      "explore": 7058,
      "uncount": 7059,
      "decision": 7060,
      "485": 7061,
      "ndisc": 7062,
      "passed": 7063,
      "apb": 7064,
      "spanning": 7065,
      "extremely": 7066,
      "945": 7067,
      "mi": 7068,
      "12a": 7069,
      "552": 7070,
      "file": 7071,
      "adjacency": 7072,
      "steep": 7073,
      "public": 7074,
      "boun": 7075,
      "bern": 7076,
      "kwh": 7077,
      "cod": 7078,
      "259": 7079,
      "rocket": 7080,
      "drops": 7081,
      "8333": 7082,
      "nse": 7083,
      "tues": 7084,
      "##esides": 7085,
      "multipliers": 7086,
      "ntesting": 7087,
      "996": 7088,
      "inverted": 7089,
      "988": 7090,
      "##etime": 7091,
      "gender": 7092,
      "handshakes": 7093,
      "besides": 7094,
      "educ": 7095,
      "##ceil": 7096,
      "exch": 7097,
      "extern": 7098,
      "orange": 7099,
      "301": 7100,
      "tau": 7101,
      "287": 7102,
      "convergent": 7103,
      "flawed": 7104,
      "spiral": 7105,
      "externally": 7106,
      "iv": 7107,
      "p3": 7108,
      "##ises": 7109,
      "approximations": 7110,
      "maxima": 7111,
      "571": 7112,
      "guessing": 7113,
      "tuesday": 7114,
      "624": 7115,
      "##k2": 7116,
      "threshold": 7117,
      "12t": 7118,
      "remainders": 7119,
      "minimizing": 7120,
      "481": 7121,
      "surpass": 7122,
      "##enced": 7123,
      "kilogram": 7124,
      "purposes": 7125,
      "##oulli": 7126,
      "hcl": 7127,
      "om": 7128,
      "diagon": 7129,
      "##oms": 7130,
      "spect": 7131,
      "##ured": 7132,
      "reser": 7133,
      "2001": 7134,
      "nx3": 7135,
      "bernoulli": 7136,
      "diagonally": 7137,
      "nim": 7138,
      "dip": 7139,
      "100a": 7140,
      "36π": 7141,
      "297": 7142,
      "eccentric": 7143,
      "3t2": 7144,
      "spanish": 7145,
      "μ1": 7146,
      "today": 7147,
      "##iday": 7148,
      "nslo": 7149,
      "##finite": 7150,
      "352": 7151,
      "filter": 7152,
      "revolution": 7153,
      "music": 7154,
      "rays": 7155,
      "0004": 7156,
      "active": 7157,
      "seniors": 7158,
      "obvious": 7159,
      "reactant": 7160,
      "alternates": 7161,
      "consuming": 7162,
      "photons": 7163,
      "mechanics": 7164,
      "heavier": 7165,
      "sleep": 7166,
      "6d": 7167,
      "1013": 7168,
      "##verage": 7169,
      "plays": 7170,
      "nslope": 7171,
      "890": 7172,
      "god": 7173,
      "rr": 7174,
      "##urance": 7175,
      "##izable": 7176,
      "1326": 7177,
      "denomin": 7178,
      "downwards": 7179,
      "surv": 7180,
      "295": 7181,
      "server": 7182,
      "destination": 7183,
      "bayes": 7184,
      "batch": 7185,
      "cable": 7186,
      "δh": 7187,
      "##isions": 7188,
      "exh": 7189,
      "shop": 7190,
      "##960": 7191,
      "bic": 7192,
      "mt": 7193,
      "δx": 7194,
      "##ges": 7195,
      "##s2": 7196,
      "1225": 7197,
      "chair": 7198,
      "shi": 7199,
      "636": 7200,
      "584": 7201,
      "585": 7202,
      "683": 7203,
      "consumed": 7204,
      "uncertainty": 7205,
      "735": 7206,
      "cit": 7207,
      "gift": 7208,
      "i1": 7209,
      "kω": 7210,
      "nσ": 7211,
      "nwith": 7212,
      "191": 7213,
      "summation": 7214,
      "molecular": 7215,
      "chemistry": 7216,
      "7y": 7217,
      "dam": 7218,
      "gases": 7219,
      "ox": 7220,
      "##vin": 7221,
      "193": 7222,
      "##itional": 7223,
      "prevent": 7224,
      "slot": 7225,
      "536": 7226,
      "offers": 7227,
      "counterexample": 7228,
      "mem": 7229,
      "n180": 7230,
      "n28": 7231,
      "accomm": 7232,
      "reported": 7233,
      "nacc": 7234,
      "accommod": 7235,
      "1x2": 7236,
      "frog": 7237,
      "##rm": 7238,
      "tru": 7239,
      "473": 7240,
      "lights": 7241,
      "easily": 7242,
      "activities": 7243,
      "tunnel": 7244,
      "924": 7245,
      "cry": 7246,
      "mother": 7247,
      "sees": 7248,
      "remote": 7249,
      "396": 7250,
      "511": 7251,
      "indicate": 7252,
      "steel": 7253,
      "dual": 7254,
      "##nts": 7255,
      "430": 7256,
      "rabbit": 7257,
      "vacuum": 7258,
      "trucks": 7259,
      "476": 7260,
      "860": 7261,
      "ncel": 7262,
      "##ided": 7263,
      "impro": 7264,
      "357": 7265,
      "processes": 7266,
      "barn": 7267,
      "cookie": 7268,
      "conjugates": 7269,
      "##anuary": 7270,
      "928": 7271,
      "mr2": 7272,
      "##uing": 7273,
      "toppings": 7274,
      "##ety": 7275,
      "confuse": 7276,
      "n42": 7277,
      "indices": 7278,
      "386": 7279,
      "841": 7280,
      "candies": 7281,
      "insurance": 7282,
      "trend": 7283,
      "eccentricity": 7284,
      "naccording": 7285,
      "fah": 7286,
      "##gers": 7287,
      "##ques": 7288,
      "stic": 7289,
      "1050": 7290,
      "resol": 7291,
      "1980": 7292,
      "nnual": 7293,
      "backwards": 7294,
      "nx1": 7295,
      "connection": 7296,
      "sentence": 7297,
      "telling": 7298,
      "7th": 7299,
      "nact": 7300,
      "##ascal": 7301,
      "nthese": 7302,
      "unity": 7303,
      "2012": 7304,
      "quality": 7305,
      "parking": 7306,
      "listed": 7307,
      "022": 7308,
      "potentially": 7309,
      "interpreting": 7310,
      "patterns": 7311,
      "broad": 7312,
      "subgraph": 7313,
      "claims": 7314,
      "artic": 7315,
      "1b": 7316,
      "912": 7317,
      "bn": 7318,
      "burn": 7319,
      "january": 7320,
      "nr2": 7321,
      "x6": 7322,
      "##0000": 7323,
      "##ife": 7324,
      "##urrent": 7325,
      "loan": 7326,
      "derang": 7327,
      "coupon": 7328,
      "immediate": 7329,
      "miscalculated": 7330,
      "internet": 7331,
      "##heit": 7332,
      "ndiscriminant": 7333,
      "633": 7334,
      "896": 7335,
      "gram": 7336,
      "##x1": 7337,
      "mev": 7338,
      "mapping": 7339,
      "shm": 7340,
      "safer": 7341,
      "summer": 7342,
      "locker": 7343,
      "parametriz": 7344,
      "mpg": 7345,
      "jumps": 7346,
      "##ream": 7347,
      "oranges": 7348,
      "heav": 7349,
      "100c": 7350,
      "178": 7351,
      "mathrm": 7352,
      "cylinders": 7353,
      "statistically": 7354,
      "##isymm": 7355,
      "3θ": 7356,
      "dess": 7357,
      "##arter": 7358,
      "##mps": 7359,
      "##oming": 7360,
      "subsc": 7361,
      "smarter": 7362,
      "1999": 7363,
      "acts": 7364,
      "football": 7365,
      "operates": 7366,
      "9375": 7367,
      "message": 7368,
      "dessert": 7369,
      "cn": 7370,
      "##apped": 7371,
      "codes": 7372,
      "258": 7373,
      "evidence": 7374,
      "consisting": 7375,
      "pressures": 7376,
      "determinants": 7377,
      "landing": 7378,
      "ncreasing": 7379,
      "6r": 7380,
      "tube": 7381,
      "xa": 7382,
      "##lt": 7383,
      "##uce": 7384,
      "atten": 7385,
      "151": 7386,
      "274": 7387,
      "##renheit": 7388,
      "launch": 7389,
      "visible": 7390,
      "logarithmic": 7391,
      "splitting": 7392,
      "packages": 7393,
      "utility": 7394,
      "fahrenheit": 7395,
      "d4": 7396,
      "date": 7397,
      "##ena": 7398,
      "nfifth": 7399,
      "massless": 7400,
      "##eady": 7401,
      "palindromes": 7402,
      "laplace": 7403,
      "933": 7404,
      "fab": 7405,
      "holes": 7406,
      "ker": 7407,
      "steady": 7408,
      "244": 7409,
      "608": 7410,
      "reds": 7411,
      "752": 7412,
      "261": 7413,
      "291": 7414,
      "construction": 7415,
      "672": 7416,
      "882": 7417,
      "observation": 7418,
      "splits": 7419,
      "falling": 7420,
      "076": 7421,
      "8n": 7422,
      "830": 7423,
      "bm": 7424,
      "sq": 7425,
      "##lf": 7426,
      "##irect": 7427,
      "arch": 7428,
      "myself": 7429,
      "##valu": 7430,
      "239": 7431,
      "398": 7432,
      "offset": 7433,
      "##vative": 7434,
      "##stream": 7435,
      "1020": 7436,
      "at2": 7437,
      "2021": 7438,
      "multiplier": 7439,
      "gauge": 7440,
      "ceil": 7441,
      "aff": 7442,
      "notes": 7443,
      "goat": 7444,
      "055": 7445,
      "verifying": 7446,
      "sticker": 7447,
      "rises": 7448,
      "irreduc": 7449,
      "s4": 7450,
      "##oled": 7451,
      "2005": 7452,
      "transverse": 7453,
      "377": 7454,
      "sources": 7455,
      "parents": 7456,
      "software": 7457,
      "592": 7458,
      "pull": 7459,
      "puzz": 7460,
      "pascal": 7461,
      "ware": 7462,
      "203": 7463,
      "2023": 7464,
      "calculato": 7465,
      "818": 7466,
      "2c2": 7467,
      "client": 7468,
      "kel": 7469,
      "rn": 7470,
      "race": 7471,
      "##table": 7472,
      "##vices": 7473,
      "##emann": 7474,
      "nfind": 7475,
      "willing": 7476,
      "2401": 7477,
      "characteristics": 7478,
      "antisymm": 7479,
      "##ological": 7480,
      "refraction": 7481,
      "facing": 7482,
      "793": 7483,
      "899": 7484,
      "bh": 7485,
      "##roll": 7486,
      "nevalu": 7487,
      "minimizes": 7488,
      "0833": 7489,
      "dropped": 7490,
      "riemann": 7491,
      "nucleus": 7492,
      "hh": 7493,
      "cans": 7494,
      "board": 7495,
      "shuff": 7496,
      "heli": 7497,
      "n35": 7498,
      "prisms": 7499,
      "trajectory": 7500,
      "595": 7501,
      "614": 7502,
      "astr": 7503,
      "intercepted": 7504,
      "diagn": 7505,
      "##cover": 7506,
      "enclos": 7507,
      "nrearranging": 7508,
      "surpasses": 7509,
      "irreducible": 7510,
      "7k": 7511,
      "fire": 7512,
      "##berry": 7513,
      "ord": 7514,
      "##oline": 7515,
      "increment": 7516,
      "mod8": 7517,
      "widths": 7518,
      "281": 7519,
      "##view": 7520,
      "defining": 7521,
      "423": 7522,
      "n72": 7523,
      "ey": 7524,
      "rap": 7525,
      "sr": 7526,
      "thurs": 7527,
      "mapped": 7528,
      "funct": 7529,
      "nominal": 7530,
      "turb": 7531,
      "401": 7532,
      "maximizing": 7533,
      "march": 7534,
      "nactually": 7535,
      "060": 7536,
      "bats": 7537,
      "overs": 7538,
      "nah": 7539,
      "449": 7540,
      "986": 7541,
      "eventually": 7542,
      "marked": 7543,
      "ethan": 7544,
      "heavy": 7545,
      "las": 7546,
      "##ned": 7547,
      "unf": 7548,
      "setmin": 7549,
      "commun": 7550,
      "992": 7551,
      "affected": 7552,
      "bullet": 7553,
      "guesses": 7554,
      "insight": 7555,
      "engineers": 7556,
      "concentrations": 7557,
      "farmer": 7558,
      "premium": 7559,
      "setminus": 7560,
      "vib": 7561,
      "wife": 7562,
      "##key": 7563,
      "##used": 7564,
      "506": 7565,
      "n52": 7566,
      "keys": 7567,
      "flour": 7568,
      "538": 7569,
      "overcounting": 7570,
      "micro": 7571,
      "fabric": 7572,
      "hall": 7573,
      "pig": 7574,
      "sea": 7575,
      "238": 7576,
      "n5x": 7577,
      "gasoline": 7578,
      "072": 7579,
      "nearlier": 7580,
      "calories": 7581,
      "frictionless": 7582,
      "traditional": 7583,
      "functio": 7584,
      "2as": 7585,
      "820": 7586,
      "abst": 7587,
      "##ody": 7588,
      "139": 7589,
      "2832": 7590,
      "linearity": 7591,
      "bdc": 7592,
      "discontinuity": 7593,
      "3f": 7594,
      "740": 7595,
      "##by": 7596,
      "##ε0": 7597,
      "##ilot": 7598,
      "excess": 7599,
      "incenter": 7600,
      "241": 7601,
      "resultant": 7602,
      "massive": 7603,
      "3500": 7604,
      "indefinite": 7605,
      "boundaries": 7606,
      "nv2": 7607,
      "invested": 7608,
      "##interval": 7609,
      "kelvin": 7610,
      "rapid": 7611,
      "pilot": 7612,
      "r4": 7613,
      "##hed": 7614,
      "##nes": 7615,
      "alright": 7616,
      "subinterval": 7617,
      "prize": 7618,
      "interp": 7619,
      "factorize": 7620,
      "2160": 7621,
      "plugged": 7622,
      "649": 7623,
      "424": 7624,
      "swapped": 7625,
      "laws": 7626,
      "preced": 7627,
      "interpretations": 7628,
      "accounts": 7629,
      "toggled": 7630,
      "route": 7631,
      "symmetries": 7632,
      "multiset": 7633,
      "6π": 7634,
      "7s": 7635,
      "ps": 7636,
      "##urt": 7637,
      "##ulomb": 7638,
      "beats": 7639,
      "heard": 7640,
      "##lesc": 7641,
      "358": 7642,
      "nx4": 7643,
      "telesc": 7644,
      "292": 7645,
      "inflation": 7646,
      "sunday": 7647,
      "purchased": 7648,
      "conducting": 7649,
      "subgroups": 7650,
      "allocated": 7651,
      "thursday": 7652,
      "6m": 7653,
      "rare": 7654,
      "s0": 7655,
      "##wich": 7656,
      "##itch": 7657,
      "25x": 7658,
      "268": 7659,
      "319": 7660,
      "018": 7661,
      "connections": 7662,
      "371": 7663,
      "proportionally": 7664,
      "loses": 7665,
      "introduce": 7666,
      "judge": 7667,
      "9y": 7668,
      "qb": 7669,
      "rms": 7670,
      "isol": 7671,
      "##atement": 7672,
      "seed": 7673,
      "self": 7674,
      "chlor": 7675,
      "dose": 7676,
      "2015": 7677,
      "modes": 7678,
      "absence": 7679,
      "molarity": 7680,
      "pipes": 7681,
      "nabla": 7682,
      "catal": 7683,
      "plat": 7684,
      "3025": 7685,
      "##lihood": 7686,
      "0012": 7687,
      "naverage": 7688,
      "ln2": 7689,
      "diagonalizable": 7690,
      "544": 7691,
      "434": 7692,
      "667": 7693,
      "quadrilaterals": 7694,
      "removal": 7695,
      "brown": 7696,
      "conservative": 7697,
      "dissol": 7698,
      "sandwich": 7699,
      "9π": 7700,
      "mb": 7701,
      "##time": 7702,
      "##itio": 7703,
      "likelihood": 7704,
      "684": 7705,
      "computers": 7706,
      "efficiently": 7707,
      "emitted": 7708,
      "abstract": 7709,
      "hollow": 7710,
      "zeta": 7711,
      "##had": 7712,
      "##ery": 7713,
      "cance": 7714,
      "n26": 7715,
      "stands": 7716,
      "cliff": 7717,
      "##phr": 7718,
      "393": 7719,
      "##304": 7720,
      "aud": 7721,
      "firm": 7722,
      "pp": 7723,
      "tight": 7724,
      "##e6": 7725,
      "anten": 7726,
      "wear": 7727,
      "665": 7728,
      "inflection": 7729,
      "couples": 7730,
      "purely": 7731,
      "promotion": 7732,
      "knot": 7733,
      "z3": 7734,
      "##zer": 7735,
      "infer": 7736,
      "season": 7737,
      "20π": 7738,
      "271": 7739,
      "distributive": 7740,
      "eigenvector": 7741,
      "099": 7742,
      "6w": 7743,
      "tit": 7744,
      "##ault": 7745,
      "##2x": 7746,
      "##factor": 7747,
      "theoret": 7748,
      "##ense": 7749,
      "social": 7750,
      "##ilit": 7751,
      "cold": 7752,
      "328": 7753,
      "348": 7754,
      "372": 7755,
      "pushing": 7756,
      "disconnect": 7757,
      "branches": 7758,
      "stronger": 7759,
      "rig": 7760,
      "convent": 7761,
      "stro": 7762,
      "boc": 7763,
      "##aging": 7764,
      "0006": 7765,
      "##istered": 7766,
      "278": 7767,
      "329": 7768,
      "theta2": 7769,
      "014": 7770,
      "energies": 7771,
      "961": 7772,
      "528": 7773,
      "885": 7774,
      "pizzas": 7775,
      "update": 7776,
      "saturday": 7777,
      "8th": 7778,
      "x8": 7779,
      "isl": 7780,
      "exit": 7781,
      "##agn": 7782,
      "2013": 7783,
      "2222": 7784,
      "970": 7785,
      "winter": 7786,
      "release": 7787,
      "subtends": 7788,
      "nitrogen": 7789,
      "allocate": 7790,
      "dynamic": 7791,
      "690": 7792,
      "925": 7793,
      "borrow": 7794,
      "penc": 7795,
      "##flow": 7796,
      "cofactor": 7797,
      "10n": 7798,
      "20t": 7799,
      "810": 7800,
      "545": 7801,
      "462": 7802,
      "criter": 7803,
      "nlast": 7804,
      "milk": 7805,
      "scoops": 7806,
      "cast": 7807,
      "holding": 7808,
      "ju": 7809,
      "kq": 7810,
      "ntime": 7811,
      "355": 7812,
      "5280": 7813,
      "herring": 7814,
      "implication": 7815,
      "exercise": 7816,
      "7n": 7817,
      "gcf": 7818,
      "nar": 7819,
      "##rating": 7820,
      "neous": 7821,
      "##ifier": 7822,
      "##olation": 7823,
      "nove": 7824,
      "007": 7825,
      "depreciation": 7826,
      "969": 7827,
      "treating": 7828,
      "folded": 7829,
      "xa0": 7830,
      "795": 7831,
      "824": 7832,
      "fer": 7833,
      "px": 7834,
      "vmatrix": 7835,
      "vague": 7836,
      "x5": 7837,
      "##r3": 7838,
      "009": 7839,
      "transact": 7840,
      "##760": 7841,
      "565": 7842,
      "663": 7843,
      "display": 7844,
      "a12": 7845,
      "kid": 7846,
      "merge": 7847,
      "tag": 7848,
      "##orage": 7849,
      "default": 7850,
      "ramp": 7851,
      "established": 7852,
      "715": 7853,
      "n80": 7854,
      "tied": 7855,
      "conson": 7856,
      "13x": 7857,
      "2ax": 7858,
      "halves": 7859,
      "052": 7860,
      "443": 7861,
      "magnification": 7862,
      "electricity": 7863,
      "torus": 7864,
      "latin": 7865,
      "misinterpret": 7866,
      "ct": 7867,
      "cere": 7868,
      "##pan": 7869,
      "isot": 7870,
      "competition": 7871,
      "noption": 7872,
      "usual": 7873,
      "n1000": 7874,
      "2002": 7875,
      "preference": 7876,
      "password": 7877,
      "670": 7878,
      "suggest": 7879,
      "622": 7880,
      "jobs": 7881,
      "markov": 7882,
      "algorithms": 7883,
      "buoyant": 7884,
      "ht": 7885,
      "nhe": 7886,
      "489": 7887,
      "646": 7888,
      "266": 7889,
      "nbc": 7890,
      "airplane": 7891,
      "hypothesi": 7892,
      "traffic": 7893,
      "knight": 7894,
      "ethanol": 7895,
      "knots": 7896,
      "bt": 7897,
      "##y3": 7898,
      "conditio": 7899,
      "2nd": 7900,
      "countable": 7901,
      "088": 7902,
      "085": 7903,
      "parent": 7904,
      "##cycle": 7905,
      "##print": 7906,
      "astronom": 7907,
      "ay": 7908,
      "lb": 7909,
      "lighter": 7910,
      "##ef": 7911,
      "##x4": 7912,
      "##idth": 7913,
      "n200": 7914,
      "2sin": 7915,
      "earnings": 7916,
      "medical": 7917,
      "093": 7918,
      "tend": 7919,
      "thr": 7920,
      "chrom": 7921,
      "2024": 7922,
      "237": 7923,
      "704": 7924,
      "064": 7925,
      "biased": 7926,
      "latter": 7927,
      "hose": 7928,
      "packing": 7929,
      "##negative": 7930,
      "##cast": 7931,
      "##umb": 7932,
      "beat": 7933,
      "leap": 7934,
      "determines": 7935,
      "n33": 7936,
      "nonnegative": 7937,
      "theta1": 7938,
      "logs": 7939,
      "529": 7940,
      "0821": 7941,
      "##185": 7942,
      "845": 7943,
      "expands": 7944,
      "projections": 7945,
      "attend": 7946,
      "violates": 7947,
      "3sqrt": 7948,
      "2πrh": 7949,
      "cbd": 7950,
      "eigenvectors": 7951,
      "cv": 7952,
      "eats": 7953,
      "hbar": 7954,
      "ky": 7955,
      "##though": 7956,
      "unch": 7957,
      "dead": 7958,
      "501": 7959,
      "218": 7960,
      "##rench": 7961,
      "n70": 7962,
      "concern": 7963,
      "motorcycle": 7964,
      "puzzle": 7965,
      "736": 7966,
      "eg": 7967,
      "##ius": 7968,
      "##att": 7969,
      "isotherm": 7970,
      "trun": 7971,
      "abp": 7972,
      "2022": 7973,
      "smok": 7974,
      "1990": 7975,
      "pmt": 7976,
      "383": 7977,
      "salaries": 7978,
      "764": 7979,
      "paying": 7980,
      "orthocenter": 7981,
      "rental": 7982,
      "flags": 7983,
      "penn": 7984,
      "antenna": 7985,
      "ech": 7986,
      "cows": 7987,
      "alumin": 7988,
      "upright": 7989,
      "505": 7990,
      "address": 7991,
      "492": 7992,
      "halved": 7993,
      "raising": 7994,
      "batches": 7995,
      "translates": 7996,
      "nacl": 7997,
      "r12": 7998,
      "##bidden": 7999,
      "##mar": 8000,
      "attract": 8001,
      "converging": 8002,
      "device": 8003,
      "2187": 8004,
      "crates": 8005,
      "winner": 8006,
      "structures": 8007,
      "taxi": 8008,
      "71828": 8009,
      "g1": 8010,
      "oq": 8011,
      "contrac": 8012,
      "ncan": 8013,
      "n31": 8014,
      "226": 8015,
      "plank": 8016,
      "flush": 8017,
      "##285": 8018,
      "027": 8019,
      "annulus": 8020,
      "reactions": 8021,
      "describes": 8022,
      "miscalculating": 8023,
      "pumping": 8024,
      "revolutions": 8025,
      "professor": 8026,
      "033": 8027,
      "9d": 8028,
      "936": 8029,
      "wast": 8030,
      "##y1": 8031,
      "serve": 8032,
      "968": 8033,
      "dt2": 8034,
      "##7766": 8035,
      "learning": 8036,
      "566": 8037,
      "tro": 8038,
      "##yle": 8039,
      "332": 8040,
      "abcde": 8041,
      "1250": 8042,
      "salt": 8043,
      "closure": 8044,
      "3g": 8045,
      "593": 8046,
      "pays": 8047,
      "##enance": 8048,
      "heated": 8049,
      "moderate": 8050,
      "relating": 8051,
      "909": 8052,
      "##oph": 8053,
      "tripling": 8054,
      "855": 8055,
      "viscos": 8056,
      "roles": 8057,
      "635": 8058,
      "rationalizing": 8059,
      "attribut": 8060,
      "carryover": 8061,
      "maintenance": 8062,
      "expensive": 8063,
      "966": 8064,
      "932": 8065,
      "gg": 8066,
      "qe": 8067,
      "##e9": 8068,
      "##erimeter": 8069,
      "stability": 8070,
      "storage": 8071,
      "30x": 8072,
      "##istribut": 8073,
      "##ariant": 8074,
      "nd2": 8075,
      "374": 8076,
      "034": 8077,
      "runner": 8078,
      "##uitively": 8079,
      "urn": 8080,
      "362880": 8081,
      "097": 8082,
      "9n": 8083,
      "forbidden": 8084,
      "pooled": 8085,
      "intuitively": 8086,
      "prison": 8087,
      "##illa": 8088,
      "453": 8089,
      "2200": 8090,
      "233": 8091,
      "arrives": 8092,
      "projected": 8093,
      "wavelengths": 8094,
      "npercent": 8095,
      "transferred": 8096,
      "toggles": 8097,
      "vowel": 8098,
      "eigh": 8099,
      "har": 8100,
      "##ecraft": 8101,
      "visits": 8102,
      "ranking": 8103,
      "collisions": 8104,
      "rented": 8105,
      "spacecraft": 8106,
      "1r": 8107,
      "##pite": 8108,
      "##o2": 8109,
      "sole": 8110,
      "although": 8111,
      "outliers": 8112,
      "misprint": 8113,
      "highway": 8114,
      "commonly": 8115,
      "served": 8116,
      "generators": 8117,
      "slide": 8118,
      "crease": 8119,
      "nexpress": 8120,
      "123456": 8121,
      "experiments": 8122,
      "inflows": 8123,
      "nickels": 8124,
      "reliable": 8125,
      "warehouse": 8126,
      "fat": 8127,
      "##down": 8128,
      "haven": 8129,
      "1350": 8130,
      "implicit": 8131,
      "primary": 8132,
      "planets": 8133,
      "##160": 8134,
      "587": 8135,
      "477": 8136,
      "restrictive": 8137,
      "occupy": 8138,
      "memory": 8139,
      "532": 8140,
      "910": 8141,
      "oplus": 8142,
      "p4": 8143,
      "##angent": 8144,
      "2800": 8145,
      "755": 8146,
      "341": 8147,
      "527": 8148,
      "despite": 8149,
      "686": 8150,
      "analyzing": 8151,
      "2lw": 8152,
      "sorting": 8153,
      "subsequence": 8154,
      "sensor": 8155,
      "decomposition": 8156,
      "semiperimeter": 8157,
      "aluminum": 8158,
      "##ont": 8159,
      "instant": 8160,
      "1280": 8161,
      "noise": 8162,
      "1008": 8163,
      "100x": 8164,
      "usage": 8165,
      "1320": 8166,
      "6458": 8167,
      "335": 8168,
      "curren": 8169,
      "nmid": 8170,
      "altitudes": 8171,
      "nsolve": 8172,
      "nconstant": 8173,
      "nperimeter": 8174,
      "vanilla": 8175,
      "elastic": 8176,
      "neck": 8177,
      "ride": 8178,
      "##nis": 8179,
      "##uations": 8180,
      "volun": 8181,
      "##vie": 8182,
      "curl": 8183,
      "tennis": 8184,
      "expenses": 8185,
      "radioactive": 8186,
      "shipping": 8187,
      "telescop": 8188,
      "876": 8189,
      "gpa": 8190,
      "mc": 8191,
      "mount": 8192,
      "swe": 8193,
      "sized": 8194,
      "vill": 8195,
      "##urity": 8196,
      "0024": 8197,
      "388": 8198,
      "478": 8199,
      "465": 8200,
      "crate": 8201,
      "69314": 8202,
      "friday": 8203,
      "entering": 8204,
      "watched": 8205,
      "wedge": 8206,
      "benefit": 8207,
      "pixels": 8208,
      "rapidly": 8209,
      "volunte": 8210,
      "b0": 8211,
      "hline": 8212,
      "16k": 8213,
      "content": 8214,
      "311": 8215,
      "transversal": 8216,
      "nlog": 8217,
      "2h2": 8218,
      "failures": 8219,
      "collected": 8220,
      "engineering": 8221,
      "juice": 8222,
      "viscosity": 8223,
      "716": 8224,
      "gh": 8225,
      "n99": 8226,
      "p̂": 8227,
      "ton": 8228,
      "tiling": 8229,
      "##ict": 8230,
      "##irling": 8231,
      "print": 8232,
      "n2x2": 8233,
      "knows": 8234,
      "##astic": 8235,
      "media": 8236,
      "cryst": 8237,
      "bq": 8238,
      "emb": 8239,
      "##m2": 8240,
      "coulomb": 8241,
      "stri": 8242,
      "neat": 8243,
      "##ermost": 8244,
      "abund": 8245,
      "15k": 8246,
      "whenever": 8247,
      "factorizations": 8248,
      "219": 8249,
      "geor": 8250,
      "defines": 8251,
      "ngcd": 8252,
      "523": 8253,
      "567": 8254,
      "070": 8255,
      "domino": 8256,
      "reconsider": 8257,
      "swimming": 8258,
      "9t": 8259,
      "k4": 8260,
      "kb": 8261,
      "pab": 8262,
      "raph": 8263,
      "##more": 8264,
      "##bert": 8265,
      "recyc": 8266,
      "divisions": 8267,
      "229": 8268,
      "popul": 8269,
      "061": 8270,
      "823": 8271,
      "reflects": 8272,
      "threads": 8273,
      "raphson": 8274,
      "recycled": 8275,
      "514": 8276,
      "fing": 8277,
      "##ω2": 8278,
      "##anes": 8279,
      "exc": 8280,
      "10π": 8281,
      "compress": 8282,
      "anymore": 8283,
      "0009": 8284,
      "cosx": 8285,
      "3200": 8286,
      "prep": 8287,
      "##152": 8288,
      "nstep": 8289,
      "829": 8290,
      "description": 8291,
      "emf": 8292,
      "v02": 8293,
      "arguments": 8294,
      "wednes": 8295,
      "ndifference": 8296,
      "wednesday": 8297,
      "δu": 8298,
      "##hyd": 8299,
      "forest": 8300,
      "rephr": 8301,
      "##keys": 8302,
      "12x2": 8303,
      "353": 8304,
      "report": 8305,
      "tripled": 8306,
      "fixing": 8307,
      "millilit": 8308,
      "##488": 8309,
      "seventh": 8310,
      "losses": 8311,
      "eaten": 8312,
      "monotonic": 8313,
      "2β": 8314,
      "gover": 8315,
      "227": 8316,
      "sheep": 8317,
      "climber": 8318,
      "capacities": 8319,
      "training": 8320,
      "cheaper": 8321,
      "heaviest": 8322,
      "8c": 8323,
      "cz": 8324,
      "rating": 8325,
      "##cile": 8326,
      "##vies": 8327,
      "plates": 8328,
      "movies": 8329,
      "##acks": 8330,
      "524": 8331,
      "559": 8332,
      "electro": 8333,
      "789": 8334,
      "7776": 8335,
      "##356": 8336,
      "##ibi": 8337,
      "enclose": 8338,
      "advant": 8339,
      "reconcile": 8340,
      "##going": 8341,
      "nimag": 8342,
      "cereal": 8343,
      "799": 8344,
      "a11": 8345,
      "send": 8346,
      "##mum": 8347,
      "##otent": 8348,
      "wearing": 8349,
      "seating": 8350,
      "##256": 8351,
      "313": 8352,
      "consistency": 8353,
      "445": 8354,
      "drain": 8355,
      "came": 8356,
      "chains": 8357,
      "chocolates": 8358,
      "melting": 8359,
      "elasticity": 8360,
      "textbooks": 8361,
      "parametrization": 8362,
      "npercentage": 8363,
      "e3": 8364,
      "l3": 8365,
      "mice": 8366,
      "u3": 8367,
      "δg": 8368,
      "inh": 8369,
      "2014": 8370,
      "609": 8371,
      "nthey": 8372,
      "32π": 8373,
      "041": 8374,
      "elementary": 8375,
      "flower": 8376,
      "reactants": 8377,
      "##ernel": 8378,
      "drinks": 8379,
      "improve": 8380,
      "roses": 8381,
      "##erating": 8382,
      "##olic": 8383,
      "n29": 8384,
      "367": 8385,
      "##101": 8386,
      "##rightarrow": 8387,
      "bd2": 8388,
      "##485": 8389,
      "rising": 8390,
      "uncountably": 8391,
      "citiz": 8392,
      "##odynam": 8393,
      "rephrase": 8394,
      "3q": 8395,
      "award": 8396,
      "iq": 8397,
      "nde": 8398,
      "n75": 8399,
      "pets": 8400,
      "##aust": 8401,
      "##bre": 8402,
      "12m": 8403,
      "##ember": 8404,
      "402": 8405,
      "features": 8406,
      "cl2": 8407,
      "clue": 8408,
      "442": 8409,
      "854": 8410,
      "479": 8411,
      "848": 8412,
      "switching": 8413,
      "exponentials": 8414,
      "concise": 8415,
      "resistivity": 8416,
      "marketing": 8417,
      "##issions": 8418,
      "morning": 8419,
      "attempt": 8420,
      "exhaust": 8421,
      "folding": 8422,
      "french": 8423,
      "##uate": 8424,
      "##ano": 8425,
      "topping": 8426,
      "poles": 8427,
      "saf": 8428,
      "ntan": 8429,
      "discus": 8430,
      "2y2": 8431,
      "camp": 8432,
      "pixel": 8433,
      "eh": 8434,
      "twin": 8435,
      "2x1": 8436,
      "487": 8437,
      "454": 8438,
      "gear": 8439,
      "387": 8440,
      "existence": 8441,
      "785": 8442,
      "freezing": 8443,
      "appearing": 8444,
      "songs": 8445,
      "exchange": 8446,
      "pencils": 8447,
      "george": 8448,
      "ere": 8449,
      "pint": 8450,
      "toler": 8451,
      "ital": 8452,
      "##otic": 8453,
      "stirling": 8454,
      "nevery": 8455,
      "equator": 8456,
      "##ade": 8457,
      "chess": 8458,
      "needing": 8459,
      "unp": 8460,
      "unus": 8461,
      "shot": 8462,
      "##ifying": 8463,
      "nco": 8464,
      "3x4": 8465,
      "buys": 8466,
      "payback": 8467,
      "flowing": 8468,
      "rains": 8469,
      "earned": 8470,
      "tomorrow": 8471,
      "7π": 8472,
      "8w": 8473,
      "narrow": 8474,
      "12y": 8475,
      "explo": 8476,
      "heating": 8477,
      "1587": 8478,
      "708": 8479,
      "856": 8480,
      "x1x2": 8481,
      "535": 8482,
      "candy": 8483,
      "laser": 8484,
      "hars": 8485,
      "jug": 8486,
      "oce": 8487,
      "##isons": 8488,
      "formally": 8489,
      "2880": 8490,
      "commute": 8491,
      "318": 8492,
      "494": 8493,
      "log3": 8494,
      "lists": 8495,
      "classical": 8496,
      "keeps": 8497,
      "1234": 8498,
      "misapplied": 8499,
      "antisymmetric": 8500,
      "lives": 8501,
      "##osis": 8502,
      "neglect": 8503,
      "scr": 8504,
      "##106": 8505,
      "987": 8506,
      "experience": 8507,
      "comparisons": 8508,
      "alphabetical": 8509,
      "november": 8510,
      "897": 8511,
      "##inom": 8512,
      "master": 8513,
      "253": 8514,
      "606": 8515,
      "6400": 8516,
      "429": 8517,
      "persons": 8518,
      "sheets": 8519,
      "profits": 8520,
      "cutoff": 8521,
      "arctangent": 8522,
      "kinds": 8523,
      "inputs": 8524,
      "harshad": 8525,
      "kernel": 8526,
      "nches": 8527,
      "##aw": 8528,
      "##o3": 8529,
      "0015": 8530,
      "pref": 8531,
      "356": 8532,
      "562": 8533,
      "772": 8534,
      "nlength": 8535,
      "conducted": 8536,
      "oscillates": 8537,
      "pulse": 8538,
      "##zyme": 8539,
      "pige": 8540,
      "solely": 8541,
      "±√": 8542,
      "β2": 8543,
      "prote": 8544,
      "fund": 8545,
      "takea": 8546,
      "na1": 8547,
      "991": 8548,
      "opposing": 8549,
      "supports": 8550,
      "driven": 8551,
      "865": 8552,
      "congruences": 8553,
      "accelerate": 8554,
      "oriented": 8555,
      "university": 8556,
      "615": 8557,
      "9c": 8558,
      "nrounding": 8559,
      "##ris": 8560,
      "rely": 8561,
      "chip": 8562,
      "surger": 8563,
      "561": 8564,
      "flies": 8565,
      "presence": 8566,
      "etter": 8567,
      "081": 8568,
      "626": 8569,
      "caught": 8570,
      "guil": 8571,
      "neutron": 8572,
      "yields": 8573,
      "trunc": 8574,
      "neverything": 8575,
      "4v": 8576,
      "8x2": 8577,
      "nangle": 8578,
      "##unction": 8579,
      "309": 8580,
      "##ugate": 8581,
      "n34": 8582,
      "459": 8583,
      "accumul": 8584,
      "confirmation": 8585,
      "0816": 8586,
      "partially": 8587,
      "hoc": 8588,
      "aeb": 8589,
      "denotes": 8590,
      "lockers": 8591,
      "implications": 8592,
      "codomain": 8593,
      "platform": 8594,
      "telescoping": 8595,
      "jord": 8596,
      "rp": 8597,
      "veg": 8598,
      "##ians": 8599,
      "##mer": 8600,
      "pocket": 8601,
      "increments": 8602,
      "##ubble": 8603,
      "554": 8604,
      "##isms": 8605,
      "953": 8606,
      "979": 8607,
      "info": 8608,
      "pulling": 8609,
      "iterate": 8610,
      "nevaluating": 8611,
      "unchanged": 8612,
      "embed": 8613,
      "takeaway": 8614,
      "jordan": 8615,
      "710": 8616,
      "##ob": 8617,
      "lemma": 8618,
      "held": 8619,
      "scalene": 8620,
      "drum": 8621,
      "6875": 8622,
      "##789": 8623,
      "pqr": 8624,
      "recorded": 8625,
      "unusual": 8626,
      "x12": 8627,
      "##uc": 8628,
      "iso": 8629,
      "advert": 8630,
      "maximal": 8631,
      "remembering": 8632,
      "variability": 8633,
      "elder": 8634,
      "056": 8635,
      "##rounded": 8636,
      "cardboard": 8637,
      "removes": 8638,
      "diverge": 8639,
      "grades": 8640,
      "radicals": 8641,
      "skewed": 8642,
      "helium": 8643,
      "898": 8644,
      "##2θ": 8645,
      "##775": 8646,
      "##omic": 8647,
      "25th": 8648,
      "dividend": 8649,
      "feed": 8650,
      "##ledge": 8651,
      "invariant": 8652,
      "normals": 8653,
      "468": 8654,
      "949": 8655,
      "appropriately": 8656,
      "iterative": 8657,
      "sticks": 8658,
      "isothermal": 8659,
      "mountain": 8660,
      "3v": 8661,
      "3h2": 8662,
      "7x2": 8663,
      "bug": 8664,
      "rim": 8665,
      "zone": 8666,
      "##ref": 8667,
      "financ": 8668,
      "0008": 8669,
      "307": 8670,
      "2x4": 8671,
      "movie": 8672,
      "dissoci": 8673,
      "accident": 8674,
      "702": 8675,
      "monkeys": 8676,
      "668": 8677,
      "##cium": 8678,
      "baskets": 8679,
      "leaf": 8680,
      "nfactoring": 8681,
      "convol": 8682,
      "derangements": 8683,
      "rigid": 8684,
      "fc": 8685,
      "ls": 8686,
      "pitch": 8687,
      "1012": 8688,
      "##ection": 8689,
      "overrightarrow": 8690,
      "decides": 8691,
      "disp": 8692,
      "nsubcase": 8693,
      "successor": 8694,
      "pyramids": 8695,
      "analytic": 8696,
      "stretching": 8697,
      "walked": 8698,
      "forecast": 8699,
      "deduce": 8700,
      "isomorphic": 8701,
      "transmit": 8702,
      "fermat": 8703,
      "guilty": 8704,
      "4ab": 8705,
      "748": 8706,
      "f0": 8707,
      "ter": 8708,
      "β1": 8709,
      "token": 8710,
      "ing": 8711,
      "##idents": 8712,
      "formation": 8713,
      "wrap": 8714,
      "482": 8715,
      "4545": 8716,
      "282": 8717,
      "015625": 8718,
      "##iveness": 8719,
      "magnet": 8720,
      "##ckets": 8721,
      "746": 8722,
      "concurrent": 8723,
      "cooling": 8724,
      "b4": 8725,
      "eq": 8726,
      "##bons": 8727,
      "to1": 8728,
      "##edy": 8729,
      "ns2": 8730,
      "rein": 8731,
      "exposed": 8732,
      "recount": 8733,
      "279": 8734,
      "scoring": 8735,
      "row2": 8736,
      "transitivity": 8737,
      "847": 8738,
      "8x3": 8739,
      "viol": 8740,
      "versus": 8741,
      "dependencies": 8742,
      "textbook": 8743,
      "ingred": 8744,
      "rere": 8745,
      "##net": 8746,
      "##yst": 8747,
      "n2b": 8748,
      "142857": 8749,
      "surge": 8750,
      "kg2": 8751,
      "2cos": 8752,
      "successful": 8753,
      "outputs": 8754,
      "purchasing": 8755,
      "dbinom": 8756,
      "hitting": 8757,
      "latex": 8758,
      "watts": 8759,
      "reread": 8760,
      "6e": 8761,
      "gd": 8762,
      "ss": 8763,
      "zo": 8764,
      "soda": 8765,
      "prompt": 8766,
      "ad2": 8767,
      "2xh": 8768,
      "6094": 8769,
      "36x": 8770,
      "##208": 8771,
      "4641": 8772,
      "exams": 8773,
      "silic": 8774,
      "ionization": 8775,
      "staff": 8776,
      "599": 8777,
      "nθ": 8778,
      "##hom": 8779,
      "##eres": 8780,
      "##eness": 8781,
      "unmar": 8782,
      "cycl": 8783,
      "180n": 8784,
      "bca": 8785,
      "row3": 8786,
      "263": 8787,
      "658": 8788,
      "observing": 8789,
      "731": 8790,
      "8s": 8791,
      "tx": 8792,
      "##πr2": 8793,
      "##v1": 8794,
      "10d": 8795,
      "sud": 8796,
      "sinx": 8797,
      "##econds": 8798,
      "1331": 8799,
      "905": 8800,
      "641": 8801,
      "preval": 8802,
      "017": 8803,
      "827": 8804,
      "strips": 8805,
      "cevi": 8806,
      "weekly": 8807,
      "suitable": 8808,
      "7d": 8809,
      "duck": 8810,
      "fv": 8811,
      "##ufficient": 8812,
      "##λ2": 8813,
      "##itz": 8814,
      "sharing": 8815,
      "agent": 8816,
      "recent": 8817,
      "modified": 8818,
      "serving": 8819,
      "03125": 8820,
      "calcium": 8821,
      "000001": 8822,
      "younger": 8823,
      "resonance": 8824,
      "5q": 8825,
      "kx2": 8826,
      "lore": 8827,
      "n96": 8828,
      "##inal": 8829,
      "meal": 8830,
      "orbits": 8831,
      "agree": 8832,
      "n2n": 8833,
      "604": 8834,
      "362": 8835,
      "1760": 8836,
      "013": 8837,
      "##288": 8838,
      "586": 8839,
      "6666": 8840,
      "juniors": 8841,
      "accommodate": 8842,
      "pennies": 8843,
      "iqr": 8844,
      "aug": 8845,
      "dag": 8846,
      "os": 8847,
      "##ious": 8848,
      "0007": 8849,
      "60x": 8850,
      "throws": 8851,
      "row1": 8852,
      "adjugate": 8853,
      "##321": 8854,
      "952": 8855,
      "selections": 8856,
      "071": 8857,
      "discounts": 8858,
      "inspect": 8859,
      "insufficient": 8860,
      "multi": 8861,
      "doctors": 8862,
      "citizens": 8863,
      "pigeon": 8864,
      "hockey": 8865,
      "##eq": 8866,
      "##hen": 8867,
      "n4w": 8868,
      "sequential": 8869,
      "amu": 8870,
      "ngroup": 8871,
      "breakdown": 8872,
      "join": 8873,
      "##947": 8874,
      "1152": 8875,
      "convention": 8876,
      "convoluted": 8877,
      "##vis": 8878,
      "stores": 8879,
      "20n": 8880,
      "adb": 8881,
      "envelo": 8882,
      "##ists": 8883,
      "602": 8884,
      "##elly": 8885,
      "n300": 8886,
      "singlet": 8887,
      "##150": 8888,
      "capt": 8889,
      "##78125": 8890,
      "bijective": 8891,
      "stream": 8892,
      "occurred": 8893,
      "rods": 8894,
      "prediction": 8895,
      "unsure": 8896,
      "envelope": 8897,
      "jelly": 8898,
      "nme": 8899,
      "whate": 8900,
      "1960": 8901,
      "widget": 8902,
      "##lectric": 8903,
      "r22": 8904,
      "817": 8905,
      "815": 8906,
      "solids": 8907,
      "844": 8908,
      "ski": 8909,
      "trivially": 8910,
      "accounted": 8911,
      "earns": 8912,
      "benefits": 8913,
      "environment": 8914,
      "respondents": 8915,
      "whatever": 8916,
      "nφ": 8917,
      "##grad": 8918,
      "##ba": 8919,
      "trinomial": 8920,
      "n150": 8921,
      "upon": 8922,
      "goals": 8923,
      "nhence": 8924,
      "32x": 8925,
      "logistic": 8926,
      "ids": 8927,
      "cuboid": 8928,
      "breaks": 8929,
      "selects": 8930,
      "6x3": 8931,
      "conflict": 8932,
      "cupc": 8933,
      "nassume": 8934,
      "operators": 8935,
      "purpose": 8936,
      "disconnected": 8937,
      "unmarried": 8938,
      "516": 8939,
      "717": 8940,
      "hint": 8941,
      "tc": 8942,
      "thumb": 8943,
      "toy": 8944,
      "##room": 8945,
      "369": 8946,
      "##iolet": 8947,
      "scope": 8948,
      "##forming": 8949,
      "accidents": 8950,
      "727": 8951,
      "phen": 8952,
      "transc": 8953,
      "requirements": 8954,
      "climbing": 8955,
      "affecting": 8956,
      "n9b": 8957,
      "floating": 8958,
      "oscillate": 8959,
      "infection": 8960,
      "manufacturing": 8961,
      "attemp": 8962,
      "canceled": 8963,
      "nlastly": 8964,
      "092": 8965,
      "12n": 8966,
      "centimeter": 8967,
      "40x": 8968,
      "maximizes": 8969,
      "32768": 8970,
      "##755": 8971,
      "ndistribut": 8972,
      "complicating": 8973,
      "623": 8974,
      "##spring": 8975,
      "lca": 8976,
      "fills": 8977,
      "divergent": 8978,
      "##ntz": 8979,
      "youngest": 8980,
      "interaction": 8981,
      "experiences": 8982,
      "extraneous": 8983,
      "ordinary": 8984,
      "veget": 8985,
      "lorentz": 8986,
      "796": 8987,
      "9t2": 8988,
      "bow": 8989,
      "c0": 8990,
      "iθ": 8991,
      "σx": 8992,
      "509": 8993,
      "quadrup": 8994,
      "326": 8995,
      "orderings": 8996,
      "3003": 8997,
      "phone": 8998,
      "389": 8999,
      "pathway": 9000,
      "954": 9001,
      "778": 9002,
      "canceling": 9003,
      "charles": 9004,
      "plotting": 9005,
      "weighs": 9006,
      "nproduct": 9007,
      "destinations": 9008,
      "tiebre": 9009,
      "oxid": 9010,
      "milliliters": 9011,
      "917": 9012,
      "948": 9013,
      "tin": 9014,
      "##e13": 9015,
      "##verting": 9016,
      "shore": 9017,
      "##loid": 9018,
      "outward": 9019,
      "40π": 9020,
      "senior": 9021,
      "3219": 9022,
      "993": 9023,
      "##lined": 9024,
      "806": 9025,
      "026": 9026,
      "proven": 9027,
      "2k2": 9028,
      "treas": 9029,
      "towns": 9030,
      "oscillating": 9031,
      "cnv": 9032,
      "1k": 9033,
      "cip": 9034,
      "pn": 9035,
      "pine": 9036,
      "ram": 9037,
      "##δt": 9038,
      "##aten": 9039,
      "equip": 9040,
      "mod15": 9041,
      "4845": 9042,
      "9998": 9043,
      "molality": 9044,
      "771": 9045,
      "status": 9046,
      "pallet": 9047,
      "misstatement": 9048,
      "merid": 9049,
      "braking": 9050,
      "advantage": 9051,
      "2λ": 9052,
      "ak": 9053,
      "auth": 9054,
      "link": 9055,
      "venn": 9056,
      "##6h": 9057,
      "seated": 9058,
      "unequ": 9059,
      "##stand": 9060,
      "##ared": 9061,
      "knowledge": 9062,
      "cosφ": 9063,
      "leftmost": 9064,
      "##3333": 9065,
      "retail": 9066,
      "unknowns": 9067,
      "dominant": 9068,
      "attained": 9069,
      "articles": 9070,
      "eyes": 9071,
      "interpolation": 9072,
      "412": 9073,
      "fuzz": 9074,
      "gone": 9075,
      "lem": 9076,
      "##urable": 9077,
      "2544": 9078,
      "1156": 9079,
      "figuring": 9080,
      "na3": 9081,
      "4900": 9082,
      "983": 9083,
      "countries": 9084,
      "countably": 9085,
      "873": 9086,
      "reactance": 9087,
      "differentiability": 9088,
      "frank": 9089,
      "hyperplane": 9090,
      "conversely": 9091,
      "fuzzy": 9092,
      "gp": 9093,
      "peter": 9094,
      "wine": 9095,
      "##ancing": 9096,
      "##rots": 9097,
      "orbs": 9098,
      "suff": 9099,
      "considerations": 9100,
      "decided": 9101,
      "498": 9102,
      "568": 9103,
      "densities": 9104,
      "2t2": 9105,
      "4πε0": 9106,
      "00005": 9107,
      "pulled": 9108,
      "6s2": 9109,
      "scratch": 9110,
      "unequal": 9111,
      "cam": 9112,
      "fd": 9113,
      "hg": 9114,
      "pist": 9115,
      "##e24": 9116,
      "##iced": 9117,
      "meals": 9118,
      "1011": 9119,
      "weak": 9120,
      "15625": 9121,
      "adi": 9122,
      "enters": 9123,
      "parties": 9124,
      "642": 9125,
      "tele": 9126,
      "884": 9127,
      "subseteq": 9128,
      "operate": 9129,
      "copy": 9130,
      "##7180": 9131,
      "merry": 9132,
      "tilted": 9133,
      "burgers": 9134,
      "criteria": 9135,
      "financial": 9136,
      "pigeonh": 9137,
      "766": 9138,
      "cc": 9139,
      "##ibe": 9140,
      "##bow": 9141,
      "##atomic": 9142,
      "##rete": 9143,
      "tok": 9144,
      "reve": 9145,
      "1620": 9146,
      "1623": 9147,
      "##dinger": 9148,
      "anyway": 9149,
      "arises": 9150,
      "1920": 9151,
      "decibe": 9152,
      "clues": 9153,
      "straw": 9154,
      "processed": 9155,
      "allocation": 9156,
      "deaths": 9157,
      "turbine": 9158,
      "camer": 9159,
      "c12": 9160,
      "##uition": 9161,
      "onwards": 9162,
      "##aged": 9163,
      "alloy": 9164,
      "1002": 9165,
      "100000": 9166,
      "subcase": 9167,
      "n144": 9168,
      "greedy": 9169,
      "registered": 9170,
      "0100": 9171,
      "topology": 9172,
      "5400": 9173,
      "n6x": 9174,
      "974": 9175,
      "dimensionless": 9176,
      "10x10": 9177,
      "radar": 9178,
      "dominates": 9179,
      "prevalence": 9180,
      "894": 9181,
      "##rö": 9182,
      "##rans": 9183,
      "##atter": 9184,
      "prod": 9185,
      "##ppler": 9186,
      "rats": 9187,
      "351": 9188,
      "0125": 9189,
      "showed": 9190,
      "438": 9191,
      "513": 9192,
      "tenths": 9193,
      "4t2": 9194,
      "bs": 9195,
      "cde": 9196,
      "eating": 9197,
      "names": 9198,
      "##rum": 9199,
      "##days": 9200,
      "##va": 9201,
      "spending": 9202,
      "##angled": 9203,
      "doppler": 9204,
      "5050": 9205,
      "2003": 9206,
      "2008": 9207,
      "906": 9208,
      "452": 9209,
      "arrival": 9210,
      "40000": 9211,
      "543": 9212,
      "ninitial": 9213,
      "638": 9214,
      "##ipses": 9215,
      "schrö": 9216,
      "##683": 9217,
      "packs": 9218,
      "packet": 9219,
      "focusing": 9220,
      "controls": 9221,
      "bills": 9222,
      "float": 9223,
      "outfits": 9224,
      "##oxide": 9225,
      "bounce": 9226,
      "enclosure": 9227,
      "preceding": 9228,
      "surgery": 9229,
      "adiab": 9230,
      "tokens": 9231,
      "schrödinger": 9232,
      "hb": 9233,
      "util": 9234,
      "hash": 9235,
      "ntry": 9236,
      "overtime": 9237,
      "21x": 9238,
      "2916": 9239,
      "##165": 9240,
      "n63": 9241,
      "664": 9242,
      "826": 9243,
      "fitting": 9244,
      "938": 9245,
      "concrete": 9246,
      "visiting": 9247,
      "divergence": 9248,
      "carrying": 9249,
      "##omorphism": 9250,
      "credit": 9251,
      "seeds": 9252,
      "##zero": 9253,
      "harv": 9254,
      "094": 9255,
      "gmm": 9256,
      "violet": 9257,
      "tot": 9258,
      "##bers": 9259,
      "died": 9260,
      "sus": 9261,
      "##arent": 9262,
      "20b": 9263,
      "206": 9264,
      "pie": 9265,
      "disks": 9266,
      "2360": 9267,
      "n62": 9268,
      "composing": 9269,
      "strain": 9270,
      "basically": 9271,
      "contributed": 9272,
      "nullity": 9273,
      "nperforming": 9274,
      "erm": 9275,
      "stamps": 9276,
      "education": 9277,
      "pascals": 9278,
      "cad": 9279,
      "s5": 9280,
      "##lated": 9281,
      "##sions": 9282,
      "##pv": 9283,
      "##men": 9284,
      "10w": 9285,
      "24π": 9286,
      "deb": 9287,
      "generator": 9288,
      "062": 9289,
      "770": 9290,
      "completes": 9291,
      "619": 9292,
      "particularly": 9293,
      "concluded": 9294,
      "accelerated": 9295,
      "duplicate": 9296,
      "banana": 9297,
      "##etermined": 9298,
      "sara": 9299,
      "attende": 9300,
      "elderly": 9301,
      "730": 9302,
      "crac": 9303,
      "##cm": 9304,
      "##ifts": 9305,
      "unre": 9306,
      "3010": 9307,
      "partners": 9308,
      "603": 9309,
      "nonzero": 9310,
      "26x": 9311,
      "4200": 9312,
      "084": 9313,
      "023": 9314,
      "joe": 9315,
      "n81": 9316,
      "opened": 9317,
      "hoo": 9318,
      "medication": 9319,
      "pca": 9320,
      "tilings": 9321,
      "mortal": 9322,
      "resolve": 9323,
      "##irected": 9324,
      "597": 9325,
      "594": 9326,
      "sad": 9327,
      "##cas": 9328,
      "##bru": 9329,
      "##ux": 9330,
      "confined": 9331,
      "##apes": 9332,
[...]
