{
  "version": "1.0",
  "truncation": null,
  "padding": null,
  "added_tokens": [
    {
      "id": 0,
      "content": "<PAD>",
      "single_word": false,
      "lstrip": false,
      "rstrip": false,
      "normalized": false,
      "special": true
    },
    {
      "id": 1,
      "content": "<UNK>",
      "single_word": false,
      "lstrip": false,
      "rstrip": false,
      "normalized": false,
      "special": true
    },
    {
      "id": 2,
      "content": "<BOS>",
      "single_word": false,
      "lstrip": false,
      "rstrip": false,
      "normalized": false,
      "special": true
    },
    {
      "id": 3,
      "content": "<EOS>",
      "single_word": false,
      "lstrip": false,
      "rstrip": false,
      "normalized": false,
      "special": true
    }
  ],
  "normalizer": {
    "type": "Sequence",
    "normalizers": [
      {
        "type": "NFKC"
      }
    ]
  },
  "pre_tokenizer": {
    "type": "Sequence",
    "pretokenizers": [
      {
        "type": "Whitespace"
      },
      {
        "type": "Punctuation",
        "behavior": "Isolated"
      },
      {
        "type": "Split",
        "pattern": {
          "String": "(\\d)"
        },
        "behavior": "Isolated",
        "invert": false
      }
    ]
  },
  "post_processor": null,
  "decoder": {
    "type": "ByteLevel",
    "add_prefix_space": true,
    "trim_offsets": true,
    "use_regex": true
  },
  "model": {
    "type": "BPE",
    "dropout": null,
    "unk_token": "<UNK>",
    "continuing_subword_prefix": "##",
    "end_of_word_suffix": null,
    "fuse_unk": false,
    "byte_fallback": false,
    "ignore_merges": false,
    "vocab": {
      "<PAD>": 0,
      "<UNK>": 1,
      "<BOS>": 2,
      "<EOS>": 3,
      "!": 4,
      "\"": 5,
      "#": 6,
      "$": 7,
      "%": 8,
      "&": 9,
      "'": 10,
      "(": 11,
      ")": 12,
      "*": 13,
      "+": 14,
      ",": 15,
      "-": 16,
      ".": 17,
      "/": 18,
      "0": 19,
      "1": 20,
      "2": 21,
      "3": 22,
      "4": 23,
      "5": 24,
      "6": 25,
      "7": 26,
      "8": 27,
      "9": 28,
      ":": 29,
      ";": 30,
      "<": 31,
      "=": 32,
      ">": 33,
      "?": 34,
      "@": 35,
      "A": 36,
      "B": 37,
      "C": 38,
      "D": 39,
      "E": 40,
      "F": 41,
      "G": 42,
      "H": 43,
      "I": 44,
      "J": 45,
      "K": 46,
      "L": 47,
      "M": 48,
      "N": 49,
      "O": 50,
      "P": 51,
      "Q": 52,
      "R": 53,
      "S": 54,
      "T": 55,
      "U": 56,
      "V": 57,
      "W": 58,
      "X": 59,
      "Y": 60,
      "Z": 61,
      "[": 62,
      "\\": 63,
      "]": 64,
      "^": 65,
      "_": 66,
      "`": 67,
      "a": 68,
      "b": 69,
      "c": 70,
      "d": 71,
      "e": 72,
      "f": 73,
      "g": 74,
      "h": 75,
      "i": 76,
      "j": 77,
      "k": 78,
      "l": 79,
      "m": 80,
      "n": 81,
      "o": 82,
      "p": 83,
      "q": 84,
      "r": 85,
      "s": 86,
      "t": 87,
      "u": 88,
      "v": 89,
      "w": 90,
      "x": 91,
      "y": 92,
      "z": 93,
      "{": 94,
      "|": 95,
      "}": 96,
      "~": 97,
      "«": 98,
      "¬": 99,
      "®": 100,
      "°": 101,
      "±": 102,
      "·": 103,
      "»": 104,
      "×": 105,
      "á": 106,
      "â": 107,
      "ä": 108,
      "å": 109,
      "æ": 110,
      "ç": 111,
      "è": 112,
      "é": 113,
      "í": 114,
      "î": 115,
      "ï": 116,
      "ñ": 117,
      "ó": 118,
      "ô": 119,
      "ö": 120,
      "÷": 121,
      "ø": 122,
      "ú": 123,
      "ü": 124,
      "þ": 125,
      "ă": 126,
      "ć": 127,
      "č": 128,
      "ħ": 129,
      "ő": 130,
      "š": 131,
      "ū": 132,
      "ű": 133,
      "ž": 134,
      "ȳ": 135,
      "ʙ": 136,
      "ˆ": 137,
      "̂": 138,
      "̄": 139,
      "̅": 140,
      "ά": 141,
      "ί": 142,
      "α": 143,
      "β": 144,
      "γ": 145,
      "δ": 146,
      "ε": 147,
      "ζ": 148,
      "η": 149,
      "θ": 150,
      "ι": 151,
      "κ": 152,
      "λ": 153,
      "μ": 154,
      "ν": 155,
      "ξ": 156,
      "ο": 157,
      "π": 158,
      "ρ": 159,
      "ς": 160,
      "σ": 161,
      "τ": 162,
      "υ": 163,
      "φ": 164,
      "χ": 165,
      "ψ": 166,
      "ω": 167,
      "а": 168,
      "б": 169,
      "в": 170,
      "г": 171,
      "д": 172,
      "е": 173,
      "ж": 174,
      "з": 175,
      "и": 176,
      "й": 177,
      "к": 178,
      "л": 179,
      "м": 180,
      "н": 181,
      "о": 182,
      "п": 183,
      "р": 184,
      "с": 185,
      "т": 186,
      "у": 187,
      "ф": 188,
      "х": 189,
      "ц": 190,
      "ч": 191,
      "ш": 192,
      "щ": 193,
      "ъ": 194,
      "ы": 195,
      "ь": 196,
      "э": 197,
      "ю": 198,
      "я": 199,
      "ё": 200,
      "і": 201,
      "ᴄ": 202,
      "–": 203,
      "—": 204,
      "‘": 205,
      "’": 206,
      "“": 207,
      "”": 208,
      "†": 209,
      "•": 210,
      "′": 211,
      "⁄": 212,
      "⃣": 213,
      "←": 214,
      "→": 215,
      "↓": 216,
      "↔": 217,
      "⇌": 218,
      "⇒": 219,
      "⇔": 220,
      "∀": 221,
      "∂": 222,
      "∃": 223,
      "∅": 224,
      "∆": 225,
      "∇": 226,
      "∈": 227,
      "∉": 228,
      "∏": 229,
      "∑": 230,
      "−": 231,
      "∓": 232,
      "∗": 233,
      "∘": 234,
      "∙": 235,
      "√": 236,
      "∛": 237,
      "∝": 238,
      "∞": 239,
      "∠": 240,
      "∣": 241,
      "∥": 242,
      "∧": 243,
      "∨": 244,
      "∩": 245,
      "∪": 246,
      "∫": 247,
      "∮": 248,
      "∼": 249,
      "≅": 250,
      "≈": 251,
      "≠": 252,
      "≡": 253,
      "≤": 254,
      "≥": 255,
      "≦": 256,
      "≯": 257,
      "≰": 258,
      "≳": 259,
      "≺": 260,
      "≻": 261,
      "⊃": 262,
      "⊆": 263,
      "⊕": 264,
      "⊗": 265,
      "⊙": 266,
      "⊥": 267,
      "⋅": 268,
      "⌈": 269,
      "⌉": 270,
      "⌊": 271,
      "⌋": 272,
      "─": 273,
      "│": 274,
      "┌": 275,
      "┐": 276,
      "└": 277,
      "├": 278,
      "┴": 279,
      "□": 280,
      "△": 281,
      "○": 282,
      "◦": 283,
      "♠": 284,
      "♡": 285,
      "♣": 286,
      "♥": 287,
      "♦": 288,
      "✅": 289,
      "✓": 290,
      "✔": 291,
      "❌": 292,
      "⟨": 293,
      "⟩": 294,
      "、": 295,
      "。": 296,
      "一": 297,
      "七": 298,
      "三": 299,
      "上": 300,
      "下": 301,
      "不": 302,
      "与": 303,
      "且": 304,
      "业": 305,
      "东": 306,
      "两": 307,
      "严": 308,
      "个": 309,
      "中": 310,
      "串": 311,
      "为": 312,
      "举": 313,
      "么": 314,
      "义": 315,
      "之": 316,
      "乎": 317,
      "乐": 318,
      "乘": 319,
      "九": 320,
      "也": 321,
      "习": 322,
      "乱": 323,
      "了": 324,
      "事": 325,
      "二": 326,
      "于": 327,
      "云": 328,
      "互": 329,
      "五": 330,
      "些": 331,
      "交": 332,
      "产": 333,
      "人": 334,
      "什": 335,
      "仅": 336,
      "仍": 337,
      "从": 338,
      "仔": 339,
      "他": 340,
      "付": 341,
      "代": 342,
      "令": 343,
      "以": 344,
      "们": 345,
      "仲": 346,
      "件": 347,
      "价": 348,
      "任": 349,
      "休": 350,
      "众": 351,
      "优": 352,
      "伙": 353,
      "会": 354,
      "传": 355,
      "伦": 356,
      "伯": 357,
      "估": 358,
      "伴": 359,
      "伸": 360,
      "似": 361,
      "伽": 362,
      "但": 363,
      "位": 364,
      "低": 365,
      "体": 366,
      "何": 367,
      "余": 368,
      "作": 369,
      "佳": 370,
      "使": 371,
      "來": 372,
      "例": 373,
      "供": 374,
      "依": 375,
      "侧": 376,
      "便": 377,
      "促": 378,
      "保": 379,
      "信": 380,
      "修": 381,
      "個": 382,
      "倍": 383,
      "們": 384,
      "候": 385,
      "值": 386,
      "假": 387,
      "偏": 388,
      "做": 389,
      "健": 390,
      "偶": 391,
      "傅": 392,
      "储": 393,
      "像": 394,
      "允": 395,
      "元": 396,
      "充": 397,
      "先": 398,
      "光": 399,
      "免": 400,
      "入": 401,
      "全": 402,
      "兩": 403,
      "八": 404,
      "公": 405,
      "六": 406,
      "共": 407,
      "关": 408,
      "其": 409,
      "具": 410,
      "典": 411,
      "兼": 412,
      "兽": 413,
      "内": 414,
      "再": 415,
      "冒": 416,
      "写": 417,
      "农": 418,
      "冲": 419,
      "决": 420,
      "况": 421,
      "净": 422,
      "准": 423,
      "减": 424,
      "几": 425,
      "凸": 426,
      "凹": 427,
      "出": 428,
      "击": 429,
      "函": 430,
      "分": 431,
      "切": 432,
      "刑": 433,
      "划": 434,
      "列": 435,
      "则": 436,
      "创": 437,
      "初": 438,
      "删": 439,
      "判": 440,
      "別": 441,
      "利": 442,
      "别": 443,
      "到": 444,
      "制": 445,
      "刻": 446,
      "前": 447,
      "剩": 448,
      "割": 449,
      "力": 450,
      "功": 451,
      "加": 452,
      "务": 453,
      "动": 454,
      "助": 455,
      "劳": 456,
      "勒": 457,
      "包": 458,
      "化": 459,
      "匹": 460,
      "区": 461,
      "医": 462,
      "十": 463,
      "升": 464,
      "半": 465,
      "单": 466,
      "卖": 467,
      "博": 468,
      "卡": 469,
      "印": 470,
      "即": 471,
      "历": 472,
      "原": 473,
      "去": 474,
      "参": 475,
      "又": 476,
      "叉": 477,
      "及": 478,
      "友": 479,
      "双": 480,
      "反": 481,
      "发": 482,
      "取": 483,
      "受": 484,
      "变": 485,
      "叠": 486,
      "口": 487,
      "句": 488,
      "另": 489,
      "只": 490,
      "可": 491,
      "台": 492,
      "史": 493,
      "右": 494,
      "叶": 495,
      "号": 496,
      "司": 497,
      "各": 498,
      "合": 499,
      "同": 500,
      "名": 501,
      "后": 502,
      "向": 503,
      "吗": 504,
      "否": 505,
      "含": 506,
      "听": 507,
      "启": 508,
      "员": 509,
      "呢": 510,
      "周": 511,
      "味": 512,
      "命": 513,
      "和": 514,
      "品": 515,
      "哇": 516,
      "响": 517,
      "哥": 518,
      "哦": 519,
      "哪": 520,
      "哲": 521,
      "唯": 522,
      "商": 523,
      "啊": 524,
      "喜": 525,
      "嗯": 526,
      "器": 527,
      "四": 528,
      "回": 529,
      "因": 530,
      "园": 531,
      "困": 532,
      "围": 533,
      "固": 534,
      "国": 535,
      "图": 536,
      "圆": 537,
      "圈": 538,
      "土": 539,
      "在": 540,
      "地": 541,
      "场": 542,
      "均": 543,
      "坏": 544,
      "坐": 545,
      "块": 546,
      "垂": 547,
      "型": 548,
      "域": 549,
      "基": 550,
      "堆": 551,
      "塔": 552,
      "填": 553,
      "境": 554,
      "增": 555,
      "声": 556,
      "处": 557,
      "备": 558,
      "复": 559,
      "外": 560,
      "多": 561,
      "够": 562,
      "大": 563,
      "天": 564,
      "太": 565,
      "央": 566,
      "失": 567,
      "头": 568,
      "奇": 569,
      "她": 570,
      "好": 571,
      "如": 572,
      "妆": 573,
      "妙": 574,
      "始": 575,
      "子": 576,
      "字": 577,
      "存": 578,
      "孤": 579,
      "学": 580,
      "孩": 581,
      "它": 582,
      "安": 583,
      "完": 584,
      "定": 585,
      "宜": 586,
      "实": 587,
      "审": 588,
      "宣": 589,
      "室": 590,
      "宪": 591,
      "害": 592,
      "家": 593,
      "容": 594,
      "宽": 595,
      "密": 596,
      "察": 597,
      "对": 598,
      "寻": 599,
      "导": 600,
      "封": 601,
      "射": 602,
      "将": 603,
      "小": 604,
      "少": 605,
      "尔": 606,
      "尝": 607,
      "尤": 608,
      "就": 609,
      "尺": 610,
      "尽": 611,
      "尾": 612,
      "局": 613,
      "层": 614,
      "展": 615,
      "岗": 616,
      "岛": 617,
      "工": 618,
      "左": 619,
      "巧": 620,
      "差": 621,
      "己": 622,
      "已": 623,
      "巴": 624,
      "币": 625,
      "市": 626,
      "布": 627,
      "师": 628,
      "希": 629,
      "带": 630,
      "帮": 631,
      "常": 632,
      "幅": 633,
      "干": 634,
      "平": 635,
      "并": 636,
      "广": 637,
      "庄": 638,
      "序": 639,
      "库": 640,
      "应": 641,
      "底": 642,
      "废": 643,
      "度": 644,
      "庭": 645,
      "康": 646,
      "廓": 647,
      "建": 648,
      "开": 649,
      "弈": 650,
      "式": 651,
      "引": 652,
      "张": 653,
      "弦": 654,
      "弧": 655,
      "弯": 656,
      "弹": 657,
      "强": 658,
      "彈": 659,
      "归": 660,
      "当": 661,
      "录": 662,
      "形": 663,
      "影": 664,
      "彻": 665,
      "往": 666,
      "征": 667,
      "径": 668,
      "待": 669,
      "很": 670,
      "律": 671,
      "得": 672,
      "循": 673,
      "微": 674,
      "德": 675,
      "心": 676,
      "必": 677,
      "忆": 678,
      "志": 679,
      "快": 680,
      "念": 681,
      "忽": 682,
      "态": 683,
      "怎": 684,
      "思": 685,
      "急": 686,
      "性": 687,
      "怪": 688,
      "总": 689,
      "恒": 690,
      "恢": 691,
      "息": 692,
      "恰": 693,
      "悉": 694,
      "情": 695,
      "想": 696,
      "意": 697,
      "感": 698,
      "慢": 699,
      "憾": 700,
      "應": 701,
      "戏": 702,
      "成": 703,
      "我": 704,
      "或": 705,
      "战": 706,
      "截": 707,
      "户": 708,
      "所": 709,
      "手": 710,
      "才": 711,
      "扑": 712,
      "打": 713,
      "托": 714,
      "执": 715,
      "扩": 716,
      "扫": 717,
      "批": 718,
      "找": 719,
      "承": 720,
      "技": 721,
      "把": 722,
      "投": 723,
      "护": 724,
      "抵": 725,
      "抽": 726,
      "担": 727,
      "拉": 728,
      "拍": 729,
      "拓": 730,
      "拟": 731,
      "择": 732,
      "括": 733,
      "拿": 734,
      "持": 735,
      "指": 736,
      "按": 737,
      "挑": 738,
      "挖": 739,
      "捕": 740,
      "换": 741,
      "据": 742,
      "捷": 743,
      "掉": 744,
      "掌": 745,
      "排": 746,
      "掘": 747,
      "接": 748,
      "控": 749,
      "推": 750,
      "描": 751,
      "提": 752,
      "握": 753,
      "搜": 754,
      "搞": 755,
      "摄": 756,
      "操": 757,
      "支": 758,
      "收": 759,
      "改": 760,
      "放": 761,
      "政": 762,
      "效": 763,
      "敏": 764,
      "教": 765,
      "散": 766,
      "数": 767,
      "整": 768,
      "數": 769,
      "文": 770,
      "料": 771,
      "断": 772,
      "斯": 773,
      "新": 774,
      "方": 775,
      "於": 776,
      "施": 777,
      "旁": 778,
      "旋": 779,
      "无": 780,
      "既": 781,
      "日": 782,
      "旦": 783,
      "早": 784,
      "时": 785,
      "明": 786,
      "易": 787,
      "星": 788,
      "映": 789,
      "是": 790,
      "显": 791,
      "時": 792,
      "普": 793,
      "景": 794,
      "智": 795,
      "暂": 796,
      "暗": 797,
      "曲": 798,
      "更": 799,
      "替": 800,
      "最": 801,
      "會": 802,
      "有": 803,
      "朋": 804,
      "服": 805,
      "朗": 806,
      "望": 807,
      "期": 808,
      "木": 809,
      "未": 810,
      "末": 811,
      "本": 812,
      "术": 813,
      "机": 814,
      "杂": 815,
      "权": 816,
      "材": 817,
      "村": 818,
      "束": 819,
      "条": 820,
      "来": 821,
      "板": 822,
      "极": 823,
      "构": 824,
      "析": 825,
      "林": 826,
      "枚": 827,
      "果": 828,
      "架": 829,
      "某": 830,
      "查": 831,
      "柯": 832,
      "标": 833,
      "栈": 834,
      "树": 835,
      "样": 836,
      "核": 837,
      "根": 838,
      "格": 839,
      "案": 840,
      "档": 841,
      "梯": 842,
      "械": 843,
      "检": 844,
      "森": 845,
      "楚": 846,
      "概": 847,
      "模": 848,
      "樣": 849,
      "次": 850,
      "欢": 851,
      "欧": 852,
      "正": 853,
      "此": 854,
      "步": 855,
      "殊": 856,
      "段": 857,
      "母": 858,
      "每": 859,
      "比": 860,
      "毕": 861,
      "民": 862,
      "气": 863,
      "水": 864,
      "求": 865,
      "沒": 866,
      "没": 867,
      "沿": 868,
      "法": 869,
      "泡": 870,
      "注": 871,
      "洁": 872,
      "洋": 873,
      "活": 874,
      "流": 875,
      "测": 876,
      "济": 877,
      "浮": 878,
      "海": 879,
      "消": 880,
      "涉": 881,
      "涵": 882,
      "淆": 883,
      "深": 884,
      "混": 885,
      "添": 886,
      "清": 887,
      "游": 888,
      "源": 889,
      "滑": 890,
      "满": 891,
      "滿": 892,
      "漂": 893,
      "漏": 894,
      "演": 895,
      "潜": 896,
      "灾": 897,
      "炸": 898,
      "点": 899,
      "為": 900,
      "烦": 901,
      "热": 902,
      "無": 903,
      "然": 904,
      "照": 905,
      "熟": 906,
      "父": 907,
      "版": 908,
      "物": 909,
      "特": 910,
      "犯": 911,
      "状": 912,
      "独": 913,
      "猜": 914,
      "献": 915,
      "率": 916,
      "王": 917,
      "环": 918,
      "现": 919,
      "珠": 920,
      "球": 921,
      "理": 922,
      "琐": 923,
      "瓦": 924,
      "生": 925,
      "用": 926,
      "由": 927,
      "电": 928,
      "画": 929,
      "界": 930,
      "留": 931,
      "略": 932,
      "畴": 933,
      "當": 934,
      "百": 935,
      "的": 936,
      "盖": 937,
      "目": 938,
      "直": 939,
      "相": 940,
      "盾": 941,
      "省": 942,
      "看": 943,
      "着": 944,
      "矛": 945,
      "矢": 946,
      "知": 947,
      "矩": 948,
      "矮": 949,
      "码": 950,
      "研": 951,
      "破": 952,
      "确": 953,
      "碳": 954,
      "確": 955,
      "磅": 956,
      "示": 957,
      "社": 958,
      "神": 959,
      "离": 960,
      "私": 961,
      "种": 962,
      "科": 963,
      "秒": 964,
      "积": 965,
      "称": 966,
      "移": 967,
      "程": 968,
      "税": 969,
      "稳": 970,
      "究": 971,
      "穷": 972,
      "空": 973,
      "穿": 974,
      "突": 975,
      "窗": 976,
      "立": 977,
      "站": 978,
      "端": 979,
      "笔": 980,
      "符": 981,
      "第": 982,
      "等": 983,
      "答": 984,
      "策": 985,
      "签": 986,
      "简": 987,
      "算": 988,
      "管": 989,
      "簇": 990,
      "米": 991,
      "类": 992,
      "精": 993,
      "糊": 994,
      "系": 995,
      "素": 996,
      "索": 997,
      "累": 998,
      "結": 999,
      "總": 1000,
      "繁": 1001,
      "纠": 1002,
      "约": 1003,
      "级": 1004,
      "纳": 1005,
      "纸": 1006,
      "纺": 1007,
      "线": 1008,
      "练": 1009,
      "组": 1010,
      "细": 1011,
      "织": 1012,
      "终": 1013,
      "经": 1014,
      "结": 1015,
      "绕": 1016,
      "给": 1017,
      "络": 1018,
      "统": 1019,
      "继": 1020,
      "续": 1021,
      "维": 1022,
      "综": 1023,
      "绿": 1024,
      "缓": 1025,
      "编": 1026,
      "缘": 1027,
      "缩": 1028,
      "缺": 1029,
      "网": 1030,
      "罗": 1031,
      "置": 1032,
      "美": 1033,
      "群": 1034,
      "翻": 1035,
      "老": 1036,
      "考": 1037,
      "者": 1038,
      "而": 1039,
      "耗": 1040,
      "职": 1041,
      "联": 1042,
      "聪": 1043,
      "肯": 1044,
      "育": 1045,
      "背": 1046,
      "能": 1047,
      "腰": 1048,
      "自": 1049,
      "至": 1050,
      "致": 1051,
      "舍": 1052,
      "航": 1053,
      "般": 1054,
      "色": 1055,
      "节": 1056,
      "花": 1057,
      "若": 1058,
      "英": 1059,
      "范": 1060,
      "茨": 1061,
      "草": 1062,
      "荐": 1063,
      "药": 1064,
      "获": 1065,
      "营": 1066,
      "落": 1067,
      "虑": 1068,
      "虚": 1069,
      "蚁": 1070,
      "蚂": 1071,
      "蛇": 1072,
      "融": 1073,
      "行": 1074,
      "衍": 1075,
      "街": 1076,
      "衡": 1077,
      "补": 1078,
      "表": 1079,
      "袋": 1080,
      "被": 1081,
      "裁": 1082,
      "装": 1083,
      "裝": 1084,
      "裡": 1085,
      "西": 1086,
      "要": 1087,
      "覆": 1088,
      "见": 1089,
      "观": 1090,
      "规": 1091,
      "视": 1092,
      "觉": 1093,
      "角": 1094,
      "解": 1095,
      "言": 1096,
      "該": 1097,
      "說": 1098,
      "論": 1099,
      "计": 1100,
      "认": 1101,
      "讨": 1102,
      "让": 1103,
      "记": 1104,
      "许": 1105,
      "论": 1106,
      "讼": 1107,
      "设": 1108,
      "访": 1109,
      "证": 1110,
      "评": 1111,
      "识": 1112,
      "诉": 1113,
      "词": 1114,
      "译": 1115,
      "试": 1116,
      "话": 1117,
      "该": 1118,
      "详": 1119,
      "语": 1120,
      "误": 1121,
      "诱": 1122,
      "说": 1123,
      "读": 1124,
      "调": 1125,
      "象": 1126,
      "负": 1127,
      "贡": 1128,
      "财": 1129,
      "责": 1130,
      "败": 1131,
      "货": 1132,
      "质": 1133,
      "贪": 1134,
      "贸": 1135,
      "费": 1136,
      "资": 1137,
      "赖": 1138,
      "赫": 1139,
      "走": 1140,
      "起": 1141,
      "超": 1142,
      "越": 1143,
      "趋": 1144,
      "趣": 1145,
      "足": 1146,
      "跃": 1147,
      "跑": 1148,
      "距": 1149,
      "跟": 1150,
      "跨": 1151,
      "路": 1152,
      "跳": 1153,
      "践": 1154,
      "踪": 1155,
      "身": 1156,
      "车": 1157,
      "转": 1158,
      "轮": 1159,
      "软": 1160,
      "轴": 1161,
      "较": 1162,
      "辑": 1163,
      "输": 1164,
      "边": 1165,
      "达": 1166,
      "迅": 1167,
      "过": 1168,
      "运": 1169,
      "近": 1170,
      "返": 1171,
      "还": 1172,
      "这": 1173,
      "进": 1174,
      "远": 1175,
      "违": 1176,
      "连": 1177,
      "述": 1178,
      "追": 1179,
      "退": 1180,
      "适": 1181,
      "逆": 1182,
      "选": 1183,
      "透": 1184,
      "逐": 1185,
      "递": 1186,
      "逗": 1187,
      "這": 1188,
      "通": 1189,
      "逝": 1190,
      "速": 1191,
      "造": 1192,
      "逻": 1193,
      "遍": 1194,
      "道": 1195,
      "遗": 1196,
      "避": 1197,
      "那": 1198,
      "邻": 1199,
      "部": 1200,
      "都": 1201,
      "配": 1202,
      "采": 1203,
      "释": 1204,
      "里": 1205,
      "重": 1206,
      "野": 1207,
      "量": 1208,
      "金": 1209,
      "针": 1210,
      "钟": 1211,
      "链": 1212,
      "销": 1213,
      "错": 1214,
      "锥": 1215,
      "键": 1216,
      "长": 1217,
      "门": 1218,
      "闭": 1219,
      "问": 1220,
      "闲": 1221,
      "间": 1222,
      "阈": 1223,
      "队": 1224,
      "阱": 1225,
      "阴": 1226,
      "阵": 1227,
      "阶": 1228,
      "际": 1229,
      "限": 1230,
      "除": 1231,
      "险": 1232,
      "陷": 1233,
      "随": 1234,
      "隐": 1235,
      "隔": 1236,
      "隧": 1237,
      "难": 1238,
      "集": 1239,
      "離": 1240,
      "零": 1241,
      "需": 1242,
      "静": 1243,
      "非": 1244,
      "靠": 1245,
      "面": 1246,
      "音": 1247,
      "页": 1248,
      "顶": 1249,
      "项": 1250,
      "顺": 1251,
      "须": 1252,
      "顾": 1253,
      "预": 1254,
      "题": 1255,
      "颜": 1256,
      "额": 1257,
      "风": 1258,
      "食": 1259,
      "餘": 1260,
      "饭": 1261,
      "首": 1262,
      "马": 1263,
      "驱": 1264,
      "驶": 1265,
      "驾": 1266,
      "验": 1267,
      "骤": 1268,
      "骰": 1269,
      "高": 1270,
      "麻": 1271,
      "麼": 1272,
      "경": 1273,
      "년": 1274,
      "자": 1275,
      "️": 1276,
      "�": 1277,
      "##e": 1278,
      "##r": 1279,
      "##m": 1280,
      "##5": 1281,
      "##c": 1282,
      "##t": 1283,
      "##a": 1284,
      "##2": 1285,
      "##1": 1286,
      "##9": 1287,
      "##4": 1288,
      "##0": 1289,
      "##3": 1290,
      "##s": 1291,
      "##n": 1292,
      "##d": 1293,
      "##l": 1294,
      "##h": 1295,
      "##o": 1296,
      "##q": 1297,
      "##u": 1298,
      "##i": 1299,
      "##一": 1300,
      "##般": 1301,
      "##有": 1302,
      "##兩": 1303,
      "##個": 1304,
      "##解": 1305,
      "##8": 1306,
      "##7": 1307,
      "##y": 1308,
      "##p": 1309,
      "##也": 1310,
      "##许": 1311,
      "##我": 1312,
      "##应": 1313,
      "##该": 1314,
      "##计": 1315,
      "##算": 1316,
      "##些": 1317,
      "##具": 1318,
      "##体": 1319,
      "##的": 1320,
      "##距": 1321,
      "##离": 1322,
      "##如": 1323,
      "##果": 1324,
      "##存": 1325,
      "##在": 1326,
      "##任": 1327,
      "##何": 1328,
      "##个": 1329,
      "##使": 1330,
      "##得": 1331,
      "##w": 1332,
      "##f": 1333,
      "##6": 1334,
      "##g": 1335,
      "##x": 1336,
      "##必": 1337,
      "##须": 1338,
      "##经": 1339,
      "##过": 1340,
      "##九": 1341,
      "##点": 1342,
      "##圆": 1343,
      "##b": 1344,
      "##k": 1345,
      "##ú": 1346,
      "##ζ": 1347,
      "##v": 1348,
      "##开": 1349,
      "##始": 1350,
      "##可": 1351,
      "##以": 1352,
      "##找": 1353,
      "##到": 1354,
      "##方": 1355,
      "##式": 1356,
      "##来": 1357,
      "##预": 1358,
      "##先": 1359,
      "##处": 1360,
      "##理": 1361,
      "##字": 1362,
      "##符": 1363,
      "##串": 1364,
      "##街": 1365,
      "##道": 1366,
      "##另": 1367,
      "##边": 1368,
      "##跑": 1369,
      "##步": 1370,
      "##节": 1371,
      "##值": 1372,
      "##是": 1373,
      "##单": 1374,
      "##词": 1375,
      "##z": 1376,
      "##至": 1377,
      "##少": 1378,
      "##对": 1379,
      "##进": 1380,
      "##程": 1381,
      "##当": 1382,
      "##前": 1383,
      "##正": 1384,
      "##测": 1385,
      "##试": 1386,
      "##哪": 1387,
      "##决": 1388,
      "##案": 1389,
      "##域": 1390,
      "##中": 1391,
      "##间": 1392,
      "##复": 1393,
      "##杂": 1394,
      "##度": 1395,
      "##ó": 1396,
      "##每": 1397,
      "##物": 1398,
      "##品": 1399,
      "##被": 1400,
      "##喜": 1401,
      "##欢": 1402,
      "##次": 1403,
      "##数": 1404,
      "##记": 1405,
      "##等": 1406,
      "##价": 1407,
      "##于": 1408,
      "##垂": 1409,
      "##直": 1410,
      "##j": 1411,
      "##这": 1412,
      "##成": 1413,
      "##立": 1414,
      "##能": 1415,
      "##更": 1416,
      "##简": 1417,
      "##法": 1418,
      "##切": 1419,
      "##换": 1420,
      "##学": 1421,
      "##生": 1422,
      "##和": 1423,
      "##时": 1424,
      "##初": 1425,
      "##排": 1426,
      "##列": 1427,
      "##样": 1428,
      "##终": 1429,
      "##代": 1430,
      "##码": 1431,
      "##γ": 1432,
      "##不": 1433,
      "##右": 1434,
      "##子": 1435,
      "##三": 1436,
      "##角": 1437,
      "##形": 1438,
      "##条": 1439,
      "##带": 1440,
      "##宽": 1441,
      "##为": 1442,
      "##所": 1443,
      "##都": 1444,
      "##完": 1445,
      "##毕": 1446,
      "##某": 1447,
      "##内": 1448,
      "##部": 1449,
      "##外": 1450,
      "##扩": 1451,
      "##英": 1452,
      "##尺": 1453,
      "##ˆ": 1454,
      "##么": 1455,
      "##左": 1456,
      "##相": 1457,
      "##地": 1458,
      "##ö": 1459,
      "##化": 1460,
      "##表": 1461,
      "##达": 1462,
      "##π": 1463,
      "##ô": 1464,
      "##要": 1465,
      "##选": 1466,
      "##择": 1467,
      "##共": 1468,
      "##线": 1469,
      "##再": 1470,
      "##考": 1471,
      "##虑": 1472,
      "##下": 1473,
      "##否": 1474,
      "##重": 1475,
      "##叠": 1476,
      "##情": 1477,
      "##况": 1478,
      "##ω": 1479,
      "##其": 1480,
      "##他": 1481,
      "##系": 1482,
      "##统": 1483,
      "##者": 1484,
      "##什": 1485,
      "##性": 1486,
      "##质": 1487,
      "##们": 1488,
      "##需": 1489,
      "##从": 1490,
      "##给": 1491,
      "##定": 1492,
      "##提": 1493,
      "##取": 1494,
      "##т": 1495,
      "##е": 1496,
      "##п": 1497,
      "##н": 1498,
      "##й": 1499,
      "##о": 1500,
      "##г": 1501,
      "##д": 1502,
      "##а": 1503,
      "##第": 1504,
      "##元": 1505,
      "##组": 1506,
      "##但": 1507,
      "##例": 1508,
      "##输": 1509,
      "##出": 1510,
      "##特": 1511,
      "##图": 1512,
      "##与": 1513,
      "##之": 1514,
      "##征": 1515,
      "##同": 1516,
      "##义": 1517,
      "##后": 1518,
      "##调": 1519,
      "##用": 1520,
      "##它": 1521,
      "##称": 1522,
      "##很": 1523,
      "##强": 1524,
      "##二": 1525,
      "##и": 1526,
      "##к": 1527,
      "##л": 1528,
      "##в": 1529,
      "##分": 1530,
      "##尝": 1531,
      "##实": 1532,
      "##现": 1533,
      "##新": 1534,
      "##除": 1535,
      "##此": 1536,
      "##向": 1537,
      "##量": 1538,
      "##机": 1539,
      "##器": 1540,
      "##习": 1541,
      "##示": 1542,
      "##捕": 1543,
      "##获": 1544,
      "##界": 1545,
      "##父": 1546,
      "##深": 1547,
      "##入": 1548,
      "##几": 1549,
      "##知": 1550,
      "##识": 1551,
      "##或": 1552,
      "##技": 1553,
      "##巧": 1554,
      "##维": 1555,
      "##护": 1556,
      "##范": 1557,
      "##围": 1558,
      "##色": 1559,
      "##仍": 1560,
      "##然": 1561,
      "##够": 1562,
      "##就": 1563,
      "##证": 1564,
      "##明": 1565,
      "##会": 1566,
      "##超": 1567,
      "##起": 1568,
      "##只": 1569,
      "##全": 1570,
      "##才": 1571,
      "##增": 1572,
      "##加": 1573,
      "##没": 1574,
      "##接": 1575,
      "##帮": 1576,
      "##助": 1577,
      "##期": 1578,
      "##望": 1579,
      "##转": 1580,
      "##整": 1581,
      "##查": 1582,
      "##问": 1583,
      "##题": 1584,
      "##互": 1585,
      "##种": 1586,
      "##关": 1587,
      "##区": 1588,
      "##还": 1589,
      "##跟": 1590,
      "##踪": 1591,
      "##刻": 1592,
      "##说": 1593,
      "##ő": 1594,
      "##平": 1595,
      "##位": 1596,
      "##移": 1597,
      "##将": 1598,
      "##圈": 1599,
      "##у": 1600,
      "##щ": 1601,
      "##м": 1602,
      "##矩": 1603,
      "##阵": 1604,
      "##类": 1605,
      "##似": 1606,
      "##仔": 1607,
      "##细": 1608,
      "##搜": 1609,
      "##索": 1610,
      "##路": 1611,
      "##径": 1612,
      "##听": 1613,
      "##及": 1614,
      "##认": 1615,
      "##确": 1616,
      "##行": 1617,
      "##浮": 1618,
      "##无": 1619,
      "##穷": 1620,
      "##负": 1621,
      "##í": 1622,
      "##θ": 1623,
      "##项": 1624,
      "##限": 1625,
      "##制": 1626,
      "##с": 1627,
      "##段": 1628,
      "##构": 1629,
      "##按": 1630,
      "##照": 1631,
      "##答": 1632,
      "##р": 1633,
      "##я": 1634,
      "##录": 1635,
      "##抽": 1636,
      "##象": 1637,
      "##序": 1638,
      "##积": 1639,
      "##î": 1640,
      "##á": 1641,
      "##失": 1642,
      "##败": 1643,
      "##原": 1644,
      "##面": 1645,
      "##上": 1646,
      "##球": 1647,
      "##半": 1648,
      "##反": 1649,
      "##素": 1650,
      "##贡": 1651,
      "##献": 1652,
      "##ь": 1653,
      "##ы": 1654,
      "##х": 1655,
      "##з": 1656,
      "##ш": 1657,
      "##合": 1658,
      "##格": 1659,
      "##割": 1660,
      "##草": 1661,
      "##岛": 1662,
      "##放": 1663,
      "##置": 1664,
      "##炸": 1665,
      "##弹": 1666,
      "##长": 1667,
      "##编": 1668,
      "##写": 1669,
      "##多": 1670,
      "##集": 1671,
      "##交": 1672,
      "##殊": 1673,
      "##ä": 1674,
      "##α": 1675,
      "##ρ": 1676,
      "##ο": 1677,
      "##ί": 1678,
      "##δ": 1679,
      "##受": 1680,
      "##引": 1681,
      "##又": 1682,
      "##让": 1683,
      "##继": 1684,
      "##续": 1685,
      "##坐": 1686,
      "##标": 1687,
      "##走": 1688,
      "##运": 1689,
      "##检": 1690,
      "##织": 1691,
      "##论": 1692,
      "##了": 1693,
      "##高": 1694,
      "##效": 1695,
      "##覆": 1696,
      "##盖": 1697,
      "##级": 1698,
      "##小": 1699,
      "##打": 1700,
      "##印": 1701,
      "##局": 1702,
      "##函": 1703,
      "##满": 1704,
      "##足": 1705,
      "##件": 1706,
      "##看": 1707,
      "##公": 1708,
      "##掉": 1709,
      "##四": 1710,
      "##设": 1711,
      "##ч": 1712,
      "##律": 1713,
      "##文": 1714,
      "##档": 1715,
      "##自": 1716,
      "##动": 1717,
      "##逐": 1718,
      "##工": 1719,
      "##作": 1720,
      "##土": 1721,
      "##木": 1722,
      "##读": 1723,
      "##并": 1724,
      "##ж": 1725,
      "##ю": 1726,
      "##骤": 1727,
      "##ü": 1728,
      "##准": 1729,
      "##承": 1730,
      "##ς": 1731,
      "##己": 1732,
      "##翻": 1733,
      "##译": 1734,
      "##√": 1735,
      "##源": 1736,
      "##趣": 1737,
      "##颜": 1738,
      "##变": 1739,
      "##怪": 1740,
      "##兽": 1741,
      "##逆": 1742,
      "##目": 1743,
      "##身": 1744,
      "##结": 1745,
      "##束": 1746,
      "##别": 1747,
      "##费": 1748,
      "##马": 1749,
      "##产": 1750,
      "##权": 1751,
      "##既": 1752,
      "##求": 1753,
      "##执": 1754,
      "##精": 1755,
      "##確": 1756,
      "##想": 1757,
      "##号": 1758,
      "##近": 1759,
      "##保": 1760,
      "##磅": 1761,
      "##释": 1762,
      "##б": 1763,
      "##ъ": 1764,
      "##̄": 1765,
      "##包": 1766,
      "##含": 1767,
      "##两": 1768,
      "##意": 1769,
      "##见": 1770,
      "##通": 1771,
      "##大": 1772,
      "##最": 1773,
      "##总": 1774,
      "##着": 1775,
      "##管": 1776,
      "##é": 1777,
      "##φ": 1778,
      "##水": 1779,
      "##β": 1780,
      "##车": 1781,
      "##秒": 1782,
      "##驶": 1783,
      "##好": 1784,
      "##寻": 1785,
      "##遗": 1786,
      "##憾": 1787,
      "##百": 1788,
      "##比": 1789,
      "##穿": 1790,
      "##透": 1791,
      "##太": 1792,
      "##熟": 1793,
      "##悉": 1794,
      "##恒": 1795,
      "##概": 1796,
      "##率": 1797,
      "##思": 1798,
      "##希": 1799,
      "##尔": 1800,
      "##伯": 1801,
      "##空": 1802,
      "##已": 1803,
      "##户": 1804,
      "##朋": 1805,
      "##友": 1806,
      "##假": 1807,
      "##且": 1808,
      "##涉": 1809,
      "##非": 1810,
      "##连": 1811,
      "##里": 1812,
      "##指": 1813,
      "##干": 1814,
      "##净": 1815,
      "##造": 1816,
      "##械": 1817,
      "##消": 1818,
      "##较": 1819,
      "##困": 1820,
      "##难": 1821,
      "##模": 1822,
      "##糊": 1823,
      "##众": 1824,
      "##参": 1825,
      "##环": 1826,
      "##境": 1827,
      "##策": 1828,
      "##η": 1829,
      "##版": 1830,
      "##树": 1831,
      "##根": 1832,
      "##ё": 1833,
      "##信": 1834,
      "##术": 1835,
      "##尽": 1836,
      "##气": 1837,
      "##规": 1838,
      "##则": 1839,
      "##验": 1840,
      "##唯": 1841,
      "##访": 1842,
      "##孩": 1843,
      "##缘": 1844,
      "##电": 1845,
      "##梯": 1846,
      "##搞": 1847,
      "##错": 1848,
      "##推": 1849,
      "##栈": 1850,
      "##那": 1851,
      "##匹": 1852,
      "##配": 1853,
      "##金": 1854,
      "##塔": 1855,
      "##哥": 1856,
      "##拉": 1857,
      "##斯": 1858,
      "##避": 1859,
      "##免": 1860,
      "##摄": 1861,
      "##影": 1862,
      "##阴": 1863,
      "##际": 1864,
      "##据": 1865,
      "##顶": 1866,
      "##人": 1867,
      "##冲": 1868,
      "##突": 1869,
      "##灾": 1870,
      "##害": 1871,
      "##王": 1872,
      "##回": 1873,
      "##未": 1874,
      "##拟": 1875,
      "##战": 1876,
      "##略": 1877,
      "##收": 1878,
      "##循": 1879,
      "##补": 1880,
      "##野": 1881,
      "##备": 1882,
      "##剩": 1883,
      "##余": 1884,
      "##功": 1885,
      "##呢": 1886,
      "##速": 1887,
      "##待": 1888,
      "##退": 1889,
      "##彻": 1890,
      "##底": 1891,
      "##事": 1892,
      "##教": 1893,
      "##育": 1894,
      "##候": 1895,
      "##伸": 1896,
      "##闲": 1897,
      "##伴": 1898,
      "##随": 1899,
      "##哦": 1900,
      "##滿": 1901,
      "##袋": 1902,
      "##餘": 1903,
      "##數": 1904,
      "##乘": 1905,
      "##导": 1906,
      "##述": 1907,
      "##洁": 1908,
      "##顾": 1909,
      "##发": 1910,
      "##升": 1911,
      "##块": 1912,
      "##ν": 1913,
      "##逗": 1914,
      "##站": 1915,
      "##健": 1916,
      "##康": 1917,
      "##济": 1918,
      "##注": 1919,
      "##材": 1920,
      "##â": 1921,
      "##柯": 1922,
      "##西": 1923,
      "##减": 1924,
      "##去": 1925,
      "##遍": 1926,
      "##而": 1927,
      "##联": 1928,
      "##累": 1929,
      "##返": 1930,
      "##括": 1931,
      "##衡": 1932,
      "##投": 1933,
      "##做": 1934,
      "##饭": 1935,
      "##核": 1936,
      "##顺": 1937,
      "##乎": 1938,
      "##绕": 1939,
      "##充": 1940,
      "##暂": 1941,
      "##μ": 1942,
      "##由": 1943,
      "##闭": 1944,
      "##签": 1945,
      "##ф": 1946,
      "##型": 1947,
      "##ű": 1948,
      "##叉": 1949,
      "##约": 1950,
      "##ξ": 1951,
      "##因": 1952,
      "##幅": 1953,
      "##她": 1954,
      "##操": 1955,
      "##微": 1956,
      "##服": 1957,
      "##务": 1958,
      "##架": 1959,
      "##极": 1960,
      "##端": 1961,
      "##裝": 1962,
      "##時": 1963,
      "##σ": 1964,
      "##λ": 1965,
      "##常": 1966,
      "##远": 1967,
      "##布": 1968,
      "##偶": 1969,
      "##舍": 1970,
      "##弧": 1971,
      "##适": 1972,
      "##容": 1973,
      "##易": 1974,
      "##析": 1975,
      "##创": 1976,
      "##促": 1977,
      "##网": 1978,
      "##络": 1979,
      "##安": 1980,
      "##宪": 1981,
      "##严": 1982,
      "##利": 1983,
      "##七": 1984,
      "##神": 1985,
      "##即": 1986,
      "##侧": 1987,
      "##像": 1988,
      "##判": 1989,
      "##断": 1990,
      "##花": 1991,
      "##园": 1992,
      "##递": 1993,
      "##归": 1994,
      "##话": 1995,
      "##κ": 1996,
      "##仲": 1997,
      "##裁": 1998,
      "##麻": 1999,
      "##烦": 2000,
      "##š": 2001,
      "##优": 2002,
      "##倍": 2003,
      "##周": 2004,
      "##旁": 2005,
      "##è": 2006,
      "##风": 2007,
      "##险": 2008,
      "##误": 2009,
      "##τ": 2010,
      "##层": 2011,
      "##ʙ": 2012,
      "##ñ": 2013,
      "##诉": 2014,
      "##讼": 2015,
      "##队": 2016,
      "##储": 2017,
      "##建": 2018,
      "##伽": 2019,
      "##罗": 2020,
      "##瓦": 2021,
      "##手": 2022,
      "##首": 2023,
      "##致": 2024,
      "##基": 2025,
      "##践": 2026,
      "##农": 2027,
      "##业": 2028,
      "##张": 2029,
      "##伦": 2030,
      "##智": 2031,
      "##视": 2032,
      "##各": 2033,
      "##感": 2034,
      "##觉": 2035,
      "##清": 2036,
      "##楚": 2037,
      "##零": 2038,
      "##沿": 2039,
      "##本": 2040,
      "##链": 2041,
      "##差": 2042,
      "##留": 2043,
      "##̂": 2044,
      "##盾": 2045,
      "##邻": 2046,
      "##蚂": 2047,
      "##蚁": 2048,
      "##漏": 2049,
      "##ᴄ": 2050,
      "##心": 2051,
      "##流": 2052,
      "##逝": 2053,
      "##矛": 2054,
      "##画": 2055,
      "##低": 2056,
      "##若": 2057,
      "##税": 2058,
      "##轴": 2059,
      "##把": 2060,
      "##ε": 2061,
      "##修": 2062,
      "##改": 2063,
      "##键": 2064,
      "##态": 2065,
      "##纠": 2066,
      "##恰": 2067,
      "##跨": 2068,
      "##越": 2069,
      "##∞": 2070,
      "##靠": 2071,
      "##职": 2072,
      "##逻": 2073,
      "##辑": 2074,
      "##封": 2075,
      "##装": 2076,
      "##状": 2077,
      "##劳": 2078,
      "##五": 2079,
      "##迅": 2080,
      "##扫": 2081,
      "##描": 2082,
      "##语": 2083,
      "##言": 2084,
      "##固": 2085,
      "##光": 2086,
      "##截": 2087,
      "##员": 2088,
      "##场": 2089,
      "##繁": 2090,
      "##琐": 2091,
      "##味": 2092,
      "##响": 2093,
      "##潜": 2094,
      "##历": 2095,
      "##货": 2096,
      "##币": 2097,
      "##政": 2098,
      "##划": 2099,
      "##哲": 2100,
      "##ă": 2101,
      "##ц": 2102,
      "##ū": 2103,
      "##偏": 2104,
      "##阶": 2105,
      "##云": 2106,
      "##采": 2107,
      "##驾": 2108,
      "##仅": 2109,
      "##传": 2110,
      "##缩": 2111,
      "##犯": 2112,
      "##门": 2113,
      "##持": 2114,
      "##研": 2115,
      "##究": 2116,
      "##估": 2117,
      "##依": 2118,
      "##畴": 2119,
      "##钟": 2120,
      "##巴": 2121,
      "##拿": 2122,
      "##赫": 2123,
      "##板": 2124,
      "##射": 2125,
      "##母": 2126,
      "##付": 2127,
      "##观": 2128,
      "##彈": 2129,
      "##珠": 2130,
      "##┴": 2131,
      "##┐": 2132,
      "##弦": 2133,
      "##奇": 2134,
      "##C": 2135,
      "##э": 2136,
      "##独": 2137,
      "##村": 2138,
      "##庄": 2139,
      "##散": 2140,
      "##混": 2141,
      "##淆": 2142,
      "##妙": 2143,
      "##航": 2144,
      "##天": 2145,
      "##慢": 2146,
      "##念": 2147,
      "##ħ": 2148,
      "##科": 2149,
      "##落": 2150,
      "##省": 2151,
      "##å": 2152,
      "##早": 2153,
      "##朗": 2154,
      "##日": 2155,
      "##隔": 2156,
      "##č": 2157,
      "##填": 2158,
      "##欧": 2159,
      "##자": 2160,
      "##년": 2161,
      "##離": 2162,
      "##击": 2163,
      "##虚": 2164,
      "##展": 2165,
      "##额": 2166,
      "##便": 2167,
      "##快": 2168,
      "##国": 2169,
      "##老": 2170,
      "##师": 2171,
      "##ć": 2172,
      "##恢": 2173,
      "##星": 2174,
      "##药": 2175,
      "##允": 2176,
      "##营": 2177,
      "##台": 2178,
      "##声": 2179,
      "##掌": 2180,
      "##握": 2181,
      "##腰": 2182,
      "##软": 2183,
      "##室": 2184,
      "##央": 2185,
      "##凸": 2186,
      "##ψ": 2187,
      "##滑": 2188,
      "##窗": 2189,
      "##口": 2190,
      "##废": 2191,
      "##料": 2192,
      "##枚": 2193,
      "##举": 2194,
      "##句": 2195,
      "##說": 2196,
      "##景": 2197,
      "##纳": 2198,
      "##米": 2199,
      "##荐": 2200,
      "##息": 2201,
      "##─": 2202,
      "##ç": 2203,
      "##旋": 2204,
      "##忆": 2205,
      "##担": 2206,
      "##命": 2207,
      "##针": 2208,
      "##支": 2209,
      "##破": 2210,
      "##坏": 2211,
      "##诱": 2212,
      "##簇": 2213,
      "##υ": 2214,
      "##ά": 2215,
      "##ι": 2216,
      "##音": 2217,
      "##乐": 2218,
      "##头": 2219,
      "##力": 2220,
      "##资": 2221,
      "##缺": 2222,
      "##急": 2223,
      "##映": 2224,
      "##活": 2225,
      "##跃": 2226,
      "##挑": 2227,
      "##海": 2228,
      "##洋": 2229,
      "##显": 2230,
      "##往": 2231,
      "##ž": 2232,
      "##哇": 2233,
      "##察": 2234,
      "##双": 2235,
      "##锥": 2236,
      "##博": 2237,
      "##弈": 2238,
      "##赖": 2239,
      "##怎": 2240,
      "##纺": 2241,
      "##總": 2242,
      "##於": 2243,
      "##堆": 2244,
      "##們": 2245,
      "##责": 2246,
      "##家": 2247,
      "##托": 2248,
      "##勒": 2249,
      "##密": 2250,
      "##猜": 2251,
      "##融": 2252,
      "##典": 2253,
      "##游": 2254,
      "##均": 2255,
      "##嗯": 2256,
      "##抵": 2257,
      "##戏": 2258,
      "##私": 2259,
      "##冒": 2260,
      "##泡": 2261,
      "##T": 2262,
      "##M": 2263,
      "##详": 2264,
      "##民": 2265,
      "##轮": 2266,
      "##廓": 2267,
      "##东": 2268,
      "##审": 2269,
      "##志": 2270,
      "##缓": 2271,
      "##∑": 2272,
      "##拍": 2273,
      "##卖": 2274,
      "##陷": 2275,
      "##阱": 2276,
      "##χ": 2277,
      "##矢": 2278,
      "##添": 2279,
      "##挖": 2280,
      "##掘": 2281,
      "##普": 2282,
      "##吗": 2283,
      "##库": 2284,
      "##碳": 2285,
      "##矮": 2286,
      "##ø": 2287,
      "##隧": 2288,
      "##市": 2289,
      "##纸": 2290,
      "##财": 2291,
      "##美": 2292,
      "##伙": 2293,
      "##旦": 2294,
      "##社": 2295,
      "##演": 2296,
      "##啊": 2297,
      "##≈": 2298,
      "##來": 2299,
      "##沒": 2300,
      "##控": 2301,
      "##供": 2302,
      "##佳": 2303,
      "##删": 2304,
      "##宜": 2305,
      "##宣": 2306,
      "##名": 2307,
      "##聪": 2308,
      "##涵": 2309,
      "##庭": 2310,
      "##為": 2311,
      "##麼": 2312,
      "##會": 2313,
      "##這": 2314,
      "##樣": 2315,
      "##讨": 2316,
      "##論": 2317,
      "##̅": 2318,
      "##別": 2319,
      "##¬": 2320,
      "##茨": 2321,
      "##广": 2322,
      "##耗": 2323,
      "##八": 2324,
      "##六": 2325,
      "##贪": 2326,
      "##休": 2327,
      "##曲": 2328,
      "##替": 2329,
      "##阈": 2330,
      "##销": 2331,
      "##批": 2332,
      "##ï": 2333,
      "##凹": 2334,
      "##综": 2335,
      "##妆": 2336,
      "##隐": 2337,
      "##跳": 2338,
      "##結": 2339,
      "##傅": 2340,
      "##叶": 2341,
      "##医": 2342,
      "##末": 2343,
      "##尾": 2344,
      "##页": 2345,
      "##食": 2346,
      "##骰": 2347,
      "##稳": 2348,
      "##應": 2349,
      "##該": 2350,
      "##商": 2351,
      "##违": 2352,
      "##背": 2353,
      "##练": 2354,
      "##群": 2355,
      "##拓": 2356,
      "##扑": 2357,
      "##敏": 2358,
      "##捷": 2359,
      "##绿": 2360,
      "##德": 2361,
      "##启": 2362,
      "##史": 2363,
      "##暗": 2364,
      "##热": 2365,
      "##岗": 2366,
      "##∫": 2367,
      "##弯": 2368,
      "##蛇": 2369,
      "##司": 2370,
      "##ȳ": 2371,
      "##驱": 2372,
      "##衍": 2373,
      "##孤": 2374,
      "##贸": 2375,
      "##笔": 2376,
      "##刑": 2377,
      "##兼": 2378,
      "##森": 2379,
      "##林": 2380,
      "##乱": 2381,
      "##裡": 2382,
      "##静": 2383,
      "##無": 2384,
      "##评": 2385,
      "th": 2386,
      "the": 2387,
      "##in": 2388,
      "##er": 2389,
      "##on": 2390,
      "##at": 2391,
      "##es": 2392,
      "##or": 2393,
      "##en": 2394,
      "an": 2395,
      "to": 2396,
      "##al": 2397,
      "##ion": 2398,
      "##le": 2399,
      "##re": 2400,
      "in": 2401,
      "##an": 2402,
      "##ing": 2403,
      "##it": 2404,
      "of": 2405,
      "##ut": 2406,
      "##ed": 2407,
      "##ac": 2408,
      "and": 2409,
      "is": 2410,
      "##is": 2411,
      "##ro": 2412,
      "##ar": 2413,
      "##ou": 2414,
      "##ic": 2415,
      "##um": 2416,
      "##ec": 2417,
      "##th": 2418,
      "that": 2419,
      "##ent": 2420,
      "##ly": 2421,
      "##ve": 2422,
      "con": 2423,
      "##et": 2424,
      "so": 2425,
      "##id": 2426,
      "for": 2427,
      "##as": 2428,
      "re": 2429,
      "##gh": 2430,
      "##im": 2431,
      "##os": 2432,
      "be": 2433,
      "ne": 2434,
      "st": 2435,
      "##st": 2436,
      "wh": 2437,
      "##qu": 2438,
      "##ot": 2439,
      "##ow": 2440,
      "##rac": 2441,
      "##ir": 2442,
      "##ter": 2443,
      "##tion": 2444,
      "can": 2445,
      "##ation": 2446,
      "##ght": 2447,
      "co": 2448,
      "##ll": 2449,
      "##mp": 2450,
      "##ay": 2451,
      "are": 2452,
      "on": 2453,
      "pro": 2454,
      "ns": 2455,
      "##ce": 2456,
      "##ith": 2457,
      "##ap": 2458,
      "ex": 2459,
      "frac": 2460,
      "##ach": 2461,
      "as": 2462,
      "di": 2463,
      "it": 2464,
      "with": 2465,
      "need": 2466,
      "this": 2467,
      "##ive": 2468,
      "##ble": 2469,
      "se": 2470,
      "nth": 2471,
      "##ul": 2472,
      "##rom": 2473,
      "##ld": 2474,
      "sol": 2475,
      "##se": 2476,
      "per": 2477,
      "su": 2478,
      "fin": 2479,
      "num": 2480,
      "##ess": 2481,
      "##ber": 2482,
      "cons": 2483,
      "from": 2484,
      "##00": 2485,
      "##ain": 2486,
      "##ct": 2487,
      "tr": 2488,
      "number": 2489,
      "##em": 2490,
      "sum": 2491,
      "##ts": 2492,
      "##ution": 2493,
      "##ider": 2494,
      "if": 2495,
      "consider": 2496,
      "##ight": 2497,
      "##ere": 2498,
      "at": 2499,
      "##ould": 2500,
      "##ad": 2501,
      "me": 2502,
      "le": 2503,
      "solution": 2504,
      "nw": 2505,
      "##ang": 2506,
      "or": 2507,
      "pos": 2508,
      "##aps": 2509,
      "sh": 2510,
      "##ich": 2511,
      "nb": 2512,
      "each": 2513,
      "##il": 2514,
      "nso": 2515,
      "##ate": 2516,
      "##haps": 2517,
      "ch": 2518,
      "which": 2519,
      "##ur": 2520,
      "##ist": 2521,
      "##ch": 2522,
      "##let": 2523,
      "##ait": 2524,
      "##if": 2525,
      "en": 2526,
      "##for": 2527,
      "nbut": 2528,
      "but": 2529,
      "##ver": 2530,
      "perhaps": 2531,
      "nlet": 2532,
      "##ep": 2533,
      "equ": 2534,
      "int": 2535,
      "not": 2536,
      "po": 2537,
      "nwait": 2538,
      "##me": 2539,
      "##ff": 2540,
      "find": 2541,
      "##pp": 2542,
      "##iv": 2543,
      "exp": 2544,
      "all": 2545,
      "by": 2546,
      "##ative": 2547,
      "ma": 2548,
      "10": 2549,
      "ab": 2550,
      "##de": 2551,
      "##les": 2552,
      "##ition": 2553,
      "thou": 2554,
      "we": 2555,
      "thought": 2556,
      "##tern": 2557,
      "nal": 2558,
      "sin": 2559,
      "there": 2560,
      "##ect": 2561,
      "##be": 2562,
      "##ations": 2563,
      "##ment": 2564,
      "comp": 2565,
      "##iz": 2566,
      "no": 2567,
      "de": 2568,
      "##put": 2569,
      "##ue": 2570,
      "should": 2571,
      "form": 2572,
      "tim": 2573,
      "step": 2574,
      "##rt": 2575,
      "##ction": 2576,
      "val": 2577,
      "poin": 2578,
      "##si": 2579,
      "##qrt": 2580,
      "sqrt": 2581,
      "ac": 2582,
      "al": 2583,
      "##atively": 2584,
      "##ther": 2585,
      "##ave": 2586,
      "tw": 2587,
      "##aybe": 2588,
      "sp": 2589,
      "naltern": 2590,
      "app": 2591,
      "nn": 2592,
      "##ke": 2593,
      "nalternatively": 2594,
      "one": 2595,
      "##ies": 2596,
      "sec": 2597,
      "##om": 2598,
      "##ase": 2599,
      "##us": 2600,
      "##ine": 2601,
      "pr": 2602,
      "##ink": 2603,
      "qu": 2604,
      "two": 2605,
      "mo": 2606,
      "##irst": 2607,
      "have": 2608,
      "think": 2609,
      "##oun": 2610,
      "then": 2611,
      "min": 2612,
      "##ip": 2613,
      "##ag": 2614,
      "##ant": 2615,
      "##irc": 2616,
      "##rou": 2617,
      "##ger": 2618,
      "##gin": 2619,
      "##mple": 2620,
      "pre": 2621,
      "##lo": 2622,
      "where": 2623,
      "bo": 2624,
      "##erm": 2625,
      "##blem": 2626,
      "##ert": 2627,
      "un": 2628,
      "problem": 2629,
      "right": 2630,
      "##ex": 2631,
      "##our": 2632,
      "us": 2633,
      "##and": 2634,
      "maybe": 2635,
      "##iven": 2636,
      "##ft": 2637,
      "end": 2638,
      "diff": 2639,
      "##rect": 2640,
      "##ide": 2641,
      "##ence": 2642,
      "ni": 2643,
      "lo": 2644,
      "##fore": 2645,
      "##lor": 2646,
      "sy": 2647,
      "12": 2648,
      "pl": 2649,
      "tri": 2650,
      "bet": 2651,
      "##est": 2652,
      "##ity": 2653,
      "ang": 2654,
      "since": 2655,
      "circ": 2656,
      "##tions": 2657,
      "any": 2658,
      "inte": 2659,
      "##sible": 2660,
      "max": 2661,
      "differ": 2662,
      "##ally": 2663,
      "##art": 2664,
      "##ems": 2665,
      "str": 2666,
      "acc": 2667,
      "ad": 2668,
      "let": 2669,
      "triang": 2670,
      "left": 2671,
      "sa": 2672,
      "appro": 2673,
      "nthis": 2674,
      "mat": 2675,
      "##ated": 2676,
      "##cl": 2677,
      "cor": 2678,
      "such": 2679,
      "##un": 2680,
      "integer": 2681,
      "det": 2682,
      "sub": 2683,
      "some": 2684,
      "##act": 2685,
      "way": 2686,
      "##der": 2687,
      "out": 2688,
      "he": 2689,
      "nnow": 2690,
      "abo": 2691,
      "ro": 2692,
      "times": 2693,
      "dist": 2694,
      "##ol": 2695,
      "begin": 2696,
      "div": 2697,
      "op": 2698,
      "##am": 2699,
      "has": 2700,
      "seems": 2701,
      "try": 2702,
      "position": 2703,
      "##ust": 2704,
      "##tal": 2705,
      "##all": 2706,
      "up": 2707,
      "first": 2708,
      "##ord": 2709,
      "term": 2710,
      "possible": 2711,
      "set": 2712,
      "n1": 2713,
      "nf": 2714,
      "equal": 2715,
      "##ond": 2716,
      "##ise": 2717,
      "cos": 2718,
      "##ute": 2719,
      "##ult": 2720,
      "cd": 2721,
      "rem": 2722,
      "##ose": 2723,
      "##cess": 2724,
      "nin": 2725,
      "##ext": 2726,
      "##ress": 2727,
      "ar": 2728,
      "final": 2729,
      "value": 2730,
      "100": 2731,
      "##ree": 2732,
      "do": 2733,
      "##ors": 2734,
      "len": 2735,
      "##rough": 2736,
      "through": 2737,
      "total": 2738,
      "##are": 2739,
      "sim": 2740,
      "##ial": 2741,
      "process": 2742,
      "##end": 2743,
      "res": 2744,
      "ref": 2745,
      "##ure": 2746,
      "these": 2747,
      "points": 2748,
      "syst": 2749,
      "inter": 2750,
      "##ack": 2751,
      "approach": 2752,
      "express": 2753,
      "steps": 2754,
      "fo": 2755,
      "than": 2756,
      "11": 2757,
      "case": 2758,
      "system": 2759,
      "##uct": 2760,
      "input": 2761,
      "##gth": 2762,
      "##ted": 2763,
      "triangle": 2764,
      "other": 2765,
      "##we": 2766,
      "n2": 2767,
      "##ize": 2768,
      "np": 2769,
      "nthen": 2770,
      "##ix": 2771,
      "cdot": 2772,
      "spec": 2773,
      "##ge": 2774,
      "ques": 2775,
      "different": 2776,
      "##urr": 2777,
      "##ous": 2778,
      "length": 2779,
      "##imum": 2780,
      "##ilar": 2781,
      "fun": 2782,
      "##ore": 2783,
      "##ween": 2784,
      "text": 2785,
      "point": 2786,
      "20": 2787,
      "##ast": 2788,
      "between": 2789,
      "ass": 2790,
      "terms": 2791,
      "line": 2792,
      "squ": 2793,
      "##cul": 2794,
      "sm": 2795,
      "into": 2796,
      "##eck": 2797,
      "function": 2798,
      "correct": 2799,
      "##ill": 2800,
      "gr": 2801,
      "angle": 2802,
      "use": 2803,
      "both": 2804,
      "##cise": 2805,
      "##air": 2806,
      "format": 2807,
      "##llow": 2808,
      "numbers": 2809,
      "your": 2810,
      "only": 2811,
      "section": 2812,
      "would": 2813,
      "nthere": 2814,
      "##gn": 2815,
      "area": 2816,
      "##git": 2817,
      "rel": 2818,
      "##alcul": 2819,
      "coun": 2820,
      "explor": 2821,
      "using": 2822,
      "cont": 2823,
      "deta": 2824,
      "##ard": 2825,
      "digit": 2826,
      "over": 2827,
      "##urrent": 2828,
      "##ong": 2829,
      "##ides": 2830,
      "ntherefore": 2831,
      "follow": 2832,
      "##ab": 2833,
      "nt": 2834,
      "##ents": 2835,
      "nfor": 2836,
      "check": 2837,
      "about": 2838,
      "##ary": 2839,
      "##dition": 2840,
      "##int": 2841,
      "##ers": 2842,
      "given": 2843,
      "##ample": 2844,
      "##ok": 2845,
      "##atic": 2846,
      "##ance": 2847,
      "specif": 2848,
      "16": 2849,
      "##ici": 2850,
      "current": 2851,
      "li": 2852,
      "ng": 2853,
      "pair": 2854,
      "##ass": 2855,
      "calcul": 2856,
      "equation": 2857,
      "nm": 2858,
      "time": 2859,
      "bec": 2860,
      "##ines": 2861,
      "sequ": 2862,
      "##ates": 2863,
      "##ffici": 2864,
      "##ious": 2865,
      "remain": 2866,
      "mod": 2867,
      "their": 2868,
      "##ify": 2869,
      "must": 2870,
      "##li": 2871,
      "vert": 2872,
      "ed": 2873,
      "##ments": 2874,
      "##ves": 2875,
      "##ical": 2876,
      "output": 2877,
      "inv": 2878,
      "##ultip": 2879,
      "ele": 2880,
      "lar": 2881,
      "cy": 2882,
      "ev": 2883,
      "##enc": 2884,
      "const": 2885,
      "does": 2886,
      "##ange": 2887,
      "nif": 2888,
      "##able": 2889,
      "bas": 2890,
      "gen": 2891,
      "pat": 2892,
      "##ans": 2893,
      "##ite": 2894,
      "cho": 2895,
      "##lection": 2896,
      "par": 2897,
      "##mm": 2898,
      "##rain": 2899,
      "##ues": 2900,
      "pi": 2901,
      "##ens": 2902,
      "might": 2903,
      "same": 2904,
      "log": 2905,
      "multip": 2906,
      "##au": 2907,
      "nthe": 2908,
      "fact": 2909,
      "15": 2910,
      "##pl": 2911,
      "##od": 2912,
      "solve": 2913,
      "25": 2914,
      "make": 2915,
      "how": 2916,
      "n3": 2917,
      "example": 2918,
      "##ings": 2919,
      "##ays": 2920,
      "##clu": 2921,
      "they": 2922,
      "square": 2923,
      "ngiven": 2924,
      "arr": 2925,
      "##ting": 2926,
      "summ": 2927,
      "anal": 2928,
      "second": 2929,
      "##res": 2930,
      "##so": 2931,
      "more": 2932,
      "reflection": 2933,
      "##other": 2934,
      "gener": 2935,
      "based": 2936,
      "expression": 2937,
      "nc": 2938,
      "##ater": 2939,
      "##ices": 2940,
      "them": 2941,
      "too": 2942,
      "##izing": 2943,
      "condition": 2944,
      "imp": 2945,
      "see": 2946,
      "like": 2947,
      "inc": 2948,
      "na": 2949,
      "sure": 2950,
      "cyc": 2951,
      "its": 2952,
      "non": 2953,
      "##ound": 2954,
      "nsim": 2955,
      "get": 2956,
      "##itive": 2957,
      "divis": 2958,
      "prop": 2959,
      "circle": 2960,
      "nfirst": 2961,
      "precise": 2962,
      "##ges": 2963,
      "##ause": 2964,
      "start": 2965,
      "##urate": 2966,
      "accurate": 2967,
      "sequence": 2968,
      "new": 2969,
      "back": 2970,
      "13": 2971,
      "read": 2972,
      "main": 2973,
      "sides": 2974,
      "iter": 2975,
      "side": 2976,
      "##ilarly": 2977,
      "rec": 2978,
      "invol": 2979,
      "prim": 2980,
      "##aph": 2981,
      "var": 2982,
      "match": 2983,
      "values": 2984,
      "maximum": 2985,
      "##11": 2986,
      "nh": 2987,
      "compute": 2988,
      "##istant": 2989,
      "requ": 2990,
      "##fficient": 2991,
      "##ular": 2992,
      "three": 2993,
      "summar": 2994,
      "ce": 2995,
      "detail": 2996,
      "positive": 2997,
      "##ots": 2998,
      "18": 2999,
      "systematic": 3000,
      "thinking": 3001,
      "##wer": 3002,
      "##ating": 3003,
      "##imal": 3004,
      "questions": 3005,
      "distance": 3006,
      "assistant": 3007,
      "integers": 3008,
      "formatted": 3009,
      "summarizing": 3010,
      "count": 3011,
      "##ri": 3012,
      "cent": 3013,
      "order": 3014,
      "least": 3015,
      "##loor": 3016,
      "##ace": 3017,
      "##trac": 3018,
      "ear": 3019,
      "inters": 3020,
      "look": 3021,
      "positions": 3022,
      "inclu": 3023,
      "##etr": 3024,
      "even": 3025,
      "because": 3026,
      "color": 3027,
      "doesn": 3028,
      "##fter": 3029,
      "part": 3030,
      "ans": 3031,
      "prod": 3032,
      "##vers": 3033,
      "resp": 3034,
      "##ile": 3035,
      "when": 3036,
      "deg": 3037,
      "##igh": 3038,
      "go": 3039,
      "you": 3040,
      "rep": 3041,
      "zer": 3042,
      "col": 3043,
      "sat": 3044,
      "formul": 3045,
      "row": 3046,
      "list": 3047,
      "def": 3048,
      "14": 3049,
      "prev": 3050,
      "what": 3051,
      "ta": 3052,
      "graph": 3053,
      "##isf": 3054,
      "##ph": 3055,
      "ge": 3056,
      "##lier": 3057,
      "reach": 3058,
      "cycle": 3059,
      "##ort": 3060,
      "answer": 3061,
      "path": 3062,
      "##lic": 3063,
      "satisf": 3064,
      "##ire": 3065,
      "nsimilarly": 3066,
      "man": 3067,
      "print": 3068,
      "quad": 3069,
      "ag": 3070,
      "formula": 3071,
      "conn": 3072,
      "leq": 3073,
      "earlier": 3074,
      "##dd": 3075,
      "##ving": 3076,
      "sample": 3077,
      "n4": 3078,
      "angles": 3079,
      "add": 3080,
      "propert": 3081,
      "##ks": 3082,
      "##age": 3083,
      "before": 3084,
      "##ecess": 3085,
      "##clus": 3086,
      "poly": 3087,
      "ver": 3088,
      "##par": 3089,
      "oper": 3090,
      "odd": 3091,
      "##sign": 3092,
      "here": 3093,
      "##ases": 3094,
      "necess": 3095,
      "solutions": 3096,
      "pairs": 3097,
      "nto": 3098,
      "now": 3099,
      "19": 3100,
      "again": 3101,
      "after": 3102,
      "separ": 3103,
      "##ied": 3104,
      "dp": 3105,
      "##ta": 3106,
      "kn": 3107,
      "small": 3108,
      "also": 3109,
      "gre": 3110,
      "long": 3111,
      "pm": 3112,
      "assign": 3113,
      "##ice": 3114,
      "math": 3115,
      "##isit": 3116,
      "##ordin": 3117,
      "##ys": 3118,
      "previous": 3119,
      "product": 3120,
      "specific": 3121,
      "choose": 3122,
      "##ough": 3123,
      "edges": 3124,
      "zero": 3125,
      "prov": 3126,
      "elements": 3127,
      "##clusion": 3128,
      "coordin": 3129,
      "needed": 3130,
      "bc": 3131,
      "prime": 3132,
      "direct": 3133,
      "hand": 3134,
      "den": 3135,
      "##ible": 3136,
      "##lop": 3137,
      "bin": 3138,
      "dec": 3139,
      "##emp": 3140,
      "digits": 3141,
      "efficient": 3142,
      "24": 3143,
      "##ming": 3144,
      "above": 3145,
      "ori": 3146,
      "wor": 3147,
      "box": 3148,
      "##bf": 3149,
      "contain": 3150,
      "less": 3151,
      "struct": 3152,
      "ens": 3153,
      "following": 3154,
      "##urn": 3155,
      "plan": 3156,
      "under": 3157,
      "py": 3158,
      "##iding": 3159,
      "nmaybe": 3160,
      "incre": 3161,
      "id": 3162,
      "constrain": 3163,
      "lines": 3164,
      "cell": 3165,
      "char": 3166,
      "##lest": 3167,
      "nd": 3168,
      "##ected": 3169,
      "##rees": 3170,
      "##gr": 3171,
      "my": 3172,
      "inde": 3173,
      "ide": 3174,
      "range": 3175,
      "exact": 3176,
      "pres": 3177,
      "know": 3178,
      "gu": 3179,
      "##rr": 3180,
      "##ator": 3181,
      "verify": 3182,
      "##cd": 3183,
      "##adi": 3184,
      "structure": 3185,
      "calculate": 3186,
      "att": 3187,
      "intersec": 3188,
      "##allest": 3189,
      "conf": 3190,
      "origin": 3191,
      "properties": 3192,
      "##ig": 3193,
      "multiple": 3194,
      "##its": 3195,
      "##roup": 3196,
      "smallest": 3197,
      "include": 3198,
      "determ": 3199,
      "could": 3200,
      "##ying": 3201,
      "cle": 3202,
      "neg": 3203,
      "##ters": 3204,
      "##ie": 3205,
      "##ually": 3206,
      "##mb": 3207,
      "question": 3208,
      "four": 3209,
      "vertices": 3210,
      "2x": 3211,
      "will": 3212,
      "nsu": 3213,
      "adj": 3214,
      "ke": 3215,
      "alph": 3216,
      "##ences": 3217,
      "##ility": 3218,
      "##lp": 3219,
      "another": 3220,
      "##lect": 3221,
      "cl": 3222,
      "##ower": 3223,
      "seg": 3224,
      "ind": 3225,
      "help": 3226,
      "##form": 3227,
      "better": 3228,
      "##ives": 3229,
      "nex": 3230,
      "well": 3231,
      "don": 3232,
      "##ining": 3233,
      "group": 3234,
      "##que": 3235,
      "17": 3236,
      "ho": 3237,
      "##ording": 3238,
      "clear": 3239,
      "pyth": 3240,
      "36": 3241,
      "considered": 3242,
      "##thing": 3243,
      "act": 3244,
      "theta": 3245,
      "alpha": 3246,
      "##ires": 3247,
      "##out": 3248,
      "necessary": 3249,
      "##imize": 3250,
      "30": 3251,
      "follows": 3252,
      "simpl": 3253,
      "200": 3254,
      "code": 3255,
      "err": 3256,
      "high": 3257,
      "##umn": 3258,
      "directly": 3259,
      "##king": 3260,
      "##itial": 3261,
      "repres": 3262,
      "constraints": 3263,
      "similar": 3264,
      "exactly": 3265,
      "minimum": 3266,
      "equiv": 3267,
      "present": 3268,
      "##inct": 3269,
      "##als": 3270,
      "conclusion": 3271,
      "sc": 3272,
      "quadr": 3273,
      "requires": 3274,
      "win": 3275,
      "##yp": 3276,
      "##agon": 3277,
      "##ason": 3278,
      "lead": 3279,
      "nper": 3280,
      "show": 3281,
      "distinct": 3282,
      "minimal": 3283,
      "involves": 3284,
      "red": 3285,
      "reason": 3286,
      "without": 3287,
      "column": 3288,
      "separated": 3289,
      "tang": 3290,
      "according": 3291,
      "python": 3292,
      "factor": 3293,
      "##cep": 3294,
      "rele": 3295,
      "degrees": 3296,
      "matches": 3297,
      "##rib": 3298,
      "assum": 3299,
      "##bab": 3300,
      "imple": 3301,
      "specified": 3302,
      "considering": 3303,
      "rev": 3304,
      "string": 3305,
      "reg": 3306,
      "cu": 3307,
      "##ppose": 3308,
      "##ra": 3309,
      "implement": 3310,
      "charac": 3311,
      "##ysis": 3312,
      "##vant": 3313,
      "##set": 3314,
      "ins": 3315,
      "##ick": 3316,
      "many": 3317,
      "attemp": 3318,
      "analysis": 3319,
      "comb": 3320,
      "50": 3321,
      "21": 3322,
      "##ists": 3323,
      "nan": 3324,
      "##velop": 3325,
      "probab": 3326,
      "negative": 3327,
      "nwh": 3328,
      "##op": 3329,
      "thor": 3330,
      "eng": 3331,
      "el": 3332,
      "thorough": 3333,
      "triangles": 3334,
      "reflections": 3335,
      "##ved": 3336,
      "##read": 3337,
      "various": 3338,
      "##ector": 3339,
      "nperhaps": 3340,
      "am": 3341,
      "##stand": 3342,
      "##ces": 3343,
      "height": 3344,
      "relevant": 3345,
      "##ear": 3346,
      "develop": 3347,
      "center": 3348,
      "ax": 3349,
      "roots": 3350,
      "nsin": 3351,
      "role": 3352,
      "play": 3353,
      "backtrac": 3354,
      "##ensive": 3355,
      "remo": 3356,
      "reasoning": 3357,
      "##mpt": 3358,
      "n5": 3359,
      "user": 3360,
      "##aging": 3361,
      "move": 3362,
      "large": 3363,
      "original": 3364,
      "##lines": 3365,
      "##ost": 3366,
      "##omial": 3367,
      "complic": 3368,
      "iteration": 3369,
      "60": 3370,
      "subst": 3371,
      "nsince": 3372,
      "rat": 3373,
      "geq": 3374,
      "sections": 3375,
      "000": 3376,
      "coordinates": 3377,
      "bl": 3378,
      "fe": 3379,
      "trans": 3380,
      "edge": 3381,
      "errors": 3382,
      "subset": 3383,
      "##app": 3384,
      "mid": 3385,
      "##ild": 3386,
      "##ud": 3387,
      "respon": 3388,
      "means": 3389,
      "dis": 3390,
      "convers": 3391,
      "divisible": 3392,
      "brain": 3393,
      "##iled": 3394,
      "comm": 3395,
      "##icular": 3396,
      "##lies": 3397,
      "##isiting": 3398,
      "real": 3399,
      "##cept": 3400,
      "providing": 3401,
      "difference": 3402,
      "response": 3403,
      "##adius": 3404,
      "##99": 3405,
      "##ities": 3406,
      "##reh": 3407,
      "attempts": 3408,
      "compreh": 3409,
      "##racy": 3410,
      "exploring": 3411,
      "abc": 3412,
      "logical": 3413,
      "ple": 3414,
      "considerations": 3415,
      "circum": 3416,
      "detailed": 3417,
      "accu": 3418,
      "##rix": 3419,
      "verifying": 3420,
      "accuracy": 3421,
      "understand": 3422,
      "revisiting": 3423,
      "##yle": 3424,
      "floor": 3425,
      "guide": 3426,
      "systematically": 3427,
      "comprehensive": 3428,
      "ideas": 3429,
      "still": 3430,
      "please": 3431,
      "concise": 3432,
      "findings": 3433,
      "style": 3434,
      "exploration": 3435,
      "complicated": 3436,
      "##stor": 3437,
      "reass": 3438,
      "thoroughly": 3439,
      "guidelines": 3440,
      "##essment": 3441,
      "40": 3442,
      "refining": 3443,
      "brainstor": 3444,
      "engaging": 3445,
      "##kes": 3446,
      "explorations": 3447,
      "deem": 3448,
      "conversations": 3449,
      "brainstorming": 3450,
      "##isying": 3451,
      "analisying": 3452,
      "backtracing": 3453,
      "reassessment": 3454,
      "##ithm": 3455,
      "##ful": 3456,
      "array": 3457,
      "##ency": 3458,
      "##resp": 3459,
      "##respond": 3460,
      "##low": 3461,
      "bu": 3462,
      "correspond": 3463,
      "gives": 3464,
      "nanother": 3465,
      "valid": 3466,
      "wr": 3467,
      "base": 3468,
      "initial": 3469,
      "gcd": 3470,
      "something": 3471,
      "cases": 3472,
      "represent": 3473,
      "##equ": 3474,
      "remaining": 3475,
      "32": 3476,
      "rati": 3477,
      "test": 3478,
      "uni": 3479,
      "ensure": 3480,
      "boxed": 3481,
      "##asing": 3482,
      "take": 3483,
      "##ign": 3484,
      "##ined": 3485,
      "theor": 3486,
      "##row": 3487,
      "##ron": 3488,
      "##ote": 3489,
      "bit": 3490,
      "##ertain": 3491,
      "general": 3492,
      "fre": 3493,
      "overl": 3494,
      "##alle": 3495,
      "starting": 3496,
      "approx": 3497,
      "vertex": 3498,
      "certain": 3499,
      "##gest": 3500,
      "pref": 3501,
      "##floor": 3502,
      "intersection": 3503,
      "##ided": 3504,
      "##ares": 3505,
      "2n": 3506,
      "nfrom": 3507,
      "next": 3508,
      "##rack": 3509,
      "hold": 3510,
      "mean": 3511,
      "result": 3512,
      "ident": 3513,
      "##equal": 3514,
      "greater": 3515,
      "last": 3516,
      "des": 3517,
      "inf": 3518,
      "ve": 3519,
      "satisfy": 3520,
      "within": 3521,
      "sor": 3522,
      "keep": 3523,
      "##ilater": 3524,
      "##po": 3525,
      "recall": 3526,
      "operations": 3527,
      "handle": 3528,
      "inequal": 3529,
      "root": 3530,
      "connected": 3531,
      "cost": 3532,
      "determine": 3533,
      "rect": 3534,
      "##eter": 3535,
      "implies": 3536,
      "##omin": 3537,
      "card": 3538,
      "##des": 3539,
      "##nomial": 3540,
      "##ready": 3541,
      "##ata": 3542,
      "##epend": 3543,
      "index": 3544,
      "polynomial": 3545,
      "##ometr": 3546,
      "201": 3547,
      "nthus": 3548,
      "ny": 3549,
      "sums": 3550,
      "getting": 3551,
      "already": 3552,
      "perp": 3553,
      "##ecut": 3554,
      "nsuppose": 3555,
      "27": 3556,
      "bound": 3557,
      "nand": 3558,
      "rectang": 3559,
      "##ird": 3560,
      "allow": 3561,
      "##ions": 3562,
      "coe": 3563,
      "spl": 3564,
      "being": 3565,
      "##ement": 3566,
      "##0000": 3567,
      "prefix": 3568,
      "data": 3569,
      "ph": 3570,
      "require": 3571,
      "##ck": 3572,
      "unique": 3573,
      "common": 3574,
      "##endicular": 3575,
      "perpendicular": 3576,
      "pass": 3577,
      "##onent": 3578,
      "grid": 3579,
      "squares": 3580,
      "##hip": 3581,
      "##omes": 3582,
      "select": 3583,
      "plane": 3584,
      "cover": 3585,
      "smaller": 3586,
      "##ug": 3587,
      "modul": 3588,
      "relations": 3589,
      "tangent": 3590,
      "typ": 3591,
      "##right": 3592,
      "##very": 3593,
      "##omp": 3594,
      "related": 3595,
      "circles": 3596,
      "90": 3597,
      "respect": 3598,
      "textbf": 3599,
      "actually": 3600,
      "option": 3601,
      "size": 3602,
      "node": 3603,
      "work": 3604,
      "word": 3605,
      "mis": 3606,
      "##ss": 3607,
      "##gon": 3608,
      "##aces": 3609,
      "moves": 3610,
      "split": 3611,
      "yes": 3612,
      "equations": 3613,
      "##arr": 3614,
      "differently": 3615,
      "ret": 3616,
      "1000": 3617,
      "##quad": 3618,
      "##hed": 3619,
      "day": 3620,
      "sw": 3621,
      "qquad": 3622,
      "options": 3623,
      "comple": 3624,
      "##ilateral": 3625,
      "largest": 3626,
      "perm": 3627,
      "lengths": 3628,
      "##ither": 3629,
      "just": 3630,
      "##ward": 3631,
      "##own": 3632,
      "vec": 3633,
      "##cent": 3634,
      "nwe": 3635,
      "every": 3636,
      "contains": 3637,
      "modulo": 3638,
      "##rection": 3639,
      "track": 3640,
      "conditions": 3641,
      "paralle": 3642,
      "ob": 3643,
      "larger": 3644,
      "used": 3645,
      "adjac": 3646,
      "iterate": 3647,
      "return": 3648,
      "##av": 3649,
      "else": 3650,
      "##gy": 3651,
      "##ceed": 3652,
      "std": 3653,
      "tree": 3654,
      "a2": 3655,
      "probability": 3656,
      "##ately": 3657,
      "wait": 3658,
      "combin": 3659,
      "direction": 3660,
      "45": 3661,
      "stud": 3662,
      "relationship": 3663,
      "true": 3664,
      "stdin": 3665,
      "22": 3666,
      "av": 3667,
      "she": 3668,
      "ways": 3669,
      "nx": 3670,
      "##ail": 3671,
      "efficiently": 3672,
      "ent": 3673,
      "##ever": 3674,
      "power": 3675,
      "rot": 3676,
      "ratio": 3677,
      "a1": 3678,
      "##onents": 3679,
      "says": 3680,
      "pattern": 3681,
      "##ari": 3682,
      "##def": 3683,
      "decre": 3684,
      "most": 3685,
      "say": 3686,
      "permut": 3687,
      "element": 3688,
      "sing": 3689,
      "inequality": 3690,
      "radius": 3691,
      "##ls": 3692,
      "axis": 3693,
      "##wise": 3694,
      "interv": 3695,
      "cells": 3696,
      "constant": 3697,
      "top": 3698,
      "ll": 3699,
      "opt": 3700,
      "tan": 3701,
      "##ame": 3702,
      "fix": 3703,
      "##ances": 3704,
      "sort": 3705,
      "la": 3706,
      "arc": 3707,
      "##da": 3708,
      "arrang": 3709,
      "nalso": 3710,
      "third": 3711,
      "##ircle": 3712,
      "vari": 3713,
      "##ption": 3714,
      "sys": 3715,
      "divides": 3716,
      "exists": 3717,
      "denote": 3718,
      "relate": 3719,
      "becomes": 3720,
      "23": 3721,
      "down": 3722,
      "##ways": 3723,
      "64": 3724,
      "sorted": 3725,
      "single": 3726,
      "stand": 3727,
      "##etic": 3728,
      "##ectors": 3729,
      "complex": 3730,
      "mon": 3731,
      "pmod": 3732,
      "##ross": 3733,
      "units": 3734,
      "##10": 3735,
      "##ind": 3736,
      "##ossible": 3737,
      "denomin": 3738,
      "segment": 3739,
      "mathbf": 3740,
      "##ma": 3741,
      "##gor": 3742,
      "##ational": 3743,
      "99": 3744,
      "ext": 3745,
      "binom": 3746,
      "##ects": 3747,
      "##anges": 3748,
      "parallel": 3749,
      "either": 3750,
      "finding": 3751,
      "bis": 3752,
      "factors": 3753,
      "##nd": 3754,
      "place": 3755,
      "vector": 3756,
      "n6": 3757,
      "geometr": 3758,
      "##ake": 3759,
      "degree": 3760,
      "lam": 3761,
      "2a": 3762,
      "##ga": 3763,
      "those": 3764,
      "always": 3765,
      "frequ": 3766,
      "segments": 3767,
      "180": 3768,
      "empt": 3769,
      "nst": 3770,
      "ndef": 3771,
      "##20": 3772,
      "lamb": 3773,
      "rectangle": 3774,
      "simp": 3775,
      "##ak": 3776,
      "28": 3777,
      "adjacent": 3778,
      "lambda": 3779,
      "##mega": 3780,
      "omega": 3781,
      "binary": 3782,
      "subse": 3783,
      "nodes": 3784,
      "nhence": 3785,
      "nout": 3786,
      "off": 3787,
      "##otal": 3788,
      "##mmetr": 3789,
      "ntotal": 3790,
      "vol": 3791,
      "sign": 3792,
      "##25": 3793,
      "##edi": 3794,
      "##round": 3795,
      "te": 3796,
      "sequences": 3797,
      "##verse": 3798,
      "none": 3799,
      "maximize": 3800,
      "noutput": 3801,
      "3x": 3802,
      "##ighb": 3803,
      "##1111": 3804,
      "##ume": 3805,
      "##ively": 3806,
      "##ons": 3807,
      "empty": 3808,
      "##ially": 3809,
      "##utes": 3810,
      "minute": 3811,
      "##raw": 3812,
      "##tract": 3813,
      "characters": 3814,
      "midpo": 3815,
      "mode": 3816,
      "##ures": 3817,
      "leve": 3818,
      "ninput": 3819,
      "stra": 3820,
      "##imiz": 3821,
      "2k": 3822,
      "symmetr": 3823,
      "intersect": 3824,
      "standard": 3825,
      "change": 3826,
      "sug": 3827,
      "consecut": 3828,
      "straight": 3829,
      "diagon": 3830,
      "neighb": 3831,
      "ln": 3832,
      "while": 3833,
      "map": 3834,
      "addition": 3835,
      "divided": 3836,
      "##not": 3837,
      "sen": 3838,
      "divide": 3839,
      "required": 3840,
      "##fect": 3841,
      "##lf": 3842,
      "dou": 3843,
      "##ual": 3844,
      "areas": 3845,
      "distances": 3846,
      "consecutive": 3847,
      "fl": 3848,
      "##ches": 3849,
      "depend": 3850,
      "linear": 3851,
      "substr": 3852,
      "33": 3853,
      "cannot": 3854,
      "character": 3855,
      "once": 3856,
      "generate": 3857,
      "##ants": 3858,
      "##ount": 3859,
      "append": 3860,
      "##fficients": 3861,
      "meaning": 3862,
      "star": 3863,
      "got": 3864,
      "coefficients": 3865,
      "calculation": 3866,
      "infin": 3867,
      "nalright": 3868,
      "player": 3869,
      "##uting": 3870,
      "##apping": 3871,
      "gam": 3872,
      "##gorithm": 3873,
      "found": 3874,
      "entire": 3875,
      "49": 3876,
      "oc": 3877,
      "sph": 3878,
      "care": 3879,
      "##uc": 3880,
      "consist": 3881,
      "##eed": 3882,
      "leading": 3883,
      "write": 3884,
      "##000": 3885,
      "algorithm": 3886,
      "theorem": 3887,
      "##up": 3888,
      "define": 3889,
      "sense": 3890,
      "##ior": 3891,
      "120": 3892,
      "satisfies": 3893,
      "quadratic": 3894,
      "increasing": 3895,
      "simplify": 3896,
      "higher": 3897,
      "##ict": 3898,
      "##osite": 3899,
      "x2": 3900,
      "##atrix": 3901,
      "states": 3902,
      "inside": 3903,
      "double": 3904,
      "days": 3905,
      "good": 3906,
      "perfect": 3907,
      "cre": 3908,
      "operation": 3909,
      "##ffect": 3910,
      "holds": 3911,
      "perform": 3912,
      "who": 3913,
      "weight": 3914,
      "denominator": 3915,
      "child": 3916,
      "xor": 3917,
      "rows": 3918,
      "##amp": 3919,
      "##ding": 3920,
      "accept": 3921,
      "connect": 3922,
      "circumc": 3923,
      "26": 3924,
      "cand": 3925,
      "subsequ": 3926,
      "31": 3927,
      "was": 3928,
      "assume": 3929,
      "colors": 3930,
      "state": 3931,
      "##ner": 3932,
      "##uring": 3933,
      "parts": 3934,
      "divisors": 3935,
      "##gram": 3936,
      "nwhich": 3937,
      "black": 3938,
      "aver": 3939,
      "blo": 3940,
      "volume": 3941,
      "polygon": 3942,
      "coin": 3943,
      "hal": 3944,
      "##ague": 3945,
      "careful": 3946,
      "correctly": 3947,
      "##ears": 3948,
      "df": 3949,
      "remove": 3950,
      "prove": 3951,
      "cub": 3952,
      "makes": 3953,
      "letters": 3954,
      "35": 3955,
      "##ific": 3956,
      "expressed": 3957,
      "##ib": 3958,
      "vague": 3959,
      "indeed": 3960,
      "nre": 3961,
      "48": 3962,
      "desc": 3963,
      "primes": 3964,
      "cards": 3965,
      "nhow": 3966,
      "among": 3967,
      "functions": 3968,
      "prec": 3969,
      "##arily": 3970,
      "model": 3971,
      "opp": 3972,
      "##hedron": 3973,
      "##ield": 3974,
      "around": 3975,
      "ser": 3976,
      "ach": 3977,
      "##get": 3978,
      "numer": 3979,
      "##iles": 3980,
      "r2": 3981,
      "substit": 3982,
      "along": 3983,
      "##ade": 3984,
      "achie": 3985,
      "mu": 3986,
      "cube": 3987,
      "type": 3988,
      "faces": 3989,
      "hour": 3990,
      "75": 3991,
      "changes": 3992,
      "piec": 3993,
      "impossible": 3994,
      "mar": 3995,
      "matrix": 3996,
      "mist": 3997,
      "visit": 3998,
      "lower": 3999,
      "##ables": 4000,
      "pe": 4001,
      "remainder": 4002,
      "##ging": 4003,
      "lfloor": 4004,
      "rfloor": 4005,
      "sets": 4006,
      "paths": 4007,
      "avail": 4008,
      "ld": 4009,
      "regular": 4010,
      "needs": 4011,
      "plac": 4012,
      "00": 4013,
      "words": 4014,
      "therefore": 4015,
      "cdots": 4016,
      "minimize": 4017,
      "abs": 4018,
      "columns": 4019,
      "##ompute": 4020,
      "coordinate": 4021,
      "draw": 4022,
      "repe": 4023,
      "ldots": 4024,
      "involved": 4025,
      "##urs": 4026,
      "nor": 4027,
      "##less": 4028,
      "approxim": 4029,
      "stat": 4030,
      "frequency": 4031,
      "average": 4032,
      "adjust": 4033,
      "nnext": 4034,
      "##lete": 4035,
      "apply": 4036,
      "defin": 4037,
      "turn": 4038,
      "neq": 4039,
      "nhmm": 4040,
      "build": 4041,
      "half": 4042,
      "nyes": 4043,
      "br": 4044,
      "##ish": 4045,
      "multiply": 4046,
      "lim": 4047,
      "##kay": 4048,
      "name": 4049,
      "bre": 4050,
      "nat": 4051,
      "sk": 4052,
      "choos": 4053,
      "##ameter": 4054,
      "defined": 4055,
      "ener": 4056,
      "29": 4057,
      "n0": 4058,
      "meth": 4059,
      "confir": 4060,
      "##oid": 4061,
      "##ning": 4062,
      "circumcircle": 4063,
      "nhowever": 4064,
      "formed": 4065,
      "##amples": 4066,
      "counts": 4067,
      "plus": 4068,
      "##ounds": 4069,
      "##ending": 4070,
      "examples": 4071,
      "beta": 4072,
      "exponent": 4073,
      "sur": 4074,
      "disc": 4075,
      "available": 4076,
      "call": 4077,
      "midpoint": 4078,
      "corresponding": 4079,
      "cr": 4080,
      "mess": 4081,
      "##son": 4082,
      "occ": 4083,
      "exist": 4084,
      "nsub": 4085,
      "give": 4086,
      "isn": 4087,
      "blue": 4088,
      "34": 4089,
      "quadrilateral": 4090,
      "##ott": 4091,
      "quer": 4092,
      "##formation": 4093,
      "##arget": 4094,
      "level": 4095,
      "##ints": 4096,
      "##tain": 4097,
      "miss": 4098,
      "hor": 4099,
      "sugges": 4100,
      "bal": 4101,
      "##ral": 4102,
      "nim": 4103,
      "proceed": 4104,
      "game": 4105,
      "his": 4106,
      "##led": 4107,
      "subsets": 4108,
      "opposite": 4109,
      "vectors": 4110,
      "42": 4111,
      "definition": 4112,
      "nis": 4113,
      "que": 4114,
      "suggests": 4115,
      "nl": 4116,
      "pmatrix": 4117,
      "der": 4118,
      "cap": 4119,
      "nsample": 4120,
      "noption": 4121,
      "students": 4122,
      "##igur": 4123,
      "target": 4124,
      "bd": 4125,
      "nsimpl": 4126,
      "unit": 4127,
      "ca": 4128,
      "dim": 4129,
      "nsimplify": 4130,
      "energy": 4131,
      "method": 4132,
      "fraction": 4133,
      "xy": 4134,
      "cross": 4135,
      "necessarily": 4136,
      "jo": 4137,
      "permutation": 4138,
      "##ization": 4139,
      "npr": 4140,
      "##iction": 4141,
      "ap": 4142,
      "##izon": 4143,
      "minutes": 4144,
      "decreasing": 4145,
      "configur": 4146,
      "ceil": 4147,
      "trip": 4148,
      "bott": 4149,
      "expl": 4150,
      "room": 4151,
      "lies": 4152,
      "whe": 4153,
      "simplif": 4154,
      "n7": 4155,
      "##alid": 4156,
      "cycles": 4157,
      "horizon": 4158,
      "##using": 4159,
      "b2": 4160,
      "allowed": 4161,
      "##sib": 4162,
      "white": 4163,
      "37": 4164,
      "##orrect": 4165,
      "distrib": 4166,
      "fixed": 4167,
      "##arch": 4168,
      "##riend": 4169,
      "clos": 4170,
      "wins": 4171,
      "six": 4172,
      "nlo": 4173,
      "made": 4174,
      "conve": 4175,
      "##ask": 4176,
      "##12": 4177,
      "nsum": 4178,
      "confirm": 4179,
      "##ahedron": 4180,
      "proj": 4181,
      "possib": 4182,
      "fig": 4183,
      "##iod": 4184,
      "conver": 4185,
      "program": 4186,
      "vertical": 4187,
      "##line": 4188,
      "strings": 4189,
      "c2": 4190,
      "face": 4191,
      "interval": 4192,
      "space": 4193,
      "cut": 4194,
      "wind": 4195,
      "gamma": 4196,
      "dy": 4197,
      "accordingly": 4198,
      "equals": 4199,
      "indices": 4200,
      "increases": 4201,
      "inst": 4202,
      "import": 4203,
      "mistake": 4204,
      "##forward": 4205,
      "straightforward": 4206,
      "##el": 4207,
      "adding": 4208,
      "search": 4209,
      "nlook": 4210,
      "2b": 4211,
      "slow": 4212,
      "nprint": 4213,
      "sl": 4214,
      "4x": 4215,
      "friend": 4216,
      "##gether": 4217,
      "##ps": 4218,
      "rest": 4219,
      "##ically": 4220,
      "72": 4221,
      "44": 4222,
      "##imeter": 4223,
      "##arrow": 4224,
      "hex": 4225,
      "period": 4226,
      "lea": 4227,
      "constr": 4228,
      "respectively": 4229,
      "window": 4230,
      "conc": 4231,
      "##ets": 4232,
      "variables": 4233,
      "moving": 4234,
      "subtract": 4235,
      "##imin": 4236,
      "slop": 4237,
      "invalid": 4238,
      "car": 4239,
      "infinite": 4240,
      "simply": 4241,
      "##anc": 4242,
      "im": 4243,
      "pow": 4244,
      "magn": 4245,
      "##ribed": 4246,
      "del": 4247,
      "corresponds": 4248,
      "80": 4249,
      "subt": 4250,
      "break": 4251,
      "pot": 4252,
      "exponents": 4253,
      "##ternal": 4254,
      "geometry": 4255,
      "minus": 4256,
      "queue": 4257,
      "far": 4258,
      "plug": 4259,
      "flow": 4260,
      "cm": 4261,
      "equival": 4262,
      "##omb": 4263,
      "thus": 4264,
      "equilateral": 4265,
      "##bb": 4266,
      "works": 4267,
      "##one": 4268,
      "assuming": 4269,
      "##sp": 4270,
      "##rad": 4271,
      "##anation": 4272,
      "upd": 4273,
      "groups": 4274,
      "##ten": 4275,
      "components": 4276,
      "##center": 4277,
      "inft": 4278,
      "infty": 4279,
      "property": 4280,
      "involving": 4281,
      "starts": 4282,
      "assigned": 4283,
      "centers": 4284,
      "##ape": 4285,
      "letter": 4286,
      "differences": 4287,
      "##til": 4288,
      "temp": 4289,
      "##uction": 4290,
      "alt": 4291,
      "nlooking": 4292,
      "rational": 4293,
      "convex": 4294,
      "##pper": 4295,
      "shif": 4296,
      "helps": 4297,
      "52": 4298,
      "idea": 4299,
      "combinations": 4300,
      "nch": 4301,
      "nthat": 4302,
      "144": 4303,
      "team": 4304,
      "whether": 4305,
      "##idth": 4306,
      "our": 4307,
      "81": 4308,
      "vi": 4309,
      "run": 4310,
      "complete": 4311,
      "altern": 4312,
      "##ats": 4313,
      "numerator": 4314,
      "comput": 4315,
      "##ages": 4316,
      "##itu": 4317,
      "enough": 4318,
      "person": 4319,
      "trick": 4320,
      "may": 4321,
      "tetr": 4322,
      "neach": 4323,
      "choices": 4324,
      "dimens": 4325,
      "speed": 4326,
      "overlapping": 4327,
      "five": 4328,
      "statement": 4329,
      "##eters": 4330,
      "component": 4331,
      "generated": 4332,
      "seem": 4333,
      "initialize": 4334,
      "sphere": 4335,
      "idx": 4336,
      "additional": 4337,
      "repl": 4338,
      "share": 4339,
      "loc": 4340,
      "lie": 4341,
      "known": 4342,
      "##ection": 4343,
      "chord": 4344,
      "figure": 4345,
      "create": 4346,
      "199": 4347,
      "x1": 4348,
      "intervals": 4349,
      "explanation": 4350,
      "best": 4351,
      "decimal": 4352,
      "consistent": 4353,
      "much": 4354,
      "70": 4355,
      "choosing": 4356,
      "ai": 4357,
      "sounds": 4358,
      "contrad": 4359,
      "partic": 4360,
      "##ry": 4361,
      "exceed": 4362,
      "substring": 4363,
      "diameter": 4364,
      "arrange": 4365,
      "carefully": 4366,
      "theory": 4367,
      "store": 4368,
      "similarly": 4369,
      "making": 4370,
      "otherwise": 4371,
      "999": 4372,
      "##ier": 4373,
      "##ements": 4374,
      "nafter": 4375,
      "field": 4376,
      "horizontal": 4377,
      "nad": 4378,
      "mass": 4379,
      "loop": 4380,
      "##ime": 4381,
      "ball": 4382,
      "simplifies": 4383,
      "potent": 4384,
      "tetrahedron": 4385,
      "highest": 4386,
      "41": 4387,
      "dots": 4388,
      "inches": 4389,
      "had": 4390,
      "##osition": 4391,
      "bottom": 4392,
      "labe": 4393,
      "##wn": 4394,
      "combination": 4395,
      "until": 4396,
      "56": 4397,
      "elect": 4398,
      "arrangement": 4399,
      "##te": 4400,
      "360": 4401,
      "water": 4402,
      "perimeter": 4403,
      "permutations": 4404,
      "twice": 4405,
      "note": 4406,
      "multiples": 4407,
      "##radius": 4408,
      "did": 4409,
      "##ople": 4410,
      "##arter": 4411,
      "medi": 4412,
      "38": 4413,
      "union": 4414,
      "people": 4415,
      "lc": 4416,
      "s2": 4417,
      "125": 4418,
      "class": 4419,
      "problems": 4420,
      "sem": 4421,
      "hexagon": 4422,
      "##action": 4423,
      "calculated": 4424,
      "nse": 4425,
      "contin": 4426,
      "independ": 4427,
      "##ech": 4428,
      "##ember": 4429,
      "bisector": 4430,
      "together": 4431,
      "nk": 4432,
      "500": 4433,
      "##osen": 4434,
      "##cks": 4435,
      "meas": 4436,
      "2r": 4437,
      "green": 4438,
      "scal": 4439,
      "dx": 4440,
      "stack": 4441,
      "short": 4442,
      "##ism": 4443,
      "r1": 4444,
      "appears": 4445,
      "##side": 4446,
      "pq": 4447,
      "zeros": 4448,
      "tricky": 4449,
      "approximately": 4450,
      "key": 4451,
      "##ature": 4452,
      "##clic": 4453,
      "increase": 4454,
      "beh": 4455,
      "integr": 4456,
      "65": 4457,
      "expected": 4458,
      "equivalent": 4459,
      "symmetry": 4460,
      "freq": 4461,
      "limit": 4462,
      "powers": 4463,
      "delta": 4464,
      "##80": 4465,
      "neighbors": 4466,
      "upper": 4467,
      "execut": 4468,
      "takes": 4469,
      "cubes": 4470,
      "39": 4471,
      "fal": 4472,
      "false": 4473,
      "diagonals": 4474,
      "nokay": 4475,
      "contrib": 4476,
      "400": 4477,
      "##self": 4478,
      "width": 4479,
      "b1": 4480,
      "generating": 4481,
      "happ": 4482,
      "y2": 4483,
      "ell": 4484,
      "##ults": 4485,
      "low": 4486,
      "intersects": 4487,
      "bar": 4488,
      "want": 4489,
      "##ho": 4490,
      "##itude": 4491,
      "chosen": 4492,
      "deriv": 4493,
      "66": 4494,
      "n10": 4495,
      "nimp": 4496,
      "##uce": 4497,
      "light": 4498,
      "##ract": 4499,
      "subsequence": 4500,
      "messy": 4501,
      "radi": 4502,
      "divisor": 4503,
      "leads": 4504,
      "road": 4505,
      "score": 4506,
      "region": 4507,
      "coefficient": 4508,
      "phi": 4509,
      "missing": 4510,
      "construct": 4511,
      "rotation": 4512,
      "collect": 4513,
      "allows": 4514,
      "containing": 4515,
      "products": 4516,
      "ha": 4517,
      "year": 4518,
      "prompt": 4519,
      "understanding": 4520,
      "dep": 4521,
      "eas": 4522,
      "hyp": 4523,
      "city": 4524,
      "##icks": 4525,
      "vis": 4526,
      "##oc": 4527,
      "##ics": 4528,
      "##ya": 4529,
      "slope": 4530,
      "counter": 4531,
      "looking": 4532,
      "expressions": 4533,
      "independent": 4534,
      "outside": 4535,
      "configuration": 4536,
      "covered": 4537,
      "query": 4538,
      "##ren": 4539,
      "executable": 4540,
      "nact": 4541,
      "54": 4542,
      "orth": 4543,
      "c1": 4544,
      "abcd": 4545,
      "goal": 4546,
      "cop": 4547,
      "identify": 4548,
      "nel": 4549,
      "players": 4550,
      "##ken": 4551,
      "strate": 4552,
      "##ject": 4553,
      "xa": 4554,
      "incorrect": 4555,
      "n8": 4556,
      "##ithmetic": 4557,
      "aa": 4558,
      "suppose": 4559,
      "unless": 4560,
      "nr": 4561,
      "bf": 4562,
      "calculations": 4563,
      "##ull": 4564,
      "student": 4565,
      "coll": 4566,
      "arithmetic": 4567,
      "##ired": 4568,
      "nstart": 4569,
      "provided": 4570,
      "101": 4571,
      "dr": 4572,
      "her": 4573,
      "matching": 4574,
      "due": 4575,
      "checking": 4576,
      "##76": 4577,
      "300": 4578,
      "nit": 4579,
      "overlap": 4580,
      "fr": 4581,
      "visited": 4582,
      "n9": 4583,
      "nag": 4584,
      "##gs": 4585,
      "candid": 4586,
      "passes": 4587,
      "acceptable": 4588,
      "surf": 4589,
      "ones": 4590,
      "results": 4591,
      "##ule": 4592,
      "##sc": 4593,
      "parent": 4594,
      "neighbor": 4595,
      "##ling": 4596,
      "nset": 4597,
      "nagain": 4598,
      "identity": 4599,
      "43": 4600,
      "##alind": 4601,
      "##alindrom": 4602,
      "hours": 4603,
      "geometric": 4604,
      "nactually": 4605,
      "96": 4606,
      "helpful": 4607,
      "##olute": 4608,
      "##yz": 4609,
      "coins": 4610,
      "feas": 4611,
      "rearr": 4612,
      "effect": 4613,
      "been": 4614,
      "information": 4615,
      "nfin": 4616,
      "palindrom": 4617,
      "placed": 4618,
      "##imized": 4619,
      "##lied": 4620,
      "series": 4621,
      "bi": 4622,
      "recurs": 4623,
      "overline": 4624,
      "##rm": 4625,
      "pain": 4626,
      "seconds": 4627,
      "est": 4628,
      "determined": 4629,
      "absolute": 4630,
      "##24": 4631,
      "precompute": 4632,
      "maintain": 4633,
      "congr": 4634,
      "congru": 4635,
      "subarr": 4636,
      "feet": 4637,
      "diagonal": 4638,
      "55": 4639,
      "matter": 4640,
      "table": 4641,
      "reading": 4642,
      "polynomials": 4643,
      "net": 4644,
      "##graph": 4645,
      "looks": 4646,
      "xa0": 4647,
      "ensuring": 4648,
      "programming": 4649,
      "probably": 4650,
      "heap": 4651,
      "children": 4652,
      "rate": 4653,
      "price": 4654,
      "2y": 4655,
      "round": 4656,
      "affect": 4657,
      "itself": 4658,
      "calculating": 4659,
      "nexp": 4660,
      "shad": 4661,
      "temper": 4662,
      "##nam": 4663,
      "##ffects": 4664,
      "##ank": 4665,
      "lcm": 4666,
      "optimal": 4667,
      "amount": 4668,
      "pop": 4669,
      "relation": 4670,
      "nwhere": 4671,
      "##ded": 4672,
      "##roid": 4673,
      "##fer": 4674,
      "prin": 4675,
      "buy": 4676,
      "s1": 4677,
      "others": 4678,
      "goes": 4679,
      "quant": 4680,
      "##red": 4681,
      "cur": 4682,
      "surface": 4683,
      "pa": 4684,
      "removing": 4685,
      "balance": 4686,
      "asy": 4687,
      "writ": 4688,
      "111": 4689,
      "##ane": 4690,
      "manage": 4691,
      "46": 4692,
      "ef": 4693,
      "block": 4694,
      "##ators": 4695,
      "##uming": 4696,
      "counting": 4697,
      "compare": 4698,
      "represents": 4699,
      "ratios": 4700,
      "things": 4701,
      "flo": 4702,
      "ned": 4703,
      "pieces": 4704,
      "a3": 4705,
      "exclu": 4706,
      "p1": 4707,
      "smarter": 4708,
      "mole": 4709,
      "##over": 4710,
      "book": 4711,
      "##wards": 4712,
      "sch": 4713,
      "##ead": 4714,
      "convert": 4715,
      "##ilities": 4716,
      "##ended": 4717,
      "ninitial": 4718,
      "1e": 4719,
      "##88": 4720,
      "##oth": 4721,
      "imm": 4722,
      "across": 4723,
      "##anging": 4724,
      "transform": 4725,
      "division": 4726,
      "pick": 4727,
      "swap": 4728,
      "update": 4729,
      "logic": 4730,
      "##use": 4731,
      "nv": 4732,
      "##econd": 4733,
      "centroid": 4734,
      "##ram": 4735,
      "simul": 4736,
      "heights": 4737,
      "##ax": 4738,
      "fine": 4739,
      "dividing": 4740,
      "strategy": 4741,
      "sn": 4742,
      "miles": 4743,
      "insc": 4744,
      "piece": 4745,
      "##ections": 4746,
      "ensures": 4747,
      "relationships": 4748,
      "y1": 4749,
      "central": 4750,
      "including": 4751,
      "feasible": 4752,
      "concept": 4753,
      "ends": 4754,
      "nhere": 4755,
      "arcs": 4756,
      "nsecond": 4757,
      "nas": 4758,
      "##case": 4759,
      "##umul": 4760,
      "measure": 4761,
      "nfinally": 4762,
      "symmetric": 4763,
      "##inear": 4764,
      "expand": 4765,
      "cyclic": 4766,
      "ortho": 4767,
      "depending": 4768,
      "near": 4769,
      "selected": 4770,
      "npl": 4771,
      "very": 4772,
      "nnot": 4773,
      "mathbb": 4774,
      "suff": 4775,
      "##ric": 4776,
      "pack": 4777,
      "approaches": 4778,
      "d2": 4779,
      "##ked": 4780,
      "63": 4781,
      "p2": 4782,
      "except": 4783,
      "propor": 4784,
      "ae": 4785,
      "shortest": 4786,
      "setting": 4787,
      "##to": 4788,
      "##idd": 4789,
      "variable": 4790,
      "xi": 4791,
      "##ash": 4792,
      "##yond": 4793,
      "remains": 4794,
      "beyond": 4795,
      "bro": 4796,
      "##ub": 4797,
      "however": 4798,
      "potential": 4799,
      "##encies": 4800,
      "##ia": 4801,
      "nelse": 4802,
      "having": 4803,
      "01": 4804,
      "meet": 4805,
      "h2": 4806,
      "reaction": 4807,
      "asking": 4808,
      "mathrm": 4809,
      "256": 4810,
      "strip": 4811,
      "rightarrow": 4812,
      "law": 4813,
      "2c": 4814,
      "free": 4815,
      "dynam": 4816,
      "##21": 4817,
      "##bit": 4818,
      "et": 4819,
      "84": 4820,
      "consists": 4821,
      "rad": 4822,
      "inverse": 4823,
      "bfs": 4824,
      "jum": 4825,
      "pur": 4826,
      "sorting": 4827,
      "self": 4828,
      "ninitialize": 4829,
      "##onger": 4830,
      "##aring": 4831,
      "supp": 4832,
      "avoid": 4833,
      "##pre": 4834,
      "##ey": 4835,
      "nseems": 4836,
      "51": 4837,
      "##ouse": 4838,
      "going": 4839,
      "blocks": 4840,
      "strict": 4841,
      "##und": 4842,
      "nsubst": 4843,
      "nedge": 4844,
      "du": 4845,
      "sufficient": 4846,
      "##izes": 4847,
      "align": 4848,
      "##lock": 4849,
      "##gonometr": 4850,
      "special": 4851,
      "##ars": 4852,
      "substrings": 4853,
      "fourth": 4854,
      "nusing": 4855,
      "##anced": 4856,
      "distribution": 4857,
      "ba": 4858,
      "##ivity": 4859,
      "##wh": 4860,
      "friends": 4861,
      "representation": 4862,
      "##ural": 4863,
      "great": 4864,
      "invers": 4865,
      "interest": 4866,
      "diction": 4867,
      "elimin": 4868,
      "skip": 4869,
      "subtrac": 4870,
      "task": 4871,
      "dimensions": 4872,
      "etc": 4873,
      "specifically": 4874,
      "asc": 4875,
      "trigonometr": 4876,
      "nsubstit": 4877,
      "dfrac": 4878,
      "taking": 4879,
      "##ark": 4880,
      "types": 4881,
      "roll": 4882,
      "median": 4883,
      "##rime": 4884,
      "directions": 4885,
      "150": 4886,
      "inscribed": 4887,
      "includes": 4888,
      "context": 4889,
      "finite": 4890,
      "wants": 4891,
      "##uted": 4892,
      "ncheck": 4893,
      "2d": 4894,
      "trying": 4895,
      "##ome": 4896,
      "##arant": 4897,
      "##most": 4898,
      "particular": 4899,
      "##spec": 4900,
      "guarant": 4901,
      "proportion": 4902,
      "##ands": 4903,
      "spher": 4904,
      "grow": 4905,
      "resid": 4906,
      "tou": 4907,
      "radical": 4908,
      "d1": 4909,
      "factorial": 4910,
      "during": 4911,
      "solving": 4912,
      "connecting": 4913,
      "simple": 4914,
      "trees": 4915,
      "whose": 4916,
      "achieve": 4917,
      "##ores": 4918,
      "coprime": 4919,
      "crit": 4920,
      "indic": 4921,
      "analyz": 4922,
      "3n": 4923,
      "##uck": 4924,
      "##way": 4925,
      "assumption": 4926,
      "swaps": 4927,
      "rece": 4928,
      "ellip": 4929,
      "close": 4930,
      "signific": 4931,
      "strictly": 4932,
      "wal": 4933,
      "nam": 4934,
      "espec": 4935,
      "especially": 4936,
      "##75": 4937,
      "##ensity": 4938,
      "##ser": 4939,
      "nnum": 4940,
      "2m": 4941,
      "complexity": 4942,
      "centered": 4943,
      "likely": 4944,
      "bob": 4945,
      "gets": 4946,
      "capac": 4947,
      "mol": 4948,
      "nass": 4949,
      "boxes": 4950,
      "bits": 4951,
      "were": 4952,
      "deal": 4953,
      "##per": 4954,
      "fit": 4955,
      "##iving": 4956,
      "temperature": 4957,
      "manageable": 4958,
      "regions": 4959,
      "##osed": 4960,
      "ncompute": 4961,
      "adv": 4962,
      "depth": 4963,
      "##urther": 4964,
      "overall": 4965,
      "dictionary": 4966,
      "below": 4967,
      "##23": 4968,
      "##ized": 4969,
      "significant": 4970,
      "##fe": 4971,
      "110": 4972,
      "##otes": 4973,
      "##used": 4974,
      "longest": 4975,
      "##where": 4976,
      "transition": 4977,
      "##gress": 4978,
      "optimize": 4979,
      "lists": 4980,
      "rand": 4981,
      "satisfied": 4982,
      "trigonometric": 4983,
      "tra": 4984,
      "##her": 4985,
      "ascending": 4986,
      "##plic": 4987,
      "##gen": 4988,
      "fractions": 4989,
      "multiplic": 4990,
      "##11111111": 4991,
      "##ven": 4992,
      "separately": 4993,
      "shaded": 4994,
      "ndp": 4995,
      "alice": 4996,
      "plugging": 4997,
      "##ush": 4998,
      "congruent": 4999,
      "53": 5000,
      "doll": 5001,
      "electron": 5002,
      "duplic": 5003,
      "easier": 5004,
      "dfs": 5005,
      "leaves": 5006,
      "##alu": 5007,
      "shift": 5008,
      "behav": 5009,
      "press": 5010,
      "obser": 5011,
      "reverse": 5012,
      "passing": 5013,
      "##oint": 5014,
      "trape": 5015,
      "oct": 5016,
      "external": 5017,
      "tangents": 5018,
      "trapez": 5019,
      "##arithm": 5020,
      "npro": 5021,
      "ellipse": 5022,
      "board": 5023,
      "random": 5024,
      "trapezoid": 5025,
      "followed": 5026,
      "substitute": 5027,
      "nno": 5028,
      "logarithm": 5029,
      "immedi": 5030,
      "relates": 5031,
      "85": 5032,
      "inputs": 5033,
      "npossible": 5034,
      "instead": 5035,
      "conclu": 5036,
      "norm": 5037,
      "ending": 5038,
      "ncalcul": 5039,
      "nimport": 5040,
      "hence": 5041,
      "##urrence": 5042,
      "nmultip": 5043,
      "phot": 5044,
      "3a": 5045,
      "com": 5046,
      "coloring": 5047,
      "image": 5048,
      "pent": 5049,
      "selecting": 5050,
      "infinity": 5051,
      "forms": 5052,
      "species": 5053,
      "77": 5054,
      "gl": 5055,
      "oa": 5056,
      "semic": 5057,
      "59": 5058,
      "los": 5059,
      "##ivid": 5060,
      "sizes": 5061,
      "47": 5062,
      "natural": 5063,
      "integral": 5064,
      "##40": 5065,
      "2016": 5066,
      "ment": 5067,
      "foc": 5068,
      "lit": 5069,
      "individ": 5070,
      "##day": 5071,
      "##acc": 5072,
      "rank": 5073,
      "##actions": 5074,
      "inequalities": 5075,
      "yet": 5076,
      "quite": 5077,
      "##att": 5078,
      "cone": 5079,
      "simpler": 5080,
      "internal": 5081,
      "##abol": 5082,
      "replac": 5083,
      "198": 5084,
      "longer": 5085,
      "big": 5086,
      "constraint": 5087,
      "inclusion": 5088,
      "years": 5089,
      "##abl": 5090,
      "partition": 5091,
      "67": 5092,
      "weights": 5093,
      "nplug": 5094,
      "dynamic": 5095,
      "##imizes": 5096,
      "cat": 5097,
      "represented": 5098,
      "done": 5099,
      "##uous": 5100,
      "costs": 5101,
      "included": 5102,
      "balls": 5103,
      "ant": 5104,
      "evalu": 5105,
      "implementation": 5106,
      "##mis": 5107,
      "palindrome": 5108,
      "##alize": 5109,
      "written": 5110,
      "nj": 5111,
      "choice": 5112,
      "##idden": 5113,
      "2000": 5114,
      "##pping": 5115,
      "iss": 5116,
      "arrangements": 5117,
      "further": 5118,
      "##ibility": 5119,
      "full": 5120,
      "suffix": 5121,
      "relative": 5122,
      "swit": 5123,
      "appear": 5124,
      "parity": 5125,
      "incent": 5126,
      "##of": 5127,
      "proper": 5128,
      "depends": 5129,
      "76": 5130,
      "##bles": 5131,
      "61": 5132,
      "##33": 5133,
      "imply": 5134,
      "progress": 5135,
      "planes": 5136,
      "2i": 5137,
      "78": 5138,
      "##imizing": 5139,
      "operator": 5140,
      "carr": 5141,
      "circumcenter": 5142,
      "##uced": 5143,
      "##yd": 5144,
      "pentagon": 5145,
      "57": 5146,
      "121": 5147,
      "cance": 5148,
      "cot": 5149,
      "##ength": 5150,
      "asympt": 5151,
      "flip": 5152,
      "cp": 5153,
      "applic": 5154,
      "mem": 5155,
      "conj": 5156,
      "recip": 5157,
      "behavior": 5158,
      "squared": 5159,
      "##phi": 5160,
      "98": 5161,
      "met": 5162,
      "mer": 5163,
      "won": 5164,
      "##96": 5165,
      "covers": 5166,
      "binomial": 5167,
      "grav": 5168,
      "added": 5169,
      "rectangles": 5170,
      "multiplying": 5171,
      "cb": 5172,
      "increment": 5173,
      "assignment": 5174,
      "partial": 5175,
      "nine": 5176,
      "conclude": 5177,
      "##log": 5178,
      "affects": 5179,
      "cities": 5180,
      "interpre": 5181,
      "identities": 5182,
      "nmultiply": 5183,
      "##celes": 5184,
      "varphi": 5185,
      "##osceles": 5186,
      "isosceles": 5187,
      "radii": 5188,
      "bac": 5189,
      "trave": 5190,
      "month": 5191,
      "nrow": 5192,
      "ra": 5193,
      "ye": 5194,
      "dc": 5195,
      "assigning": 5196,
      "##udes": 5197,
      "t2": 5198,
      "1000000": 5199,
      "proportional": 5200,
      "o1": 5201,
      "##uces": 5202,
      "##itudes": 5203,
      "##ulation": 5204,
      "wall": 5205,
      "t1": 5206,
      "##cip": 5207,
      "##ory": 5208,
      "nstarting": 5209,
      "58": 5210,
      "desired": 5211,
      "subtree": 5212,
      "cli": 5213,
      "exclusion": 5214,
      "removed": 5215,
      "bisectors": 5216,
      "##ian": 5217,
      "particip": 5218,
      "bea": 5219,
      "ncon": 5220,
      "candies": 5221,
      "##ones": 5222,
      "circumradius": 5223,
      "critical": 5224,
      "quantum": 5225,
      "density": 5226,
      "useful": 5227,
      "building": 5228,
      "princip": 5229,
      "own": 5230,
      "knowing": 5231,
      "collinear": 5232,
      "domin": 5233,
      "pract": 5234,
      "##bidden": 5235,
      "greatest": 5236,
      "atom": 5237,
      "circular": 5238,
      "##ceil": 5239,
      "establ": 5240,
      "##oes": 5241,
      "##order": 5242,
      "parabol": 5243,
      "nwhat": 5244,
      "substituting": 5245,
      "orthocenter": 5246,
      "transformation": 5247,
      "##dle": 5248,
      "##aten": 5249,
      "##orm": 5250,
      "onto": 5251,
      "extra": 5252,
      "##28": 5253,
      "1111111111": 5254,
      "##ights": 5255,
      "##alled": 5256,
      "##enari": 5257,
      "ordered": 5258,
      "##roc": 5259,
      "nmax": 5260,
      "outc": 5261,
      "6x": 5262,
      "##ramid": 5263,
      "cubic": 5264,
      "magnetic": 5265,
      "73": 5266,
      "event": 5267,
      "intersections": 5268,
      "capacity": 5269,
      "subarray": 5270,
      "##ness": 5271,
      "formalize": 5272,
      "games": 5273,
      "dealing": 5274,
      "mech": 5275,
      "##ability": 5276,
      "revers": 5277,
      "##ematic": 5278,
      "pyramid": 5279,
      "middle": 5280,
      "##bo": 5281,
      "levels": 5282,
      "arbit": 5283,
      "books": 5284,
      "arbitr": 5285,
      "##cos": 5286,
      "extens": 5287,
      "hom": 5288,
      "stop": 5289,
      "5x": 5290,
      "infinitely": 5291,
      "scenari": 5292,
      "95": 5293,
      "decreases": 5294,
      "##ty": 5295,
      "fill": 5296,
      "possibly": 5297,
      "##allen": 5298,
      "nnumber": 5299,
      "satisfying": 5300,
      "mechan": 5301,
      "forbidden": 5302,
      "nbec": 5303,
      "okay": 5304,
      "fold": 5305,
      "song": 5306,
      "infl": 5307,
      "nbecause": 5308,
      "2020": 5309,
      "derivative": 5310,
      "meters": 5311,
      "##ision": 5312,
      "yield": 5313,
      "ntake": 5314,
      "train": 5315,
      "open": 5316,
      "nmore": 5317,
      "##itially": 5318,
      "10000": 5319,
      "computing": 5320,
      "##ircles": 5321,
      "midpoints": 5322,
      "incenter": 5323,
      "o2": 5324,
      "vers": 5325,
      "reduce": 5326,
      "128": 5327,
      "nexpand": 5328,
      "rh": 5329,
      "prof": 5330,
      "4n": 5331,
      "91": 5332,
      "##ased": 5333,
      "rotations": 5334,
      "##ification": 5335,
      "altitude": 5336,
      "fil": 5337,
      "##ules": 5338,
      "molecul": 5339,
      "factorization": 5340,
      "nle": 5341,
      "ndiv": 5342,
      "conjug": 5343,
      "##els": 5344,
      "111111111110": 5345,
      "clock": 5346,
      "spaces": 5347,
      "called": 5348,
      "3k": 5349,
      "analyze": 5350,
      "97": 5351,
      "connections": 5352,
      "subsequences": 5353,
      "bus": 5354,
      "mathematic": 5355,
      "##turn": 5356,
      "tiles": 5357,
      "adjacency": 5358,
      "##br": 5359,
      "nare": 5360,
      "fron": 5361,
      "##echn": 5362,
      "remember": 5363,
      "##clusive": 5364,
      "closest": 5365,
      "nreturn": 5366,
      "immediately": 5367,
      "repeated": 5368,
      "descending": 5369,
      "nmoreover": 5370,
      "tre": 5371,
      "ranges": 5372,
      "summing": 5373,
      "##logical": 5374,
      "##istic": 5375,
      "roads": 5376,
      "##sl": 5377,
      "items": 5378,
      "methods": 5379,
      "##ton": 5380,
      "arranged": 5381,
      "separate": 5382,
      "frequencies": 5383,
      "##avor": 5384,
      "##ners": 5385,
      "challen": 5386,
      "corner": 5387,
      "reciproc": 5388,
      "design": 5389,
      "2s": 5390,
      "lay": 5391,
      "names": 5392,
      "##wers": 5393,
      "jump": 5394,
      "visual": 5395,
      "2π": 5396,
      "##ale": 5397,
      "4a": 5398,
      "processing": 5399,
      "##fficiency": 5400,
      "yellow": 5401,
      "viol": 5402,
      "##36": 5403,
      "##ko": 5404,
      "che": 5405,
      "contradiction": 5406,
      "carry": 5407,
      "##56": 5408,
      "asks": 5409,
      "dark": 5410,
      "techn": 5411,
      "pol": 5412,
      "mir": 5413,
      "contradic": 5414,
      "shape": 5415,
      "obtain": 5416,
      "front": 5417,
      "nstep": 5418,
      "pb": 5419,
      "dot": 5420,
      "##rip": 5421,
      "whole": 5422,
      "queries": 5423,
      "da": 5424,
      "efficiency": 5425,
      "places": 5426,
      "interior": 5427,
      "candidate": 5428,
      "axes": 5429,
      "brack": 5430,
      "prior": 5431,
      "keeping": 5432,
      "intersecting": 5433,
      "maps": 5434,
      "##slant": 5435,
      "##icult": 5436,
      "entirely": 5437,
      "iterating": 5438,
      "resulting": 5439,
      "difficult": 5440,
      "confused": 5441,
      "##ring": 5442,
      "station": 5443,
      "equality": 5444,
      "nposition": 5445,
      "param": 5446,
      "pile": 5447,
      "didn": 5448,
      "##rimin": 5449,
      "hypot": 5450,
      "actual": 5451,
      "confusing": 5452,
      "percent": 5453,
      "sour": 5454,
      "combine": 5455,
      "hypoten": 5456,
      "pt": 5457,
      "##py": 5458,
      "transl": 5459,
      "giving": 5460,
      "few": 5461,
      "guaranteed": 5462,
      "##istance": 5463,
      "maximal": 5464,
      "triple": 5465,
      "m2": 5466,
      "##erial": 5467,
      "##name": 5468,
      "##vir": 5469,
      "##umulative": 5470,
      "material": 5471,
      "checks": 5472,
      "rearrange": 5473,
      "movement": 5474,
      "fall": 5475,
      "house": 5476,
      "error": 5477,
      "k2": 5478,
      "projection": 5479,
      "boundary": 5480,
      "dollars": 5481,
      "money": 5482,
      "##uler": 5483,
      "put": 5484,
      "hash": 5485,
      "##olution": 5486,
      "##riminant": 5487,
      "mn": 5488,
      "69": 5489,
      "##bra": 5490,
      "##viron": 5491,
      "rob": 5492,
      "hypotenuse": 5493,
      "asymptote": 5494,
      "2p": 5495,
      "rules": 5496,
      "representing": 5497,
      "tack": 5498,
      "concent": 5499,
      "environ": 5500,
      "implementing": 5501,
      "alge": 5502,
      "sho": 5503,
      "tok": 5504,
      "inradius": 5505,
      "##uth": 5506,
      "replace": 5507,
      "tackle": 5508,
      "94": 5509,
      "##lement": 5510,
      "advanced": 5511,
      "##ety": 5512,
      "kind": 5513,
      "spheres": 5514,
      "force": 5515,
      "shows": 5516,
      "dimension": 5517,
      "chain": 5518,
      "safe": 5519,
      "identical": 5520,
      "inclusive": 5521,
      "mask": 5522,
      "##rol": 5523,
      "curve": 5524,
      "##ient": 5525,
      "account": 5526,
      "reflect": 5527,
      "sig": 5528,
      "coinc": 5529,
      "assignments": 5530,
      "123": 5531,
      "##hedral": 5532,
      "candidates": 5533,
      "##imes": 5534,
      "active": 5535,
      "ndefine": 5536,
      "parabola": 5537,
      "expans": 5538,
      "become": 5539,
      "89": 5540,
      "##edy": 5541,
      "ncurrent": 5542,
      "combined": 5543,
      "sigma": 5544,
      "neither": 5545,
      "nassuming": 5546,
      "visualize": 5547,
      "##ference": 5548,
      "eliminate": 5549,
      "normal": 5550,
      "selection": 5551,
      "runs": 5552,
      "stones": 5553,
      "nsubstituting": 5554,
      "##anged": 5555,
      "tangency": 5556,
      "##rightarrow": 5557,
      "bip": 5558,
      "favor": 5559,
      "beaut": 5560,
      "##pri": 5561,
      "bounded": 5562,
      "described": 5563,
      "625": 5564,
      "events": 5565,
      "achieved": 5566,
      "dest": 5567,
      "repeating": 5568,
      "##60": 5569,
      "really": 5570,
      "forming": 5571,
      "##akes": 5572,
      "seen": 5573,
      "closed": 5574,
      "hard": 5575,
      "appropri": 5576,
      "insert": 5577,
      "tup": 5578,
      "nsp": 5579,
      "bad": 5580,
      "##asya": 5581,
      "##ounts": 5582,
      "inner": 5583,
      "influ": 5584,
      "attack": 5585,
      "decrease": 5586,
      "tokens": 5587,
      "68": 5588,
      "greedy": 5589,
      "discriminant": 5590,
      "algebra": 5591,
      "occurs": 5592,
      "##ales": 5593,
      "240": 5594,
      "contribution": 5595,
      "recursive": 5596,
      "nsubtract": 5597,
      "concentr": 5598,
      "remov": 5599,
      "substitution": 5600,
      "outcomes": 5601,
      "bp": 5602,
      "cents": 5603,
      "consisting": 5604,
      "##isms": 5605,
      "bipart": 5606,
      "uses": 5607,
      "hyd": 5608,
      "##icity": 5609,
      "deque": 5610,
      "##airs": 5611,
      "2e": 5612,
      "winning": 5613,
      "hmm": 5614,
      "nmin": 5615,
      "graphs": 5616,
      "mark": 5617,
      "arg": 5618,
      "##94": 5619,
      "interpret": 5620,
      "conv": 5621,
      "endpo": 5622,
      "nplugging": 5623,
      "solid": 5624,
      "##aster": 5625,
      "wrong": 5626,
      "head": 5627,
      "air": 5628,
      "overrightarrow": 5629,
      "applying": 5630,
      "pay": 5631,
      "##ern": 5632,
      "quick": 5633,
      "euler": 5634,
      "##35": 5635,
      "250": 5636,
      "a4": 5637,
      "bid": 5638,
      "225": 5639,
      "asked": 5640,
      "##ah": 5641,
      "pred": 5642,
      "##ell": 5643,
      "suit": 5644,
      "bill": 5645,
      "away": 5646,
      "##wor": 5647,
      "multiplied": 5648,
      "excluding": 5649,
      "ncase": 5650,
      "job": 5651,
      "##32": 5652,
      "promis": 5653,
      "##go": 5654,
      "label": 5655,
      "wee": 5656,
      "##onsider": 5657,
      "regard": 5658,
      "extend": 5659,
      "gravit": 5660,
      "ox": 5661,
      "v2": 5662,
      "configurations": 5663,
      "saw": 5664,
      "taken": 5665,
      "##vi": 5666,
      "cosines": 5667,
      "minimized": 5668,
      "marbles": 5669,
      "placing": 5670,
      "gir": 5671,
      "enc": 5672,
      "##loc": 5673,
      "nfind": 5674,
      "promising": 5675,
      "initially": 5676,
      "reduces": 5677,
      "altitudes": 5678,
      "74": 5679,
      "##mer": 5680,
      "recurrence": 5681,
      "pen": 5682,
      "orient": 5683,
      "suggest": 5684,
      "provide": 5685,
      "optimiz": 5686,
      "later": 5687,
      "why": 5688,
      "cumulative": 5689,
      "foot": 5690,
      "reachable": 5691,
      "duplicates": 5692,
      "operatorname": 5693,
      "contradicts": 5694,
      "sines": 5695,
      "108": 5696,
      "169": 5697,
      "member": 5698,
      "interesting": 5699,
      "touch": 5700,
      "parameter": 5701,
      "chooses": 5702,
      "bb": 5703,
      "decide": 5704,
      "possibility": 5705,
      "ii": 5706,
      "super": 5707,
      "subgraph": 5708,
      "turns": 5709,
      "##wr": 5710,
      "##ques": 5711,
      "seat": 5712,
      "##abc": 5713,
      "3d": 5714,
      "stre": 5715,
      "bases": 5716,
      "narea": 5717,
      "formulas": 5718,
      "vasya": 5719,
      "##ins": 5720,
      "compan": 5721,
      "unc": 5722,
      "consuming": 5723,
      "apples": 5724,
      "nearest": 5725,
      "bx": 5726,
      "computed": 5727,
      "##atives": 5728,
      "often": 5729,
      "stuck": 5730,
      "216": 5731,
      "collection": 5732,
      "possibilities": 5733,
      "fro": 5734,
      "fewer": 5735,
      "continue": 5736,
      "rule": 5737,
      "##vable": 5738,
      "fam": 5739,
      "finally": 5740,
      "subtracting": 5741,
      "gravitational": 5742,
      "##ee": 5743,
      "##thest": 5744,
      "expansion": 5745,
      "simulate": 5746,
      "900": 5747,
      "##50": 5748,
      "via": 5749,
      "##lves": 5750,
      "ij": 5751,
      "changing": 5752,
      "pairwise": 5753,
      "##ood": 5754,
      "##ilaterals": 5755,
      "quadrilaterals": 5756,
      "h1": 5757,
      "bipartite": 5758,
      "##66": 5759,
      "exam": 5760,
      "lang": 5761,
      "chem": 5762,
      "rhomb": 5763,
      "##inary": 5764,
      "prote": 5765,
      "him": 5766,
      "##rod": 5767,
      "semicircle": 5768,
      "##erate": 5769,
      "imag": 5770,
      "properly": 5771,
      "##asks": 5772,
      "solved": 5773,
      "guess": 5774,
      "lex": 5775,
      "existing": 5776,
      "##ror": 5777,
      "##ef": 5778,
      "##22": 5779,
      "##ols": 5780,
      "##ished": 5781,
      "scores": 5782,
      "irr": 5783,
      "composition": 5784,
      "##ily": 5785,
      "labels": 5786,
      "ncorrect": 5787,
      "nthird": 5788,
      "bounds": 5789,
      "eight": 5790,
      "##arp": 5791,
      "genetic": 5792,
      "s3": 5793,
      "anything": 5794,
      "entr": 5795,
      "hydro": 5796,
      "105": 5797,
      "applied": 5798,
      "trac": 5799,
      "ndraw": 5800,
      "reality": 5801,
      "mic": 5802,
      "##vert": 5803,
      "2t": 5804,
      "arrays": 5805,
      "##ective": 5806,
      "span": 5807,
      "mult": 5808,
      "##bon": 5809,
      "misc": 5810,
      "##aneous": 5811,
      "trail": 5812,
      "restric": 5813,
      "transformations": 5814,
      "switch": 5815,
      "principle": 5816,
      "fli": 5817,
      "refer": 5818,
      "bisect": 5819,
      "happens": 5820,
      "pet": 5821,
      "scenario": 5822,
      "ten": 5823,
      "##ese": 5824,
      "mex": 5825,
      "conflic": 5826,
      "magnitude": 5827,
      "purch": 5828,
      "##ifth": 5829,
      "simplifying": 5830,
      "inversion": 5831,
      "##gan": 5832,
      "incircle": 5833,
      "##like": 5834,
      "readline": 5835,
      "shor": 5836,
      "important": 5837,
      "strength": 5838,
      "ptr": 5839,
      "ess": 5840,
      "3b": 5841,
      "nwith": 5842,
      "cup": 5843,
      "##48": 5844,
      "##work": 5845,
      "nright": 5846,
      "##ilon": 5847,
      "##ode": 5848,
      "strong": 5849,
      "##psilon": 5850,
      "nleft": 5851,
      "gain": 5852,
      "kx": 5853,
      "setup": 5854,
      "argum": 5855,
      "nsimplifying": 5856,
      "88": 5857,
      "topo": 5858,
      "legs": 5859,
      "bag": 5860,
      "nmy": 5861,
      "cn": 5862,
      "x3": 5863,
      "irrational": 5864,
      "##ograph": 5865,
      "##joint": 5866,
      "chords": 5867,
      "shown": 5868,
      "travers": 5869,
      "##undred": 5870,
      "bcd": 5871,
      "##atures": 5872,
      "farthest": 5873,
      "dam": 5874,
      "pict": 5875,
      "##ium": 5876,
      "##ique": 5877,
      "##78": 5878,
      "##arm": 5879,
      "##thes": 5880,
      "involve": 5881,
      "faster": 5882,
      "##90": 5883,
      "ann": 5884,
      "sell": 5885,
      "composite": 5886,
      "disjoint": 5887,
      "absor": 5888,
      "tau": 5889,
      "never": 5890,
      "drawn": 5891,
      "triples": 5892,
      "nrem": 5893,
      "repeat": 5894,
      "rooms": 5895,
      "1e5": 5896,
      "##attice": 5897,
      "##ified": 5898,
      "##ster": 5899,
      "mathematical": 5900,
      "71": 5901,
      "come": 5902,
      "lowercase": 5903,
      "hundred": 5904,
      "mix": 5905,
      "acute": 5906,
      "minimizes": 5907,
      "ncomb": 5908,
      "achievable": 5909,
      "##actor": 5910,
      "bomb": 5911,
      "towards": 5912,
      "sever": 5913,
      "counted": 5914,
      "stick": 5915,
      "ham": 5916,
      "ncomp": 5917,
      "veloc": 5918,
      "nstill": 5919,
      "emp": 5920,
      "rotated": 5921,
      "functional": 5922,
      "naddition": 5923,
      "polar": 5924,
      "colorings": 5925,
      "subarrays": 5926,
      "##44": 5927,
      "rewr": 5928,
      "proof": 5929,
      "nwhen": 5930,
      "nimplement": 5931,
      "extension": 5932,
      "v1": 5933,
      "heat": 5934,
      "05": 5935,
      "4k": 5936,
      "##bel": 5937,
      "##ob": 5938,
      "fru": 5939,
      "environment": 5940,
      "gas": 5941,
      "##met": 5942,
      "contest": 5943,
      "descrip": 5944,
      "mapping": 5945,
      "elif": 5946,
      "dro": 5947,
      "lattice": 5948,
      "exper": 5949,
      "160": 5950,
      "cancel": 5951,
      "tens": 5952,
      "seven": 5953,
      "800": 5954,
      "push": 5955,
      "handling": 5956,
      "several": 5957,
      "outer": 5958,
      "conjugate": 5959,
      "compared": 5960,
      "particles": 5961,
      "nadd": 5962,
      "ri": 5963,
      "##ann": 5964,
      "140": 5965,
      "preser": 5966,
      "leaving": 5967,
      "eu": 5968,
      "##va": 5969,
      "##atch": 5970,
      "town": 5971,
      "nwell": 5972,
      "hyper": 5973,
      "c3": 5974,
      "##ilt": 5975,
      "##uel": 5976,
      "effectively": 5977,
      "homoth": 5978,
      "##zy": 5979,
      "paint": 5980,
      "sent": 5981,
      "connection": 5982,
      "subtended": 5983,
      "##yst": 5984,
      "record": 5985,
      "subseg": 5986,
      "##jective": 5987,
      "probabilities": 5988,
      "2017": 5989,
      "denominators": 5990,
      "precomp": 5991,
      "ben": 5992,
      "testing": 5993,
      "2018": 5994,
      "potentially": 5995,
      "rhombus": 5996,
      "alternating": 5997,
      "##31": 5998,
      "parse": 5999,
      "complement": 6000,
      "distribute": 6001,
      "cuts": 6002,
      "patterns": 6003,
      "##rices": 6004,
      "interactions": 6005,
      "shorter": 6006,
      "ah": 6007,
      "seats": 6008,
      "##angle": 6009,
      "concaten": 6010,
      "8x": 6011,
      "##aves": 6012,
      "stay": 6013,
      "numbered": 6014,
      "n12": 6015,
      "arbitrary": 6016,
      "clockwise": 6017,
      "##aries": 6018,
      "colored": 6019,
      "applicable": 6020,
      "##lex": 6021,
      "plants": 6022,
      "moment": 6023,
      "##irect": 6024,
      "hole": 6025,
      "cf": 6026,
      "2x2": 6027,
      "clique": 6028,
      "mut": 6029,
      "##forming": 6030,
      "limits": 6031,
      "built": 6032,
      "polygons": 6033,
      "suc": 6034,
      "n11": 6035,
      "evaluate": 6036,
      "tick": 6037,
      "##lin": 6038,
      "signs": 6039,
      "focus": 6040,
      "epsilon": 6041,
      "nadditionally": 6042,
      "ndivide": 6043,
      "polyhedron": 6044,
      "transp": 6045,
      "1990": 6046,
      "nspec": 6047,
      "##onic": 6048,
      "corners": 6049,
      "king": 6050,
      "directed": 6051,
      "handles": 6052,
      "endpoints": 6053,
      "##ler": 6054,
      "##loy": 6055,
      "bm": 6056,
      "lot": 6057,
      "priority": 6058,
      "estim": 6059,
      "bou": 6060,
      "happen": 6061,
      "profit": 6062,
      "ful": 6063,
      "leave": 6064,
      "expressing": 6065,
      "apart": 6066,
      "obtained": 6067,
      "east": 6068,
      "treat": 6069,
      "regardless": 6070,
      "kg": 6071,
      "lowest": 6072,
      "continuous": 6073,
      "nspecific": 6074,
      "##selves": 6075,
      "octagon": 6076,
      "##etch": 6077,
      "factorials": 6078,
      "able": 6079,
      "##orted": 6080,
      "themselves": 6081,
      "symb": 6082,
      "discre": 6083,
      "1s": 6084,
      "##logram": 6085,
      "join": 6086,
      "##enger": 6087,
      "##ident": 6088,
      "derive": 6089,
      "fifth": 6090,
      "sector": 6091,
      "systems": 6092,
      "2015": 6093,
      "covering": 6094,
      "ncalculate": 6095,
      "62": 6096,
      "parallelogram": 6097,
      "##77": 6098,
      "sun": 6099,
      "nconsider": 6100,
      "kj": 6101,
      "rho": 6102,
      "die": 6103,
      "##exts": 6104,
      "unif": 6105,
      "##9999": 6106,
      "residues": 6107,
      "##aper": 6108,
      "item": 6109,
      "ngood": 6110,
      "##oci": 6111,
      "diam": 6112,
      "##ternally": 6113,
      "connects": 6114,
      "teams": 6115,
      "holes": 6116,
      "attempt": 6117,
      "occurr": 6118,
      "##ouses": 6119,
      "associ": 6120,
      "92": 6121,
      "er": 6122,
      "nother": 6123,
      "##ams": 6124,
      "nspecifically": 6125,
      "af": 6126,
      "##ategor": 6127,
      "acid": 6128,
      "outline": 6129,
      "db": 6130,
      "nu": 6131,
      "##ath": 6132,
      "pythag": 6133,
      "transitions": 6134,
      "individual": 6135,
      "manip": 6136,
      "clearly": 6137,
      "precision": 6138,
      "velocity": 6139,
      "old": 6140,
      "136": 6141,
      "concentration": 6142,
      "unity": 6143,
      "combinator": 6144,
      "leg": 6145,
      "somewhere": 6146,
      "npre": 6147,
      "coverage": 6148,
      "mill": 6149,
      "##ination": 6150,
      "cou": 6151,
      "uniform": 6152,
      "rating": 6153,
      "missed": 6154,
      "votes": 6155,
      "gm": 6156,
      "##atter": 6157,
      "explo": 6158,
      "3y": 6159,
      "ray": 6160,
      "##pped": 6161,
      "dihedral": 6162,
      "##64": 6163,
      "nhe": 6164,
      "sketch": 6165,
      "langu": 6166,
      "2014": 6167,
      "painted": 6168,
      "week": 6169,
      "##aa": 6170,
      "angular": 6171,
      "access": 6172,
      "optimization": 6173,
      "fail": 6174,
      "##30": 6175,
      "##alth": 6176,
      "cook": 6177,
      "unlike": 6178,
      "party": 6179,
      "bacter": 6180,
      "600": 6181,
      "categor": 6182,
      "yz": 6183,
      "##vern": 6184,
      "triangular": 6185,
      "abd": 6186,
      "tail": 6187,
      "2019": 6188,
      "##metimes": 6189,
      "##625": 6190,
      "shap": 6191,
      "spin": 6192,
      "contexts": 6193,
      "001": 6194,
      "action": 6195,
      "k1": 6196,
      "simult": 6197,
      "reads": 6198,
      "4y": 6199,
      "##abel": 6200,
      "##orean": 6201,
      "210": 6202,
      "logarithms": 6203,
      "bond": 6204,
      "vs": 6205,
      "##00000000": 6206,
      "songs": 6207,
      "land": 6208,
      "simultaneous": 6209,
      "exit": 6210,
      "source": 6211,
      "cau": 6212,
      "##och": 6213,
      "nthese": 6214,
      "govern": 6215,
      "plant": 6216,
      "generalize": 6217,
      "dt": 6218,
      "79": 6219,
      "nexpanding": 6220,
      "##gonal": 6221,
      "snow": 6222,
      "2z": 6223,
      "north": 6224,
      "scale": 6225,
      "nall": 6226,
      "leaf": 6227,
      "##co": 6228,
      "##ucle": 6229,
      "progression": 6230,
      "1001": 6231,
      "classes": 6232,
      "mention": 6233,
      "topological": 6234,
      "##45": 6235,
      "nne": 6236,
      "float": 6237,
      "micro": 6238,
      "essent": 6239,
      "nacc": 6240,
      "##ests": 6241,
      "##ited": 6242,
      "specul": 6243,
      "effects": 6244,
      "precisely": 6245,
      "reaches": 6246,
      "atoms": 6247,
      "employ": 6248,
      "##ival": 6249,
      "accumul": 6250,
      "food": 6251,
      "robot": 6252,
      "nucle": 6253,
      "sine": 6254,
      "tell": 6255,
      "pythagorean": 6256,
      "construction": 6257,
      "multiplication": 6258,
      "p3": 6259,
      "abst": 6260,
      "issues": 6261,
      "percentage": 6262,
      "notherwise": 6263,
      "nlabel": 6264,
      "nab": 6265,
      "bel": 6266,
      "2010": 6267,
      "##ses": 6268,
      "sometimes": 6269,
      "enth": 6270,
      "working": 6271,
      "everything": 6272,
      "speculative": 6273,
      "age": 6274,
      "mach": 6275,
      "##b1": 6276,
      "brid": 6277,
      "computation": 6278,
      "vary": 6279,
      "complet": 6280,
      "##under": 6281,
      "returns": 6282,
      "##ucing": 6283,
      "challenging": 6284,
      "dice": 6285,
      "130": 6286,
      "##sion": 6287,
      "##na": 6288,
      "##70": 6289,
      "ncalculating": 6290,
      "unlikely": 6291,
      "82": 6292,
      "sliding": 6293,
      "divisibility": 6294,
      "adds": 6295,
      "n20": 6296,
      "constants": 6297,
      "completely": 6298,
      "576": 6299,
      "plas": 6300,
      "growth": 6301,
      "nq": 6302,
      "##onsist": 6303,
      "shared": 6304,
      "quickly": 6305,
      "nsol": 6306,
      "enthal": 6307,
      "##ik": 6308,
      "maximized": 6309,
      "mathsc": 6310,
      "population": 6311,
      "trailing": 6312,
      "mathscr": 6313,
      "##oses": 6314,
      "##ili": 6315,
      "nfactor": 6316,
      "relatively": 6317,
      "naccording": 6318,
      "bracket": 6319,
      "m1": 6320,
      "##sing": 6321,
      "summary": 6322,
      "issue": 6323,
      "##34": 6324,
      "leqslant": 6325,
      "comes": 6326,
      "xyz": 6327,
      "homothety": 6328,
      "cc": 6329,
      "generally": 6330,
      "sched": 6331,
      "aligned": 6332,
      "mirror": 6333,
      "success": 6334,
      "occurrences": 6335,
      "finish": 6336,
      "minimizing": 6337,
      "aff": 6338,
      "nread": 6339,
      "circumference": 6340,
      "1024": 6341,
      "rotating": 6342,
      "slopes": 6343,
      "ship": 6344,
      "nwhile": 6345,
      "establish": 6346,
      "##mic": 6347,
      "locus": 6348,
      "##16": 6349,
      "2002": 6350,
      "imaginary": 6351,
      "indicating": 6352,
      "##romatic": 6353,
      "network": 6354,
      "simultaneously": 6355,
      "abstract": 6356,
      "km": 6357,
      "heav": 6358,
      "115": 6359,
      "located": 6360,
      "11100": 6361,
      "fully": 6362,
      "restrictions": 6363,
      "fem": 6364,
      "gaps": 6365,
      "2h": 6366,
      "spent": 6367,
      "petya": 6368,
      "ncount": 6369,
      "deb": 6370,
      "phys": 6371,
      "##iness": 6372,
      "overc": 6373,
      "rectangular": 6374,
      "ncho": 6375,
      "travel": 6376,
      "molecules": 6377,
      "##ged": 6378,
      "spell": 6379,
      "resour": 6380,
      "inconsist": 6381,
      "simplified": 6382,
      "flowers": 6383,
      "nprocess": 6384,
      "neut": 6385,
      "beginning": 6386,
      "throw": 6387,
      "998": 6388,
      "##jor": 6389,
      "closer": 6390,
      "purp": 6391,
      "coincide": 6392,
      "spac": 6393,
      "answers": 6394,
      "basis": 6395,
      "dish": 6396,
      "mentions": 6397,
      "denot": 6398,
      "major": 6399,
      "beauty": 6400,
      "piles": 6401,
      "control": 6402,
      "##str": 6403,
      "processes": 6404,
      "evolution": 6405,
      "overlaps": 6406,
      "hit": 6407,
      "specify": 6408,
      "removal": 6409,
      "prefer": 6410,
      "enthalpy": 6411,
      "south": 6412,
      "512": 6413,
      "##jects": 6414,
      "reached": 6415,
      "##queue": 6416,
      "participants": 6417,
      "spanning": 6418,
      "damage": 6419,
      "extended": 6420,
      "occur": 6421,
      "##umes": 6422,
      "formation": 6423,
      "reduced": 6424,
      "practice": 6425,
      "description": 6426,
      "##uary": 6427,
      "##ends": 6428,
      "tooth": 6429,
      "nz": 6430,
      "diag": 6431,
      "##licit": 6432,
      "##tle": 6433,
      "nsubstitute": 6434,
      "exc": 6435,
      "passenger": 6436,
      "reversed": 6437,
      "86": 6438,
      "270": 6439,
      "residue": 6440,
      "4b": 6441,
      "##oring": 6442,
      "ndistance": 6443,
      "swapping": 6444,
      "02": 6445,
      "102": 6446,
      "home": 6447,
      "repeats": 6448,
      "##mit": 6449,
      "favorable": 6450,
      "plasma": 6451,
      "organ": 6452,
      "though": 6453,
      "electrons": 6454,
      "established": 6455,
      "dom": 6456,
      "ndif": 6457,
      "layer": 6458,
      "010": 6459,
      "arct": 6460,
      "reco": 6461,
      "##rame": 6462,
      "eat": 6463,
      "rounds": 6464,
      "misunder": 6465,
      "derived": 6466,
      "4r": 6467,
      "nonce": 6468,
      "vow": 6469,
      "shares": 6470,
      "alternative": 6471,
      "broken": 6472,
      "##aking": 6473,
      "##ool": 6474,
      "inser": 6475,
      "cal": 6476,
      "parents": 6477,
      "convol": 6478,
      "behind": 6479,
      "eucl": 6480,
      "toothp": 6481,
      "isl": 6482,
      "influence": 6483,
      "delete": 6484,
      "exceeds": 6485,
      "666": 6486,
      "720": 6487,
      "west": 6488,
      "1x": 6489,
      "fib": 6490,
      "pointer": 6491,
      "ordering": 6492,
      "pc": 6493,
      "##iguous": 6494,
      "quadrant": 6495,
      "phase": 6496,
      "loops": 6497,
      "7x": 6498,
      "bow": 6499,
      "wave": 6500,
      "##standing": 6501,
      "heads": 6502,
      "##hh": 6503,
      "135": 6504,
      "produce": 6505,
      "ine": 6506,
      "##une": 6507,
      "determining": 6508,
      "simplicity": 6509,
      "##earch": 6510,
      "hundreds": 6511,
      "frame": 6512,
      "winner": 6513,
      "shifts": 6514,
      "convoluted": 6515,
      "displ": 6516,
      "##usion": 6517,
      "scc": 6518,
      "93": 6519,
      "mp": 6520,
      "cosine": 6521,
      "against": 6522,
      "picks": 6523,
      "ring": 6524,
      "sold": 6525,
      "exponential": 6526,
      "men": 6527,
      "enter": 6528,
      "research": 6529,
      "alternate": 6530,
      "subsegment": 6531,
      "##lish": 6532,
      "npoint": 6533,
      "approximation": 6534,
      "medians": 6535,
      "x0": 6536,
      "##47": 6537,
      "simson": 6538,
      "333": 6539,
      "experim": 6540,
      "##yclic": 6541,
      "##ana": 6542,
      "##war": 6543,
      "cylin": 6544,
      "adjusted": 6545,
      "cylinder": 6546,
      "keys": 6547,
      "toothpicks": 6548,
      "##icograph": 6549,
      "##etric": 6550,
      "iv": 6551,
      "##15": 6552,
      "leap": 6553,
      "##chy": 6554,
      "introd": 6555,
      "nday": 6556,
      "2008": 6557,
      "indexing": 6558,
      "##board": 6559,
      "compar": 6560,
      "168": 6561,
      "192": 6562,
      "mistakes": 6563,
      "cruc": 6564,
      "##ulate": 6565,
      "thing": 6566,
      "2004": 6567,
      "tuples": 6568,
      "lexicograph": 6569,
      "picture": 6570,
      "nun": 6571,
      "react": 6572,
      "stars": 6573,
      "cnt": 6574,
      "fast": 6575,
      "crucial": 6576,
      "pix": 6577,
      "deli": 6578,
      "charge": 6579,
      "prevent": 6580,
      "scaling": 6581,
      "company": 6582,
      "misunderstanding": 6583,
      "rays": 6584,
      "explicit": 6585,
      "##logy": 6586,
      "maximizes": 6587,
      "subsequent": 6588,
      "recursively": 6589,
      "fits": 6590,
      "lceil": 6591,
      "##iques": 6592,
      "impro": 6593,
      "z2": 6594,
      "##eta": 6595,
      "restr": 6596,
      "touches": 6597,
      "members": 6598,
      "rceil": 6599,
      "occup": 6600,
      "walk": 6601,
      "contributes": 6602,
      "domain": 6603,
      "rightmost": 6604,
      "typically": 6605,
      "object": 6606,
      "450": 6607,
      "showing": 6608,
      "##00000": 6609,
      "health": 6610,
      "worst": 6611,
      "nyou": 6612,
      "##ogether": 6613,
      "10x": 6614,
      "combining": 6615,
      "altogether": 6616,
      "sit": 6617,
      "##ny": 6618,
      "vill": 6619,
      "ncol": 6620,
      "cauchy": 6621,
      "stone": 6622,
      "structures": 6623,
      "ballo": 6624,
      "limited": 6625,
      "rais": 6626,
      "reciprocals": 6627,
      "##kn": 6628,
      "##unction": 6629,
      "decomp": 6630,
      "transfer": 6631,
      "jumps": 6632,
      "1c": 6633,
      "stage": 6634,
      "applies": 6635,
      "3c": 6636,
      "aut": 6637,
      "##98": 6638,
      "ninde": 6639,
      "nsort": 6640,
      "log2": 6641,
      "performing": 6642,
      "##ored": 6643,
      "angled": 6644,
      "english": 6645,
      "memo": 6646,
      "adap": 6647,
      "disk": 6648,
      "periodic": 6649,
      "triv": 6650,
      "##idean": 6651,
      "instance": 6652,
      "carbon": 6653,
      "sinθ": 6654,
      "universe": 6655,
      "swe": 6656,
      "##carp": 6657,
      "activ": 6658,
      "receives": 6659,
      "##elace": 6660,
      "nadding": 6661,
      "dual": 6662,
      "lis": 6663,
      "nassign": 6664,
      "observ": 6665,
      "nde": 6666,
      "fractional": 6667,
      "reciprocal": 6668,
      "euclidean": 6669,
      "totaling": 6670,
      "circumcircles": 6671,
      "spherical": 6672,
      "flu": 6673,
      "##tt": 6674,
      "spect": 6675,
      "##52": 6676,
      "cosmic": 6677,
      "neighboring": 6678,
      "inefficient": 6679,
      "2θ": 6680,
      "3r": 6681,
      "cour": 6682,
      "##uses": 6683,
      "hands": 6684,
      "band": 6685,
      "lif": 6686,
      "determin": 6687,
      "glass": 6688,
      "molecular": 6689,
      "pressure": 6690,
      "und": 6691,
      "practical": 6692,
      "combinatorial": 6693,
      "message": 6694,
      "leftmost": 6695,
      "nrec": 6696,
      "running": 6697,
      "npo": 6698,
      "clar": 6699,
      "induction": 6700,
      "##defined": 6701,
      "crossing": 6702,
      "rolls": 6703,
      "diagram": 6704,
      "##iation": 6705,
      "art": 6706,
      "cust": 6707,
      "syn": 6708,
      "##ancy": 6709,
      "drink": 6710,
      "versa": 6711,
      "vice": 6712,
      "##tally": 6713,
      "##igit": 6714,
      "exclude": 6715,
      "lamp": 6716,
      "carl": 6717,
      "y3": 6718,
      "##ather": 6719,
      "subject": 6720,
      "independently": 6721,
      "dele": 6722,
      "ow": 6723,
      "##acci": 6724,
      "custom": 6725,
      "rotate": 6726,
      "1989": 6727,
      "orientation": 6728,
      "##37": 6729,
      "shoelace": 6730,
      "suitable": 6731,
      "##onacci": 6732,
      "pret": 6733,
      "parsing": 6734,
      "b3": 6735,
      "modular": 6736,
      "similarity": 6737,
      "periods": 6738,
      "frog": 6739,
      "houses": 6740,
      "i2": 6741,
      "##matrix": 6742,
      "##imeters": 6743,
      "club": 6744,
      "fibonacci": 6745,
      "ao": 6746,
      "##man": 6747,
      "qr": 6748,
      "##gies": 6749,
      "confirms": 6750,
      "semi": 6751,
      "##iew": 6752,
      "benef": 6753,
      "##yl": 6754,
      "moved": 6755,
      "##old": 6756,
      "volumes": 6757,
      "##71": 6758,
      "nremain": 6759,
      "associated": 6760,
      "##92": 6761,
      "##wb": 6762,
      "##ids": 6763,
      "particle": 6764,
      "floating": 6765,
      "pill": 6766,
      "##cal": 6767,
      "quarter": 6768,
      "specifies": 6769,
      "rain": 6770,
      "ability": 6771,
      "2012": 6772,
      "2f": 6773,
      "mentioned": 6774,
      "4m": 6775,
      "splitting": 6776,
      "l1": 6777,
      "##duct": 6778,
      "##seud": 6779,
      "projections": 6780,
      "appropriate": 6781,
      "interpretation": 6782,
      "pretty": 6783,
      "destro": 6784,
      "delet": 6785,
      "112": 6786,
      "numerical": 6787,
      "3s": 6788,
      "border": 6789,
      "extre": 6790,
      "reactions": 6791,
      "##ived": 6792,
      "supposed": 6793,
      "fruits": 6794,
      "equid": 6795,
      "respective": 6796,
      "a0": 6797,
      "usually": 6798,
      "flipping": 6799,
      "##ne": 6800,
      "visible": 6801,
      "maintaining": 6802,
      "estimate": 6803,
      "sil": 6804,
      "inch": 6805,
      "n16": 6806,
      "factored": 6807,
      "##apped": 6808,
      "gap": 6809,
      "nest": 6810,
      "nearlier": 6811,
      "token": 6812,
      "provides": 6813,
      "argument": 6814,
      "nchoose": 6815,
      "absorb": 6816,
      "3m": 6817,
      "##ault": 6818,
      "ste": 6819,
      "nsorted": 6820,
      "alphab": 6821,
      "insight": 6822,
      "switches": 6823,
      "l2": 6824,
      "##rel": 6825,
      "ion": 6826,
      "animal": 6827,
      "mob": 6828,
      "##ounted": 6829,
      "schwar": 6830,
      "hydrogen": 6831,
      "schwarz": 6832,
      "tile": 6833,
      "isol": 6834,
      "nfre": 6835,
      "monot": 6836,
      "exceeding": 6837,
      "parameters": 6838,
      "##aks": 6839,
      "##sters": 6840,
      "contiguous": 6841,
      "memory": 6842,
      "hull": 6843,
      "polycarp": 6844,
      "equidistant": 6845,
      "y0": 6846,
      "##con": 6847,
      "online": 6848,
      "126": 6849,
      "sectors": 6850,
      "##ero": 6851,
      "##terior": 6852,
      "prices": 6853,
      "traversal": 6854,
      "comparis": 6855,
      "fuel": 6856,
      "##pro": 6857,
      "prism": 6858,
      "requirements": 6859,
      "collections": 6860,
      "expect": 6861,
      "1e9": 6862,
      "arcsin": 6863,
      "enzy": 6864,
      "##otic": 6865,
      "n15": 6866,
      "marked": 6867,
      "radians": 6868,
      "prot": 6869,
      "exterior": 6870,
      "aren": 6871,
      "mb": 6872,
      "extract": 6873,
      "reasonable": 6874,
      "obt": 6875,
      "bricks": 6876,
      "uppercase": 6877,
      "inversions": 6878,
      "appropriately": 6879,
      "entries": 6880,
      "##known": 6881,
      "ntest": 6882,
      "6a": 6883,
      "r3": 6884,
      "sens": 6885,
      "tasks": 6886,
      "2009": 6887,
      "mi": 6888,
      "location": 6889,
      "lat": 6890,
      "##cule": 6891,
      "prints": 6892,
      "unknown": 6893,
      "summarize": 6894,
      "nassume": 6895,
      "million": 6896,
      "5k": 6897,
      "##rete": 6898,
      "maximizing": 6899,
      "1000000000": 6900,
      "obtuse": 6901,
      "12x": 6902,
      "matrices": 6903,
      "##ove": 6904,
      "##centers": 6905,
      "printed": 6906,
      "techniques": 6907,
      "wom": 6908,
      "##he": 6909,
      "undefined": 6910,
      "plays": 6911,
      "2ab": 6912,
      "worry": 6913,
      "buys": 6914,
      "rearranging": 6915,
      "molecule": 6916,
      "nup": 6917,
      "2006": 6918,
      "arranging": 6919,
      "language": 6920,
      "arctan": 6921,
      "mx": 6922,
      "externally": 6923,
      "shouldn": 6924,
      "anywhere": 6925,
      "traverse": 6926,
      "az": 6927,
      "loss": 6928,
      "chemical": 6929,
      "wonder": 6930,
      "initialization": 6931,
      "allowing": 6932,
      "meeting": 6933,
      "a5": 6934,
      "##ba": 6935,
      "e2": 6936,
      "##ees": 6937,
      "paren": 6938,
      "uns": 6939,
      "horizontally": 6940,
      "concrete": 6941,
      "labeled": 6942,
      "receive": 6943,
      "walking": 6944,
      "quar": 6945,
      "removes": 6946,
      "fac": 6947,
      "##uit": 6948,
      "##uts": 6949,
      "occurrence": 6950,
      "sin2": 6951,
      "arrow": 6952,
      "324": 6953,
      "indexed": 6954,
      "375": 6955,
      "od": 6956,
      "page": 6957,
      "replaced": 6958,
      "nrecall": 6959,
      "hi": 6960,
      "distributed": 6961,
      "contribute": 6962,
      "machine": 6963,
      "##onstr": 6964,
      "windows": 6965,
      "ions": 6966,
      "ran": 6967,
      "##ox": 6968,
      "##fix": 6969,
      "##urb": 6970,
      "arrival": 6971,
      "adapt": 6972,
      "87": 6973,
      "notice": 6974,
      "nothing": 6975,
      "nco": 6976,
      "orders": 6977,
      "recursion": 6978,
      "grows": 6979,
      "miscalcul": 6980,
      "mile": 6981,
      "interact": 6982,
      "ncont": 6983,
      "nprefix": 6984,
      "forces": 6985,
      "algorithms": 6986,
      "broad": 6987,
      "merge": 6988,
      "nro": 6989,
      "noper": 6990,
      "route": 6991,
      "writing": 6992,
      "dimensional": 6993,
      "##81": 6994,
      "##etical": 6995,
      "nequ": 6996,
      "indicates": 6997,
      "rough": 6998,
      "##imally": 6999,
      "pairing": 7000,
      "729": 7001,
      "ske": 7002,
      "loses": 7003,
      "filled": 7004,
      "bacteria": 7005,
      "3t": 7006,
      "lad": 7007,
      "chess": 7008,
      "chair": 7009,
      "equally": 7010,
      "comparing": 7011,
      "bring": 7012,
      "temperatures": 7013,
      "cause": 7014,
      "gal": 7015,
      "##xx": 7016,
      "photo": 7017,
      "04": 7018,
      "boys": 7019,
      "expanding": 7020,
      "d3": 7021,
      "poll": 7022,
      "boundaries": 7023,
      "##tracting": 7024,
      "arbitrarily": 7025,
      "ncombine": 7026,
      "nsequ": 7027,
      "nice": 7028,
      "pseud": 7029,
      "##ilib": 7030,
      "196": 7031,
      "##rium": 7032,
      "cla": 7033,
      "cutting": 7034,
      "##ashi": 7035,
      "version": 7036,
      "##ilibrium": 7037,
      "expects": 7038,
      "liters": 7039,
      "discrep": 7040,
      "pip": 7041,
      "##iers": 7042,
      "equilibrium": 7043,
      "optimized": 7044,
      "drawing": 7045,
      "balanced": 7046,
      "essentially": 7047,
      "recogn": 7048,
      "harm": 7049,
      "defic": 7050,
      "simulation": 7051,
      "##bc": 7052,
      "gray": 7053,
      "vertically": 7054,
      "individually": 7055,
      "destroy": 7056,
      "5000": 7057,
      "ak": 7058,
      "effective": 7059,
      "paper": 7060,
      "##ture": 7061,
      "nby": 7062,
      "ndigit": 7063,
      "nexample": 7064,
      "bought": 7065,
      "discard": 7066,
      "constructed": 7067,
      "transport": 7068,
      "2005": 7069,
      "fields": 7070,
      "##ced": 7071,
      "##38": 7072,
      "ing": 7073,
      "##cepts": 7074,
      "##ocode": 7075,
      "materials": 7076,
      "hum": 7077,
      "##og": 7078,
      "##ology": 7079,
      "##icking": 7080,
      "chairs": 7081,
      "2500": 7082,
      "early": 7083,
      "attach": 7084,
      "brackets": 7085,
      "mph": 7086,
      "##ahashi": 7087,
      "polymer": 7088,
      "reduction": 7089,
      "geqslant": 7090,
      "si": 7091,
      "nneed": 7092,
      "m3": 7093,
      "##bs": 7094,
      "boy": 7095,
      "catal": 7096,
      "explicitly": 7097,
      "bos": 7098,
      "local": 7099,
      "##asha": 7100,
      "eventually": 7101,
      "lateral": 7102,
      "rub": 7103,
      "acd": 7104,
      "reducing": 7105,
      "monoch": 7106,
      "##irected": 7107,
      "aq": 7108,
      "z1": 7109,
      "nature": 7110,
      "cans": 7111,
      "nbring": 7112,
      "equivalence": 7113,
      "rewrite": 7114,
      "hints": 7115,
      "rs": 7116,
      "weak": 7117,
      "little": 7118,
      "monochromatic": 7119,
      "shop": 7120,
      "earth": 7121,
      "previously": 7122,
      "undirected": 7123,
      "tax": 7124,
      "confirming": 7125,
      "pages": 7126,
      "seq": 7127,
      "343": 7128,
      "lights": 7129,
      "parenthes": 7130,
      "nalternative": 7131,
      "adc": 7132,
      "dog": 7133,
      "##ouch": 7134,
      "earlies": 7135,
      "buying": 7136,
      "resources": 7137,
      "earliest": 7138,
      "grams": 7139,
      "negatives": 7140,
      "cookies": 7141,
      "xz": 7142,
      "devi": 7143,
      "mechanisms": 7144,
      "discrepancy": 7145,
      "om": 7146,
      "waves": 7147,
      "nsame": 7148,
      "dev": 7149,
      "ngcd": 7150,
      "##111": 7151,
      "link": 7152,
      "performed": 7153,
      "ladder": 7154,
      "420": 7155,
      "##col": 7156,
      "notation": 7157,
      "plau": 7158,
      "6n": 7159,
      "##dy": 7160,
      "nelif": 7161,
      "4s": 7162,
      "ft": 7163,
      "school": 7164,
      "tuple": 7165,
      "nremaining": 7166,
      "plausible": 7167,
      "wide": 7168,
      "forward": 7169,
      "bran": 7170,
      "randomly": 7171,
      "drop": 7172,
      "affected": 7173,
      "por": 7174,
      "##izz": 7175,
      "n100": 7176,
      "listed": 7177,
      "electro": 7178,
      "participant": 7179,
      "extensions": 7180,
      "##79": 7181,
      "##etition": 7182,
      "100000": 7183,
      "changed": 7184,
      "determines": 7185,
      "mouse": 7186,
      "ur": 7187,
      "knows": 7188,
      "##201": 7189,
      "belong": 7190,
      "ju": 7191,
      "sal": 7192,
      "default": 7193,
      "bars": 7194,
      "stops": 7195,
      "5n": 7196,
      "compress": 7197,
      "ngre": 7198,
      "##ribe": 7199,
      "tak": 7200,
      "objects": 7201,
      "nimber": 7202,
      "denoted": 7203,
      "##bol": 7204,
      "##ingu": 7205,
      "consum": 7206,
      "2021": 7207,
      "jan": 7208,
      "socks": 7209,
      "##ards": 7210,
      "earn": 7211,
      "##phere": 7212,
      "presence": 7213,
      "grouping": 7214,
      "repeatedly": 7215,
      "##cop": 7216,
      "matched": 7217,
      "nsubtracting": 7218,
      "walls": 7219,
      "conflict": 7220,
      "hyperbol": 7221,
      "gave": 7222,
      "1008": 7223,
      "projective": 7224,
      "ign": 7225,
      "chr": 7226,
      "reflecting": 7227,
      "differenti": 7228,
      "photos": 7229,
      "inconsistent": 7230,
      "lem": 7231,
      "chocol": 7232,
      "9x": 7233,
      "intercept": 7234,
      "2011": 7235,
      "backtracking": 7236,
      "dir": 7237,
      "ea": 7238,
      "intu": 7239,
      "##jk": 7240,
      "acce": 7241,
      "representations": 7242,
      "violates": 7243,
      "trivial": 7244,
      "nsequence": 7245,
      "bir": 7246,
      "commun": 7247,
      "happiness": 7248,
      "nsetting": 7249,
      "oh": 7250,
      "intouch": 7251,
      "##ounter": 7252,
      "optimally": 7253,
      "metal": 7254,
      "proteins": 7255,
      "nimplementing": 7256,
      "fen": 7257,
      "gon": 7258,
      "wire": 7259,
      "n13": 7260,
      "knights": 7261,
      "instr": 7262,
      "drug": 7263,
      "determinant": 7264,
      "sales": 7265,
      "remainders": 7266,
      "arccos": 7267,
      "##rid": 7268,
      "protein": 7269,
      "##por": 7270,
      "doors": 7271,
      "offer": 7272,
      "3x3": 7273,
      "contributions": 7274,
      "nsolving": 7275,
      "##49": 7276,
      "##72": 7277,
      "increased": 7278,
      "ndoes": 7279,
      "creating": 7280,
      "marks": 7281,
      "##cosity": 7282,
      "raised": 7283,
      "##oming": 7284,
      "detect": 7285,
      "##iliar": 7286,
      "physics": 7287,
      "##hib": 7288,
      "meets": 7289,
      "composed": 7290,
      "domino": 7291,
      "triplets": 7292,
      "deliver": 7293,
      "nour": 7294,
      "intended": 7295,
      "a1b1": 7296,
      "kit": 7297,
      "ok": 7298,
      "invert": 7299,
      "ops": 7300,
      "npoints": 7301,
      "##ball": 7302,
      "##ept": 7303,
      "teach": 7304,
      "dominoes": 7305,
      "familiar": 7306,
      "bern": 7307,
      "vo": 7308,
      "##min": 7309,
      "##ued": 7310,
      "##versity": 7311,
      "bottles": 7312,
      "scalar": 7313,
      "heapq": 7314,
      "t3": 7315,
      "##word": 7316,
      "nperfect": 7317,
      "project": 7318,
      "viscosity": 7319,
      "deficit": 7320,
      "##42": 7321,
      "##zero": 7322,
      "ec": 7323,
      "##onn": 7324,
      "proving": 7325,
      "exch": 7326,
      "flips": 7327,
      "##ecimal": 7328,
      "##lob": 7329,
      "simplest": 7330,
      "##atches": 7331,
      "plot": 7332,
      "refers": 7333,
      "saying": 7334,
      "monster": 7335,
      "server": 7336,
      "statements": 7337,
      "83": 7338,
      "kill": 7339,
      "##vious": 7340,
      "tails": 7341,
      "##sol": 7342,
      "##ony": 7343,
      "measures": 7344,
      "w1": 7345,
      "nonzero": 7346,
      "occupied": 7347,
      "4π": 7348,
      "outputs": 7349,
      "2003": 7350,
      "connectivity": 7351,
      "candy": 7352,
      "##hold": 7353,
      "girls": 7354,
      "mm": 7355,
      "##可能": 7356,
      "2001": 7357,
      "slav": 7358,
      "pqr": 7359,
      "environmental": 7360,
      "government": 7361,
      "nboth": 7362,
      "10201": 7363,
      "amounts": 7364,
      "linearly": 7365,
      "lexicographically": 7366,
      "autom": 7367,
      "chance": 7368,
      "memoization": 7369,
      "bird": 7370,
      "stations": 7371,
      "apple": 7372,
      "hexad": 7373,
      "semicircles": 7374,
      "female": 7375,
      "pixels": 7376,
      "pseudocode": 7377,
      "eaten": 7378,
      "##uff": 7379,
      "##wick": 7380,
      "shots": 7381,
      "104": 7382,
      "##agr": 7383,
      "npos": 7384,
      "uniquely": 7385,
      "dependencies": 7386,
      "turned": 7387,
      "purchase": 7388,
      "shapes": 7389,
      "bridge": 7390,
      "##inguish": 7391,
      "deck": 7392,
      "##c1": 7393,
      "##ently": 7394,
      "resistance": 7395,
      "development": 7396,
      "weighted": 7397,
      "concave": 7398,
      "palindromic": 7399,
      "subtraction": 7400,
      "sources": 7401,
      "parentheses": 7402,
      "hexadecimal": 7403,
      "dag": 7404,
      "tourn": 7405,
      "easy": 7406,
      "ct": 7407,
      "u2": 7408,
      "##lie": 7409,
      "contained": 7410,
      "confident": 7411,
      "paired": 7412,
      "fenwick": 7413,
      "tourna": 7414,
      "##18": 7415,
      "##uing": 7416,
      "tried": 7417,
      "accounts": 7418,
      "orthogonal": 7419,
      "employee": 7420,
      "##leep": 7421,
      "impact": 7422,
      "production": 7423,
      "colinear": 7424,
      "##aven": 7425,
      "visits": 7426,
      "ncolumn": 7427,
      "clarify": 7428,
      "extreme": 7429,
      "takahashi": 7430,
      "09": 7431,
      "button": 7432,
      "gold": 7433,
      "quantities": 7434,
      "ticket": 7435,
      "nnew": 7436,
      "spread": 7437,
      "cach": 7438,
      "##istry": 7439,
      "##lescop": 7440,
      "cycl": 7441,
      "telescop": 7442,
      "cars": 7443,
      "constructing": 7444,
      "foci": 7445,
      "mathcal": 7446,
      "##spective": 7447,
      "experiment": 7448,
      "08": 7449,
      "nangle": 7450,
      "computes": 7451,
      "ingred": 7452,
      "nac": 7453,
      "##oud": 7454,
      "conson": 7455,
      "ceiling": 7456,
      "spots": 7457,
      "factorize": 7458,
      "projects": 7459,
      "multis": 7460,
      "spells": 7461,
      "cups": 7462,
      "flights": 7463,
      "dem": 7464,
      "##idence": 7465,
      "figures": 7466,
      "continues": 7467,
      "nexpected": 7468,
      "299": 7469,
      "499": 7470,
      "lagr": 7471,
      "mirko": 7472,
      "van": 7473,
      "##aw": 7474,
      "rolling": 7475,
      "examine": 7476,
      "3i": 7477,
      "disks": 7478,
      "manipulate": 7479,
      "pf": 7480,
      "γ1": 7481,
      "quot": 7482,
      "orthic": 7483,
      "layers": 7484,
      "junction": 7485,
      "##angement": 7486,
      "overf": 7487,
      "arrive": 7488,
      "288": 7489,
      "ci": 7490,
      "cx": 7491,
      "w2": 7492,
      "yen": 7493,
      "##width": 7494,
      "subgr": 7495,
      "heard": 7496,
      "birth": 7497,
      "concurrent": 7498,
      "towns": 7499,
      "watch": 7500,
      "orange": 7501,
      "##ared": 7502,
      "started": 7503,
      "tetrahedrons": 7504,
      "ncontin": 7505,
      "p0": 7506,
      "δh": 7507,
      "codes": 7508,
      "ncan": 7509,
      "printing": 7510,
      "performance": 7511,
      "slight": 7512,
      "scenarios": 7513,
      "##medi": 7514,
      "additionally": 7515,
      "describ": 7516,
      "pin": 7517,
      "upwards": 7518,
      "varies": 7519,
      "cevi": 7520,
      "significantly": 7521,
      "cevians": 7522,
      "vote": 7523,
      "##ulations": 7524,
      "handled": 7525,
      "##ole": 7526,
      "someone": 7527,
      "wouldn": 7528,
      "nrearr": 7529,
      "replacing": 7530,
      "updating": 7531,
      "##cer": 7532,
      "asp": 7533,
      "processed": 7534,
      "119": 7535,
      "factoring": 7536,
      "movements": 7537,
      "additions": 7538,
      "girl": 7539,
      "##eness": 7540,
      "202": 7541,
      "243": 7542,
      "##hole": 7543,
      "gravity": 7544,
      "slic": 7545,
      "##ney": 7546,
      "##stac": 7547,
      "n14": 7548,
      "n25": 7549,
      "explore": 7550,
      "concyclic": 7551,
      "months": 7552,
      "uniformly": 7553,
      "tall": 7554,
      "genes": 7555,
      "approximate": 7556,
      "falls": 7557,
      "lying": 7558,
      "##length": 7559,
      "rod": 7560,
      "separation": 7561,
      "feed": 7562,
      "obstac": 7563,
      "shifted": 7564,
      "##iddle": 7565,
      "coup": 7566,
      "nested": 7567,
      "hc": 7568,
      "pd": 7569,
      "arrives": 7570,
      "explain": 7571,
      "encounter": 7572,
      "moles": 7573,
      "alphabet": 7574,
      "ndigits": 7575,
      "1b": 7576,
      "alex": 7577,
      "##apor": 7578,
      "users": 7579,
      "##artic": 7580,
      "iteratively": 7581,
      "skill": 7582,
      "ban": 7583,
      "##或者": 7584,
      "aba": 7585,
      "rewrit": 7586,
      "c0": 7587,
      "##74": 7588,
      "##ades": 7589,
      "##mental": 7590,
      "cheap": 7591,
      "npositions": 7592,
      "touching": 7593,
      "pan": 7594,
      "162": 7595,
      "modified": 7596,
      "yields": 7597,
      "reference": 7598,
      "bags": 7599,
      "acceler": 7600,
      "osc": 7601,
      "parameterize": 7602,
      "cache": 7603,
      "ay": 7604,
      "##ginal": 7605,
      "funda": 7606,
      "252": 7607,
      "9999": 7608,
      "4000": 7609,
      "brick": 7610,
      "bic": 7611,
      "n19": 7612,
      "intermedi": 7613,
      "congruence": 7614,
      "predic": 7615,
      "dur": 7616,
      "##zz": 7617,
      "nnote": 7618,
      "filter": 7619,
      "hyperbola": 7620,
      "1a": 7621,
      "glob": 7622,
      "##plan": 7623,
      "3p": 7624,
      "em": 7625,
      "nres": 7626,
      "##oph": 7627,
      "##ads": 7628,
      "boat": 7629,
      "crosses": 7630,
      "sixth": 7631,
      "4c": 7632,
      "male": 7633,
      "sock": 7634,
      "nsqu": 7635,
      "contradict": 7636,
      "support": 7637,
      "reversing": 7638,
      "comparison": 7639,
      "hh": 7640,
      "ps": 7641,
      "rates": 7642,
      "##yc": 7643,
      "##osing": 7644,
      "##istics": 7645,
      "fundamental": 7646,
      "ga": 7647,
      "n或者": 7648,
      "##57": 7649,
      "##ius": 7650,
      "##yt": 7651,
      "##ptions": 7652,
      "took": 7653,
      "sticks": 7654,
      "excess": 7655,
      "doing": 7656,
      "##244": 7657,
      "category": 7658,
      "dna": 7659,
      "tower": 7660,
      "clean": 7661,
      "draws": 7662,
      "##overed": 7663,
      "exploit": 7664,
      "lamps": 7665,
      "tournament": 7666,
      "overflow": 7667,
      "##land": 7668,
      "quotes": 7669,
      "decided": 7670,
      "curv": 7671,
      "companies": 7672,
      "mr": 7673,
      "situ": 7674,
      "##yn": 7675,
      "pole": 7676,
      "spot": 7677,
      "##110": 7678,
      "parametric": 7679,
      "ngreat": 7680,
      "##turb": 7681,
      "perturb": 7682,
      "notes": 7683,
      "plat": 7684,
      "nden": 7685,
      "scatter": 7686,
      "tanθ": 7687,
      "nequation": 7688,
      "stays": 7689,
      "##iral": 7690,
      "tram": 7691,
      "##onduct": 7692,
      "ratings": 7693,
      "2013": 7694,
      "obvious": 7695,
      "minor": 7696,
      "##undant": 7697,
      "symbol": 7698,
      "wavelength": 7699,
      "cake": 7700,
      "fish": 7701,
      "##x2": 7702,
      "orbit": 7703,
      "door": 7704,
      "clim": 7705,
      "shifting": 7706,
      "easily": 7707,
      "floors": 7708,
      "gh": 7709,
      "sleep": 7710,
      "atm": 7711,
      "pointers": 7712,
      "manner": 7713,
      "clust": 7714,
      "f2": 7715,
      "hot": 7716,
      "mond": 7717,
      "enh": 7718,
      "recalcul": 7719,
      "whenever": 7720,
      "##lockwise": 7721,
      "liter": 7722,
      "oscill": 7723,
      "0s": 7724,
      "2w": 7725,
      "lap": 7726,
      "tg": 7727,
      "mag": 7728,
      "mind": 7729,
      "country": 7730,
      "3600": 7731,
      "playing": 7732,
      "convey": 7733,
      "walks": 7734,
      "display": 7735,
      "date": 7736,
      "ic": 7737,
      "perspective": 7738,
      "activity": 7739,
      "289": 7740,
      "computations": 7741,
      "##problem": 7742,
      "past": 7743,
      "war": 7744,
      "ch3": 7745,
      "linewidth": 7746,
      "reconstr": 7747,
      "assumed": 7748,
      "algebraic": 7749,
      "islands": 7750,
      "4t": 7751,
      "ceva": 7752,
      "placement": 7753,
      "discount": 7754,
      "##ancing": 7755,
      "subtrees": 7756,
      "removals": 7757,
      "multiset": 7758,
      "haven": 7759,
      "##r2": 7760,
      "chip": 7761,
      "usage": 7762,
      "117": 7763,
      "251": 7764,
      "propag": 7765,
      "accurately": 7766,
      "rather": 7767,
      "flight": 7768,
      "exponentiation": 7769,
      "cryst": 7770,
      "identifying": 7771,
      "nupon": 7772,
      "enum": 7773,
      "##agn": 7774,
      "said": 7775,
      "165": 7776,
      "na2": 7777,
      "speeds": 7778,
      "bombs": 7779,
      "1369": 7780,
      "napp": 7781,
      "##ina": 7782,
      "lear": 7783,
      "unn": 7784,
      "satur": 7785,
      "290": 7786,
      "converting": 7787,
      "scaled": 7788,
      "frid": 7789,
      "lagrange": 7790,
      "f1": 7791,
      "##a2": 7792,
      "ads": 7793,
      "extending": 7794,
      "oxid": 7795,
      "family": 7796,
      "flipped": 7797,
      "xn": 7798,
      "##iful": 7799,
      "images": 7800,
      "414": 7801,
      "depart": 7802,
      "excluded": 7803,
      "improve": 7804,
      "jour": 7805,
      "##ites": 7806,
      "differential": 7807,
      "defining": 7808,
      "chemistry": 7809,
      "unnecess": 7810,
      "##inter": 7811,
      "109": 7812,
      "perpendiculars": 7813,
      "multiplicative": 7814,
      "translation": 7815,
      "pillar": 7816,
      "wed": 7817,
      "##clockwise": 7818,
      "##unn": 7819,
      "implic": 7820,
      "harmonic": 7821,
      "picking": 7822,
      "##ological": 7823,
      "##isions": 7824,
      "##001": 7825,
      "trait": 7826,
      "feel": 7827,
      "command": 7828,
      "standing": 7829,
      "counterclockwise": 7830,
      "duplicate": 7831,
      "beautiful": 7832,
      "arguments": 7833,
      "passengers": 7834,
      "##ients": 7835,
      "##isited": 7836,
      "vowels": 7837,
      "p4": 7838,
      "##lled": 7839,
      "##stra": 7840,
      "n17": 7841,
      "theoretical": 7842,
      "derivatives": 7843,
      "priorit": 7844,
      "claim": 7845,
      "##jkstra": 7846,
      "narr": 7847,
      "1800": 7848,
      "##17": 7849,
      "##iss": 7850,
      "nsqrt": 7851,
      "ntime": 7852,
      "imposes": 7853,
      "4ac": 7854,
      "riddle": 7855,
      "view": 7856,
      "dijkstra": 7857,
      "conjugates": 7858,
      "jobs": 7859,
      "fa": 7860,
      "reser": 7861,
      "132": 7862,
      "##undy": 7863,
      "interested": 7864,
      "analyzing": 7865,
      "technique": 7866,
      "ncomparing": 7867,
      "tickets": 7868,
      "px": 7869,
      "pizz": 7870,
      "guest": 7871,
      "requirement": 7872,
      "i1": 7873,
      "s4": 7874,
      "##ilton": 7875,
      "flower": 7876,
      "bids": 7877,
      "precomputed": 7878,
      "dise": 7879,
      "stores": 7880,
      "alloc": 7881,
      "unp": 7882,
      "##omplic": 7883,
      "curves": 7884,
      "bills": 7885,
      "##going": 7886,
      "heavier": 7887,
      "##55": 7888,
      "##62": 7889,
      "currently": 7890,
      "characteristic": 7891,
      "hypoth": 7892,
      "affecting": 7893,
      "overcomplic": 7894,
      "balloons": 7895,
      "women": 7896,
      "intermediate": 7897,
      "ir": 7898,
      "stairs": 7899,
      "##aba": 7900,
      "miscounted": 7901,
      "hamilton": 7902,
      "spaced": 7903,
      "ndenomin": 7904,
      "aim": 7905,
      "bul": 7906,
      "models": 7907,
      "chains": 7908,
      "ferm": 7909,
      "lands": 7910,
      "##67": 7911,
      "cosθ": 7912,
      "dogs": 7913,
      "tangled": 7914,
      "bounding": 7915,
      "joining": 7916,
      "cde": 7917,
      "##需要": 7918,
      "hasn": 7919,
      "apb": 7920,
      "mechanism": 7921,
      "restrict": 7922,
      "led": 7923,
      "##aur": 7924,
      "##ience": 7925,
      "##reshold": 7926,
      "updated": 7927,
      "octahedron": 7928,
      "january": 7929,
      "##lear": 7930,
      "isot": 7931,
      "prep": 7932,
      "##ably": 7933,
      "knight": 7934,
      "induced": 7935,
      "scre": 7936,
      "keeps": 7937,
      "hexagons": 7938,
      "indicate": 7939,
      "eb": 7940,
      "##gative": 7941,
      "matters": 7942,
      "verification": 7943,
      "##igen": 7944,
      "destination": 7945,
      "mutations": 7946,
      "2j": 7947,
      "z0": 7948,
      "##ogen": 7949,
      "##87": 7950,
      "anc": 7951,
      "almost": 7952,
      "##omm": 7953,
      "squaring": 7954,
      "bisects": 7955,
      "servers": 7956,
      "entrance": 7957,
      "burn": 7958,
      "mc": 7959,
      "positioned": 7960,
      "##ardo": 7961,
      "surv": 7962,
      "received": 7963,
      "##pe": 7964,
      "##使用": 7965,
      "checked": 7966,
      "desk": 7967,
      "placements": 7968,
      "vieta": 7969,
      "nfreq": 7970,
      "eats": 7971,
      "##orph": 7972,
      "##unc": 7973,
      "nfour": 7974,
      "ngroup": 7975,
      "basic": 7976,
      "proven": 7977,
      "magnitudes": 7978,
      "catch": 7979,
      "monotonic": 7980,
      "overcomplicating": 7981,
      "cum": 7982,
      "htt": 7983,
      "tab": 7984,
      "vmatrix": 7985,
      "##lying": 7986,
      "played": 7987,
      "conversion": 7988,
      "flat": 7989,
      "bpc": 7990,
      "oxy": 7991,
      "soldiers": 7992,
      "unnecessary": 7993,
      "8a": 7994,
      "##ii": 7995,
      "##fs": 7996,
      "mel": 7997,
      "relat": 7998,
      "sheet": 7999,
      "##353": 8000,
      "platform": 8001,
      "##rase": 8002,
      "##dict": 8003,
      "flag": 8004,
      "palindromes": 8005,
      "998244": 8006,
      "recalculate": 8007,
      "bank": 8008,
      "mus": 8009,
      "expensive": 8010,
      "stress": 8011,
      "interaction": 8012,
      "operators": 8013,
      "apex": 8014,
      "slightly": 8015,
      "e1": 8016,
      "##mes": 8017,
      "##via": 8018,
      "##reg": 8019,
      "iso": 8020,
      "plate": 8021,
      "evol": 8022,
      "avo": 8023,
      "computers": 8024,
      "nindex": 8025,
      "noperation": 8026,
      "tal": 8027,
      "grundy": 8028,
      "superc": 8029,
      "hamiltonian": 8030,
      "eating": 8031,
      "ground": 8032,
      "##o2": 8033,
      "##kill": 8034,
      "stri": 8035,
      "course": 8036,
      "ranks": 8037,
      "ndenominator": 8038,
      "998244353": 8039,
      "##ene": 8040,
      "soc": 8041,
      "stable": 8042,
      "##ows": 8043,
      "details": 8044,
      "evenly": 8045,
      "existence": 8046,
      "galax": 8047,
      "intuition": 8048,
      "bernardo": 8049,
      "##iors": 8050,
      "threshold": 8051,
      "deep": 8052,
      "1296": 8053,
      "149": 8054,
      "masses": 8055,
      "curvature": 8056,
      "dd": 8057,
      "consideration": 8058,
      "ncos": 8059,
      "diameters": 8060,
      "silvia": 8061,
      "global": 8062,
      "mot": 8063,
      "offset": 8064,
      "dependent": 8065,
      "##bruary": 8066,
      "violating": 8067,
      "attached": 8068,
      "superconduct": 8069,
      "##ries": 8070,
      "##inos": 8071,
      "##ains": 8072,
      "##fort": 8073,
      "sheep": 8074,
      "adjustment": 8075,
      "transformed": 8076,
      "capacities": 8077,
      "##ha": 8078,
      "stronger": 8079,
      "subg": 8080,
      "cos2": 8081,
      "happy": 8082,
      "quotient": 8083,
      "hint": 8084,
      "lost": 8085,
      "γ2": 8086,
      "unch": 8087,
      "##itely": 8088,
      "odds": 8089,
      "opponent": 8090,
      "nvector": 8091,
      "4i": 8092,
      "hist": 8093,
      "kil": 8094,
      "ti": 8095,
      "1010": 8096,
      "nx2": 8097,
      "offers": 8098,
      "folded": 8099,
      "schedule": 8100,
      "batter": 8101,
      "gall": 8102,
      "termin": 8103,
      "overkill": 8104,
      "nonly": 8105,
      "reaching": 8106,
      "alternatively": 8107,
      "semip": 8108,
      "trains": 8109,
      "cables": 8110,
      "gf": 8111,
      "module": 8112,
      "bitm": 8113,
      "elimination": 8114,
      "traits": 8115,
      "oxygen": 8116,
      "##enerate": 8117,
      "##ima": 8118,
      "resist": 8119,
      "february": 8120,
      "aligns": 8121,
      "latin": 8122,
      "birds": 8123,
      "bn": 8124,
      "yards": 8125,
      "thick": 8126,
      "##rons": 8127,
      "messages": 8128,
      "applications": 8129,
      "shove": 8130,
      "rewritten": 8131,
      "flex": 8132,
      "tc": 8133,
      "##68": 8134,
      "##ils": 8135,
      "255": 8136,
      "carol": 8137,
      "measured": 8138,
      "packs": 8139,
      "insertions": 8140,
      "700": 8141,
      "sup": 8142,
      "##ounting": 8143,
      "n18": 8144,
      "ntry": 8145,
      "##enced": 8146,
      "efgh": 8147,
      "implying": 8148,
      "bonds": 8149,
      "rubles": 8150,
      "ds": 8151,
      "##b2": 8152,
      "##liers": 8153,
      "invari": 8154,
      "backwards": 8155,
      "320": 8156,
      "surround": 8157,
      "sufficiently": 8158,
      "destroyed": 8159,
      "nfourth": 8160,
      "##95": 8161,
      "##ov": 8162,
      "stability": 8163,
      "rolled": 8164,
      "##ounded": 8165,
      "breaks": 8166,
      "criter": 8167,
      "replacement": 8168,
      "reflected": 8169,
      "monday": 8170,
      "reconstruct": 8171,
      "##card": 8172,
      "##arts": 8173,
      "indirect": 8174,
      "bitwise": 8175,
      "flows": 8176,
      "observed": 8177,
      "bun": 8178,
      "154": 8179,
      "iterations": 8180,
      "planet": 8181,
      "##raft": 8182,
      "220": 8183,
      "populations": 8184,
      "nmultiplying": 8185,
      "##solving": 8186,
      "today": 8187,
      "lever": 8188,
      "centimeters": 8189,
      "drive": 8190,
      "dollar": 8191,
      "3e": 8192,
      "##gg": 8193,
      "##ka": 8194,
      "nsh": 8195,
      "body": 8196,
      "antib": 8197,
      "difficulty": 8198,
      "precomputing": 8199,
      "debt": 8200,
      "nresult": 8201,
      "2q": 8202,
      "##mers": 8203,
      "##hatt": 8204,
      "##61": 8205,
      "##0000000": 8206,
      "ski": 8207,
      "crossings": 8208,
      "exploited": 8209,
      "actions": 8210,
      "telescoping": 8211,
      "subgroup": 8212,
      "##hattan": 8213,
      "ice": 8214,
      "sund": 8215,
      "hamming": 8216,
      "c4": 8217,
      "oil": 8218,
      "##hm": 8219,
      "aaa": 8220,
      "immediate": 8221,
      "100000000": 8222,
      "favorite": 8223,
      "tracking": 8224,
      "situation": 8225,
      "##41": 8226,
      "##val": 8227,
      "##than": 8228,
      "nah": 8229,
      "planets": 8230,
      "penal": 8231,
      "defaultdict": 8232,
      "ancest": 8233,
      "pour": 8234,
      "belie": 8235,
      "cha": 8236,
      "manhattan": 8237,
      "ideal": 8238,
      "simplification": 8239,
      "480": 8240,
      "energies": 8241,
      "frag": 8242,
      "packages": 8243,
      "##mission": 8244,
      "2e5": 8245,
      "predict": 8246,
      "ndifference": 8247,
      "bowls": 8248,
      "isogonal": 8249,
      "1st": 8250,
      "cats": 8251,
      "engine": 8252,
      "signal": 8253,
      "bowl": 8254,
      "fluid": 8255,
      "scattering": 8256,
      "trunc": 8257,
      "dead": 8258,
      "unb": 8259,
      "127": 8260,
      "1002": 8261,
      "##9411": 8262,
      "fruit": 8263,
      "post": 8264,
      "##ift": 8265,
      "splits": 8266,
      "##8823": 8267,
      "symbols": 8268,
      "shaped": 8269,
      "##529411": 8270,
      "apo": 8271,
      "wik": 8272,
      "chlor": 8273,
      "alone": 8274,
      "modify": 8275,
      "quadrup": 8276,
      "prefixes": 8277,
      "njust": 8278,
      "designed": 8279,
      "towers": 8280,
      "mov": 8281,
      "seeing": 8282,
      "breaking": 8283,
      "conflicts": 8284,
      "##8823529411": 8285,
      "kin": 8286,
      "##more": 8287,
      "##itor": 8288,
      "##forces": 8289,
      "prepar": 8290,
      "bdc": 8291,
      "copy": 8292,
      "##wo": 8293,
      "##ara": 8294,
      "##omic": 8295,
      "denotes": 8296,
      "2007": 8297,
      "waiting": 8298,
      "monsters": 8299,
      "guarantee": 8300,
      "##13": 8301,
      "reorder": 8302,
      "acb": 8303,
      "bish": 8304,
      "joh": 8305,
      "vowel": 8306,
      "decomposition": 8307,
      "9a": 8308,
      "males": 8309,
      "vac": 8310,
      "flaw": 8311,
      "immune": 8312,
      "coincides": 8313,
      "ncombining": 8314,
      "jen": 8315,
      "##adii": 8316,
      "monke": 8317,
      "averages": 8318,
      "fails": 8319,
      "insertion": 8320,
      "6k": 8321,
      "##84": 8322,
      "##pr": 8323,
      "chann": 8324,
      "logs": 8325,
      "##ieve": 8326,
      "offsp": 8327,
      "triplet": 8328,
      "niterate": 8329,
      "paid": 8330,
      "hypothes": 8331,
      "fermat": 8332,
      "avoiding": 8333,
      "offspring": 8334,
      "011": 8335,
      "amp": 8336,
      "sound": 8337,
      "##ropy": 8338,
      "dive": 8339,
      "nori": 8340,
      "pawn": 8341,
      "presses": 8342,
      "adsor": 8343,
      "restrictive": 8344,
      "pn": 8345,
      "##uild": 8346,
      "##geon": 8347,
      "package": 8348,
      "application": 8349,
      "hp": 8350,
      "penc": 8351,
      "##oo": 8352,
      "ants": 8353,
      "sto": 8354,
      "outgoing": 8355,
      "145": 8356,
      "splitlines": 8357,
      "bouqu": 8358,
      "instruction": 8359,
      "prioritize": 8360,
      "399": 8361,
      "ped": 8362,
      "r12": 8363,
      "##ustr": 8364,
      "1111": 8365,
      "##uests": 8366,
      "1788": 8367,
      "tank": 8368,
      "https": 8369,
      "guests": 8370,
      "##rap": 8371,
      "##radii": 8372,
      "##ww": 8373,
      "toy": 8374,
      "##ationals": 8375,
      "10b": 8376,
      "thous": 8377,
      "invest": 8378,
      "confusion": 8379,
      "variation": 8380,
      "3z": 8381,
      "5a": 8382,
      "a6": 8383,
      "pers": 8384,
      "saf": 8385,
      "snack": 8386,
      "mst": 8387,
      "rig": 8388,
      "intensity": 8389,
      "170": 8390,
      "turning": 8391,
      "instant": 8392,
      "540": 8393,
      "selling": 8394,
      "microb": 8395,
      "journey": 8396,
      "tv": 8397,
      "考虑": 8398,
      "abe": 8399,
      "npair": 8400,
      "replacements": 8401,
      "ships": 8402,
      "##ogene": 8403,
      "z3": 8404,
      "##izations": 8405,
      "backtrack": 8406,
      "frogs": 8407,
      "##thesis": 8408,
      "noriginal": 8409,
      "tie": 8410,
      "x4": 8411,
      "##rup": 8412,
      "compat": 8413,
      "sentence": 8414,
      "spinner": 8415,
      "ris": 8416,
      "##ister": 8417,
      "beats": 8418,
      "sharing": 8419,
      "differs": 8420,
      "describe": 8421,
      "achieves": 8422,
      "raise": 8423,
      "village": 8424,
      "eigen": 8425,
      "t5": 8426,
      "excep": 8427,
      "##plus": 8428,
      "symmetries": 8429,
      "visitors": 8430,
      "distributions": 8431,
      "merged": 8432,
      "dict": 8433,
      "mil": 8434,
      "ted": 8435,
      "expr": 8436,
      "##erson": 8437,
      "195": 8438,
      "world": 8439,
      "shelf": 8440,
      "isolated": 8441,
      "penalty": 8442,
      "##ino": 8443,
      "nslop": 8444,
      "heapp": 8445,
      "roles": 8446,
      "dima": 8447,
      "brother": 8448,
      "brocard": 8449,
      "cliques": 8450,
      "arrows": 8451,
      "communic": 8452,
      "semiper": 8453,
      "##hs": 8454,
      "##atrices": 8455,
      "stamp": 8456,
      "binding": 8457,
      "insp": 8458,
      "circumsc": 8459,
      "locations": 8460,
      "feasibility": 8461,
      "environments": 8462,
      "clubs": 8463,
      "wiki": 8464,
      "v3": 8465,
      "189": 8466,
      "created": 8467,
      "targets": 8468,
      "rearranged": 8469,
      "violate": 8470,
      "nslope": 8471,
      "ade": 8472,
      "dm": 8473,
      "##14": 8474,
      "##light": 8475,
      "##lings": 8476,
      "##ality": 8477,
      "resem": 8478,
      "misinter": 8479,
      "monic": 8480,
      "serv": 8481,
      "measurements": 8482,
      "suggesting": 8483,
      "uncovered": 8484,
      "diamond": 8485,
      "pollin": 8486,
      "misinterpre": 8487,
      "nic": 8488,
      "##83": 8489,
      "##向量": 8490,
      "##raction": 8491,
      "log10": 8492,
      "constrained": 8493,
      "stripe": 8494,
      "deviation": 8495,
      "amb": 8496,
      "sieve": 8497,
      "equalities": 8498,
      "##orses": 8499,
      "likes": 8500,
      "nmid": 8501,
      "parities": 8502,
      "na1": 8503,
      "190": 8504,
      "##ype": 8505,
      "##ofproblem": 8506,
      "artofproblem": 8507,
      "##negative": 8508,
      "artofproblemsolving": 8509,
      "clic": 8510,
      "##port": 8511,
      "005": 8512,
      "classic": 8513,
      "safety": 8514,
      "hits": 8515,
      "##vent": 8516,
      "##left": 8517,
      "##reak": 8518,
      "##icial": 8519,
      "unf": 8520,
      "nonnegative": 8521,
      "definitions": 8522,
      "observe": 8523,
      "slice": 8524,
      "luck": 8525,
      "u1": 8526,
      "conduct": 8527,
      "elev": 8528,
      "153": 8529,
      "incoming": 8530,
      "address": 8531,
      "280": 8532,
      "computational": 8533,
      "radiation": 8534,
      "painting": 8535,
      "weeks": 8536,
      "unclear": 8537,
      "trace": 8538,
      "fut": 8539,
      "oun": 8540,
      "tables": 8541,
      "syll": 8542,
      "2xy": 8543,
      "swapped": 8544,
      "rounding": 8545,
      "evaluating": 8546,
      "accumulate": 8547,
      "##ryp": 8548,
      "tries": 8549,
      "shuff": 8550,
      "##uctive": 8551,
      "143": 8552,
      "homogene": 8553,
      "debts": 8554,
      "exchange": 8555,
      "friday": 8556,
      "future": 8557,
      "fusion": 8558,
      "uv": 8559,
      "##enue": 8560,
      "distinguish": 8561,
      "planar": 8562,
      "wrap": 8563,
      "##101": 8564,
      "trips": 8565,
      "432": 8566,
      "customers": 8567,
      "##wbwb": 8568,
      "animals": 8569,
      "semiperimeter": 8570,
      "pu": 8571,
      "manag": 8572,
      "php": 8573,
      "r22": 8574,
      "advance": 8575,
      "777": 8576,
      "folding": 8577,
      "varying": 8578,
      "females": 8579,
      "roughly": 8580,
      "##agnetic": 8581,
      "g1": 8582,
      "cones": 8583,
      "rounded": 8584,
      "##可能不": 8585,
      "slavko": 8586,
      "wol": 8587,
      "complicates": 8588,
      "disconn": 8589,
      "bridges": 8590,
      "ivan": 8591,
      "sweep": 8592,
      "til": 8593,
      "##though": 8594,
      "storing": 8595,
      "encl": 8596,
      "1200": 8597,
      "collected": 8598,
      "merging": 8599,
      "falling": 8600,
      "completed": 8601,
      "enzymes": 8602,
      "shovels": 8603,
      "dz": 8604,
      "fg": 8605,
      "truth": 8606,
      "116": 8607,
      "blocked": 8608,
      "filling": 8609,
      "restriction": 8610,
      "owes": 8611,
      "ey": 8612,
      "ω2": 8613,
      "planks": 8614,
      "##cket": 8615,
      "decrement": 8616,
      "336": 8617,
      "##book": 8618,
      "purchases": 8619,
      "bor": 8620,
      "##inc": 8621,
      "cancer": 8622,
      "nbreak": 8623,
      "seek": 8624,
      "##yset": 8625,
      "winter": 8626,
      "misread": 8627,
      "emptyset": 8628,
      "skips": 8629,
      "opening": 8630,
      "island": 8631,
      "azar": 8632,
      "inver": 8633,
      "106": 8634,
      "ninitially": 8635,
      "entry": 8636,
      "adjusting": 8637,
      "scales": 8638,
      "centroids": 8639,
      "street": 8640,
      "nuclear": 8641,
      "purpose": 8642,
      "1x1": 8643,
      "deleted": 8644,
      "ingredients": 8645,
      "screen": 8646,
      "believe": 8647,
      "3000": 8648,
      "ia": 8649,
      "##ru": 8650,
      "##uke": 8651,
      "nover": 8652,
      "ninter": 8653,
      "2025": 8654,
      "##ody": 8655,
      "1999": 8656,
      "##centric": 8657,
      "chocolate": 8658,
      "##向量的": 8659,
      "##queness": 8660,
      "abb": 8661,
      "relating": 8662,
      "repetition": 8663,
      "175": 8664,
      "uniqueness": 8665,
      "suffice": 8666,
      "iii": 8667,
      "boss": 8668,
      "vir": 8669,
      "##o3": 8670,
      "##oki": 8671,
      "rooted": 8672,
      "buildings": 8673,
      "updates": 8674,
      "aa1": 8675,
      "subgrid": 8676,
      "##性质": 8677,
      "therm": 8678,
      "denominations": 8679,
      "dynamics": 8680,
      "heavy": 8681,
      "magic": 8682,
      "send": 8683,
      "nav": 8684,
      "feature": 8685,
      "characteristics": 8686,
      "inverses": 8687,
      "miscalculated": 8688,
      "##使用向量的": 8689,
      "antibi": 8690,
      "##ube": 8691,
      "problematic": 8692,
      "setmin": 8693,
      "helping": 8694,
      "capture": 8695,
      "optimizations": 8696,
      "completing": 8697,
      "setminus": 8698,
      "rationals": 8699,
      "vide": 8700,
      "##fa": 8701,
      "injective": 8702,
      "pictures": 8703,
      "##iquel": 8704,
      "tells": 8705,
      "computationally": 8706,
      "extremely": 8707,
      "isotop": 8708,
      "bes": 8709,
      "cad": 8710,
      "##uals": 8711,
      "thread": 8712,
      "nsw": 8713,
      "suits": 8714,
      "167": 8715,
      "gene": 8716,
      "defects": 8717,
      "##atory": 8718,
      "doub": 8719,
      "nlast": 8720,
      "slots": 8721,
      "observer": 8722,
      "neutr": 8723,
      "考虑使用向量的": 8724,
      "tedious": 8725,
      "ecos": 8726,
      "med": 8727,
      "youn": 8728,
      "##46": 8729,
      "internally": 8730,
      "122": 8731,
      "npath": 8732,
      "lig": 8733,
      "genre": 8734,
      "interpreted": 8735,
      "balloon": 8736,
      "observations": 8737,
      "pipe": 8738,
      "ecosyst": 8739,
      "nfinal": 8740,
      "shadow": 8741,
      "antip": 8742,
      "06": 8743,
      "trie": 8744,
      "##ondition": 8745,
      "16x": 8746,
      "produced": 8747,
      "230": 8748,
      "modeled": 8749,
      "skin": 8750,
      "strategies": 8751,
      "suffixes": 8752,
      "nconvert": 8753,
      "mechanical": 8754,
      "absorption": 8755,
      "throws": 8756,
      "cab": 8757,
      "gy": 8758,
      "miquel": 8759,
      "vapor": 8760,
      "185": 8761,
      "decay": 8762,
      "circumscribed": 8763,
      "homogeneous": 8764,
      "pun": 8765,
      "q2": 8766,
      "##ayer": 8767,
      "sav": 8768,
      "individuals": 8769,
      "partitions": 8770,
      "traveled": 8771,
      "endpoint": 8772,
      "branch": 8773,
      "ounces": 8774,
      "cmb": 8775,
      "##how": 8776,
      "sod": 8777,
      "finds": 8778,
      "plates": 8779,
      "somehow": 8780,
      "multipliers": 8781,
      "converg": 8782,
      "guarantees": 8783,
      "discrete": 8784,
      "hypothesis": 8785,
      "##asure": 8786,
      "cold": 8787,
      "intensive": 8788,
      "passed": 8789,
      "wheel": 8790,
      "membr": 8791,
      "strongly": 8792,
      "nindeed": 8793,
      "conveyor": 8794,
      "implications": 8795,
      "unbounded": 8796,
      "john": 8797,
      "aj": 8798,
      "bk": 8799,
      "lane": 8800,
      "yi": 8801,
      "##ths": 8802,
      "pops": 8803,
      "103": 8804,
      "spiral": 8805,
      "##ames": 8806,
      "specim": 8807,
      "phone": 8808,
      "##hedra": 8809,
      "stands": 8810,
      "brings": 8811,
      "concentrations": 8812,
      "cheapest": 8813,
      "learning": 8814,
      "aab": 8815,
      "curr": 8816,
      "topping": 8817,
      "beam": 8818,
      "weigh": 8819,
      "accep": 8820,
      "2520": 8821,
      "reconsider": 8822,
      "##ordinates": 8823,
      "insights": 8824,
      "typo": 8825,
      "mism": 8826,
      "surplus": 8827,
      "aef": 8828,
      "besides": 8829,
      "horses": 8830,
      "##bara": 8831,
      "##时间": 8832,
      "bell": 8833,
      "##lig": 8834,
      "ncost": 8835,
      "reprod": 8836,
      "trapezoids": 8837,
      "##3333": 8838,
      "principal": 8839,
      "absorbed": 8840,
      "875": 8841,
      "##lation": 8842,
      "posts": 8843,
      "corrid": 8844,
      "nlar": 8845,
      "nitro": 8846,
      "outcome": 8847,
      "quarks": 8848,
      "meter": 8849,
      "##uling": 8850,
      "995": 8851,
      "sugar": 8852,
      "restaur": 8853,
      "simulating": 8854,
      "encod": 8855,
      "a1b1c1": 8856,
      "night": 8857,
      "zinc": 8858,
      "mahm": 8859,
      "nmove": 8860,
      "degenerate": 8861,
      "2bc": 8862,
      "441": 8863,
      "9999999": 8864,
      "crystal": 8865,
      "thickness": 8866,
      "mahmoud": 8867,
      "wise": 8868,
      "##bits": 8869,
      "##itiz": 8870,
      "ncondition": 8871,
      "manually": 8872,
      "revenue": 8873,
      "##ups": 8874,
      "1997": 8875,
      "collisions": 8876,
      "concatenation": 8877,
      "manipulation": 8878,
      "vova": 8879,
      "##54": 8880,
      "##vel": 8881,
      "166": 8882,
      "iterative": 8883,
      "identif": 8884,
      "222": 8885,
      "balances": 8886,
      "fewest": 8887,
      "villages": 8888,
      "lose": 8889,
      "pk": 8890,
      "tit": 8891,
      "modulus": 8892,
      "extends": 8893,
      "warri": 8894,
      "oxidation": 8895,
      "3θ": 8896,
      "zone": 8897,
      "##29": 8898,
      "##ooth": 8899,
      "sink": 8900,
      "124": 8901,
      "114": 8902,
      "245": 8903,
      "n50": 8904,
      "##ifications": 8905,
      "preced": 8906,
      "integrating": 8907,
      "scheduling": 8908,
      "ivana": 8909,
      "sitting": 8910,
      "bq": 8911,
      "mart": 8912,
      "tests": 8913,
      "##rum": 8914,
      "##gree": 8915,
      "excent": 8916,
      "shot": 8917,
      "10k": 8918,
      "ndist": 8919,
      "essential": 8920,
      "employees": 8921,
      "introduce": 8922,
      "enzyme": 8923,
      "bitmask": 8924,
      "milk": 8925,
      "excentral": 8926,
      "nqueue": 8927,
      "ties": 8928,
      "zomb": 8929,
      "chrom": 8930,
      "compet": 8931,
      "##oms": 8932,
      "dense": 8933,
      "disrup": 8934,
      "logarithmic": 8935,
      "sunday": 8936,
      "5b": 8937,
      "aoki": 8938,
      "posit": 8939,
      "factorizations": 8940,
      "3125": 8941,
      "peak": 8942,
      "1998": 8943,
      "electric": 8944,
      "preserve": 8945,
      "lip": 8946,
      "ntaking": 8947,
      "liqu": 8948,
      "manual": 8949,
      "504": 8950,
      "234": 8951,
      "nedges": 8952,
      "preparation": 8953,
      "gems": 8954,
      "hol": 8955,
      "sq": 8956,
      "tires": 8957,
      "util": 8958,
      "wast": 8959,
      "但可能不": 8960,
      "##eq": 8961,
      "quartic": 8962,
      "advant": 8963,
      "npar": 8964,
      "educ": 8965,
      "entropy": 8966,
      "travels": 8967,
      "recognize": 8968,
      "human": 8969,
      "compression": 8970,
      "consonant": 8971,
      "gc": 8972,
      "mit": 8973,
      "##link": 8974,
      "ord": 8975,
      "defines": 8976,
      "worse": 8977,
      "##rown": 8978,
      "goods": 8979,
      "availability": 8980,
      "##ledge": 8981,
      "electrom": 8982,
      "profess": 8983,
      "languages": 8984,
      "acceleration": 8985,
      "je": 8986,
      "##125": 8987,
      "routes": 8988,
      "n40": 8989,
      "recalling": 8990,
      "workers": 8991,
      "##bbles": 8992,
      "384": 8993,
      "losing": 8994,
      "contradictory": 8995,
      "##一个": 8996,
      "##orting": 8997,
      "nums": 8998,
      "ninc": 8999,
      "reset": 9000,
      "intercepts": 9001,
      "redundant": 9002,
      "circumcenters": 9003,
      "theorems": 9004,
      "collision": 9005,
      "congruences": 9006,
      "picked": 9007,
      "resembles": 9008,
      "##aff": 9009,
      "##rosion": 9010,
      "converse": 9011,
      "copper": 9012,
      "##ilit": 9013,
      "nfloor": 9014,
      "2023": 9015,
      "chars": 9016,
      "perpendicularity": 9017,
      "fixing": 9018,
      "298": 9019,
      "causes": 9020,
      "parabolas": 9021,
      "imagine": 9022,
      "multi": 9023,
      "nsolve": 9024,
      "oly": 9025,
      "tour": 9026,
      "noh": 9027,
      "detection": 9028,
      "indist": 9029,
      "cm2": 9030,
      "sccs": 9031,
      "spectrum": 9032,
      "duration": 9033,
      "engineer": 9034,
      "hab": 9035,
      "mor": 9036,
      "vot": 9037,
      "equi": 9038,
      "subcase": 9039,
      "235": 9040,
      "orientations": 9041,
      "enumerate": 9042,
      "elevator": 9043,
      "nar": 9044,
      "rib": 9045,
      "xx": 9046,
      "forest": 9047,
      "beads": 9048,
      "although": 9049,
      "118": 9050,
      "directrix": 9051,
      "subseteq": 9052,
      "initialized": 9053,
      "served": 9054,
      "mechanics": 9055,
      "ndividing": 9056,
      "##ms": 9057,
      "10a": 9058,
      "pathways": 9059,
      "worth": 9060,
      "990": 9061,
      "331": 9062,
      "barbara": 9063,
      "h2o": 9064,
      "nnumbers": 9065,
      "##hibit": 9066,
      "mk": 9067,
      "concepts": 9068,
      "##ghter": 9069,
      "submatrix": 9070,
      "236": 9071,
      "nlc": 9072,
      "nselect": 9073,
      "packing": 9074,
      "nnumer": 9075,
      "courses": 9076,
      "taller": 9077,
      "cluster": 9078,
      "gar": 9079,
      "hon": 9080,
      "har": 9081,
      "pp": 9082,
      "compart": 9083,
      "##lored": 9084,
      "subm": 9085,
      "0000": 9086,
      "4096": 9087,
      "confirmed": 9088,
      "computer": 9089,
      "lcp": 9090,
      "collinearity": 9091,
      "robots": 9092,
      "hitting": 9093,
      "saturday": 9094,
      "unchanged": 9095,
      "leveraging": 9096,
      "07": 9097,
      "6m": 9098,
      "hote": 9099,
      "##c2": 9100,
      "##97": 9101,
      "truck": 9102,
      "##ders": 9103,
      "released": 9104,
      "##ailable": 9105,
      "perfectly": 9106,
      "##ursday": 9107,
      "4x4": 9108,
      "alternates": 9109,
      "1995": 9110,
      "attacking": 9111,
      "bmatrix": 9112,
      "customer": 9113,
      "beneficial": 9114,
      "lemma": 9115,
      "gaus": 9116,
      "bed": 9117,
      "fair": 9118,
      "sum1": 9119,
      "n2x": 9120,
      "contact": 9121,
      "primitive": 9122,
      "knowledge": 9123,
      "grids": 9124,
      "mixed": 9125,
      "deletions": 9126,
      "03": 9127,
      "gb": 9128,
      "tay": 9129,
      "appe": 9130,
      "additive": 9131,
      "nline": 9132,
      "integrals": 9133,
      "aaaa": 9134,
      "successful": 9135,
      "criteria": 9136,
      "eq": 9137,
      "##by": 9138,
      "lens": 9139,
      "365": 9140,
      "##hips": 9141,
      "signed": 9142,
      "nicke": 9143,
      "##ligible": 9144,
      "bj": 9145,
      "kept": 9146,
      "pure": 9147,
      "wish": 9148,
      "##86": 9149,
      "trap": 9150,
      "death": 9151,
      "sett": 9152,
      "##ician": 9153,
      "133": 9154,
      "disapp": 9155,
      "worked": 9156,
      "flood": 9157,
      "particularly": 9158,
      "pipes": 9159,
      "bouquets": 9160,
      "nnumerator": 9161,
      "b0": 9162,
      "cast": 9163,
      "ded": 9164,
      "h3": 9165,
      "pays": 9166,
      "##my": 9167,
      "alter": 9168,
      "adher": 9169,
      "iterto": 9170,
      "converges": 9171,
      "training": 9172,
      "hashes": 9173,
      "strengths": 9174,
      "liquid": 9175,
      "itertools": 9176,
      "##oh": 9177,
      "##iro": 9178,
      "##von": 9179,
      "chines": 9180,
      "##iveness": 9181,
      "1600": 9182,
      "summer": 9183,
      "reactants": 9184,
      "ignore": 9185,
      "taylor": 9186,
      "chinese": 9187,
      "2l": 9188,
      "4d": 9189,
      "5m": 9190,
      "cool": 9191,
      "1025": 9192,
      "grand": 9193,
      "optimizing": 9194,
      "expectation": 9195,
      "4w": 9196,
      "sided": 9197,
      "thursday": 9198,
      "enters": 9199,
      "enqueue": 9200,
      "##sian": 9201,
      "refuel": 9202,
      "13x": 9203,
      "winners": 9204,
      "transvers": 9205,
      "350": 9206,
      "pebbles": 9207,
      "440": 9208,
      "copies": 9209,
      "experiments": 9210,
      "nrearranging": 9211,
      "2u": 9212,
      "aed": 9213,
      "nut": 9214,
      "##tch": 9215,
      "##ze": 9216,
      "##uter": 9217,
      "seating": 9218,
      "tris": 9219,
      "##esting": 9220,
      "opens": 9221,
      "156": 9222,
      "137": 9223,
      "diss": 9224,
      "queen": 9225,
      "carri": 9226,
      "magnet": 9227,
      "potat": 9228,
      "heron": 9229,
      "experimental": 9230,
      "##planar": 9231,
      "invariant": 9232,
      "ncl": 9233,
      "ru": 9234,
      "##b0": 9235,
      "coding": 9236,
      "correction": 9237,
      "smooth": 9238,
      "calculates": 9239,
      "incomp": 9240,
      "divisions": 9241,
      "495": 9242,
      "life": 9243,
      "enhance": 9244,
      "2ac": 9245,
      "rb": 9246,
      "spend": 9247,
      "##999": 9248,
      "nproduct": 9249,
      "comment": 9250,
      "observation": 9251,
      "encountered": 9252,
      "jack": 9253,
      "lack": 9254,
      "r0": 9255,
      "tunn": 9256,
      "##lers": 9257,
      "##可以": 9258,
      "##era": 9259,
      "soon": 9260,
      "##osted": 9261,
      "diverse": 9262,
      "##atically": 9263,
      "complicate": 9264,
      "periodicity": 9265,
      "challenges": 9266,
      "mixing": 9267,
      "resource": 9268,
      "facing": 9269,
      "membrane": 9270,
      "5c": 9271,
      "aster": 9272,
      "hig": 9273,
      "θ1": 9274,
      "##inement": 9275,
      "##gers": 9276,
      "correl": 9277,
      "scored": 9278,
      "assumptions": 9279,
      "theories": 9280,
      "shel": 9281,
      "750": 9282,
      "rearrangement": 9283,
      "deleting": 9284,
      "higgs": 9285,
      "##tons": 9286,
      "stages": 9287,
      "nbase": 9288,
      "##verage": 9289,
      "1005": 9290,
      "n24": 9291,
      "sequent": 9292,
      "n30": 9293,
      "ndot": 9294,
      "rationalize": 9295,
      "555": 9296,
      "putting": 9297,
      "categories": 9298,
      "physical": 9299,
      "juice": 9300,
      "obstacles": 9301,
      "pizza": 9302,
      "flawed": 9303,
      "fed": 9304,
      "sasha": 9305,
      "##öb": 9306,
      "approaching": 9307,
      "password": 9308,
      "concatenate": 9309,
      "dishes": 9310,
      "describes": 9311,
      "stamps": 9312,
      "tired": 9313,
      "##ainted": 9314,
      "1006": 9315,
      "repair": 9316,
      "quadrants": 9317,
      "apc": 9318,
      "nconst": 9319,
      "rhs": 9320,
      "asteris": 9321,
      "##öbius": 9322,
      "ep": 9323,
      "kids": 9324,
      "##26": 9325,
      "##nes": 9326,
      "sees": 9327,
      "##icious": 9328,
      "nexpl": 9329,
      "nyour": 9330,
      "selections": 9331,
      "aug": 9332,
      "hline": 9333,
      "o3": 9334,
      "##x3": 9335,
      "##eration": 9336,
      "##osis": 9337,
      "detected": 9338,
      "assumes": 9339,
      "221": 9340,
      "##hood": 9341,
      "673": 9342,
      "parametr": 9343,
      "social": 9344,
      "nexplanation": 9345,
      "bh": 9346,
      "##lm": 9347,
      "##bers": 9348,
      "##irection": 9349,
      "appending": 9350,
      "5y": 9351,
      "metric": 9352,
      "##sum": 9353,
      "topp": 9354,
      "coplanar": 9355,
      "proton": 9356,
      "perimeters": 9357,
      "unv": 9358,
      "refue": 9359,
      "matchst": 9360,
      "##iel": 9361,
      "implemented": 9362,
      "adjustments": 9363,
      "preserves": 9364,
      "denoting": 9365,
      "belongs": 9366,
      "1000000007": 9367,
      "6t": 9368,
      "bur": 9369,
      "n但": 9370,
      "##ground": 9371,
      "##bble": 9372,
      "cond": 9373,
      "boole": 9374,
      "adb": 9375,
      "subjects": 9376,
      "141": 9377,
      "##000000": 9378,
      "consistency": 9379,
      "classical": 9380,
      "1983": 9381,
      "732": 9382,
      "stretch": 9383,
      "failure": 9384,
      "chessboard": 9385,
      "junctions": 9386,
      "888": 9387,
      "dates": 9388,
      "möbius": 9389,
      "dilation": 9390,
      "compound": 9391,
      "ntr": 9392,
      "##ucible": 9393,
      "260": 9394,
      "billion": 9395,
      "displac": 9396,
      "chris": 9397,
      "electromagnetic": 9398,
      "unvisited": 9399,
      "6c": 9400,
      "aob": 9401,
      "kp": 9402,
      "ren": 9403,
      "ub": 9404,
      "##cking": 9405,
      "##root": 9406,
      "neven": 9407,
      "excenters": 9408,
      "spf": 9409,
      "libr": 9410,
      "decision": 9411,
      "topic": 9412,
      "birthday": 9413,
      "toppings": 9414,
      "0625": 9415,
      "eh": 9416,
      "fly": 9417,
      "pul": 9418,
      "solar": 9419,
      "prisms": 9420,
      "corrosion": 9421,
      "n21": 9422,
      "calculus": 9423,
      "##uesday": 9424,
      "finitely": 9425,
      "ninteresting": 9426,
      "3v": 9427,
      "ast": 9428,
      "ace": 9429,
      "ces": 9430,
      "mac": 9431,
      "went": 9432,
      "δt": 9433,
      "##eric": 9434,
      "##acts": 9435,
      "envelop": 9436,
      "countries": 9437,
      "multiplicity": 9438,
      "cheb": 9439,
      "##mitted": 9440,
      "bary": 9441,
      "hun": 9442,
      "masks": 9443,
      "p5": 9444,
      "rent": 9445,
      "t4": 9446,
      "exec": 9447,
      "##omy": 9448,
      "182": 9449,
      "mana": 9450,
      "##yshe": 9451,
      "840": 9452,
      "mathematically": 9453,
      "airport": 9454,
      "shops": 9455,
      "unpainted": 9456,
      "motion": 9457,
      "ancestor": 9458,
      "savings": 9459,
      "##yshev": 9460,
      "##orous": 9461,
      "##iring": 9462,
      "361": 9463,
      "creates": 9464,
      "1993": 9465,
      "glu": 9466,
      "influenced": 9467,
      "paying": 9468,
      "##vonko": 9469,
      "tight": 9470,
      "exits": 9471,
      "finished": 9472,
      "manhole": 9473,
      "separating": 9474,
      "numerators": 9475,
      "surjective": 9476,
      "ndiffer": 9477,
      "photosyn": 9478,
      "invertible": 9479,
      "ctg": 9480,
      "apoth": 9481,
      "lucky": 9482,
      "921": 9483,
      "##91": 9484,
      "##orts": 9485,
      "##ention": 9486,
      "n200": 9487,
      "131": 9488,
      "simulations": 9489,
      "cheaper": 9490,
      "evolutionary": 9491,
      "protons": 9492,
      "9000": 9493,
      "##vian": 9494,
      "##erv": 9495,
      "stor": 9496,
      "##angular": 9497,
      "interp": 9498,
      "204": 9499,
      "##astic": 9500,
      "##ifying": 9501,
      "degrad": 9502,
      "zerg": 9503,
      "commands": 9504,
      "independence": 9505,
      "##ormal": 9506,
      "attacked": 9507,
      "quadruples": 9508,
      "eg": 9509,
      "traps": 9510,
      "mev": 9511,
      "quark": 9512,
      "nte": 9513,
      "reposted": 9514,
      "undersc": 9515,
      "serve": 9516,
      "popleft": 9517,
      "ndivis": 9518,
      "restricted": 9519,
      "025": 9520,
      "ages": 9521,
      "dance": 9522,
      "##icles": 9523,
      "excenter": 9524,
      "samp": 9525,
      "##abil": 9526,
      "naverage": 9527,
      "causing": 9528,
      "nlevel": 9529,
      "nremove": 9530,
      "nprocessing": 9531,
      "chebyshev": 9532,
      "csc": 9533,
      "##olored": 9534,
      "pigeon": 9535,
      "##ensen": 9536,
      "155": 9537,
      "scient": 9538,
      "bug": 9539,
      "diagonally": 9540,
      "serving": 9541,
      "explos": 9542,
      "slime": 9543,
      "concatenated": 9544,
      "waste": 9545,
      "0x": 9546,
      "2α": 9547,
      "580": 9548,
      "mapped": 9549,
      "sale": 9550,
      "θ2": 9551,
      "##89": 9552,
      "diversity": 9553,
      "134": 9554,
      "1234": 9555,
      "regarding": 9556,
      "ncontinue": 9557,
      "gallons": 9558,
      "3π": 9559,
      "4p": 9560,
      "emer": 9561,
      "ethan": 9562,
      "jk": 9563,
      "lan": 9564,
      "##rical": 9565,
      "##list": 9566,
      "##xy": 9567,
      "##ital": 9568,
      "sust": 9569,
      "113": 9570,
      "nperson": 9571,
      "everyone": 9572,
      "slant": 9573,
      "contributing": 9574,
      "subsegments": 9575,
      "treatment": 9576,
      "zombie": 9577,
      "ei": 9578,
      "hu": 9579,
      "ogo": 9580,
      "tuesday": 9581,
      "##ense": 9582,
      "poles": 9583,
      "impract": 9584,
      "147": 9585,
      "originally": 9586,
      "descent": 9587,
      "integration": 9588,
      "768": 9589,
      "pixel": 9590,
[...]
